0905E40AFA0AF9FEE4F103F6F81AF21F
FEFA1609FADFF6F91302F81E0CFCF5F5
00000000000000000004000000000000
09F4F705E6F401F90715F51E00000000
04E2F9FD15FDF91AF3020FFAFB03E804
88210842108821084210842103021809
EBF501FB0B11F5150882108421084210
1200F7140000FBF60C02EC020700FF05
21004210842108420300140803E6FFFD
F21FF413100421084210042000421084
0EFEF7FFFC04E608F701FAFEE2FFDFEB
00000000FEFA121EF903F4FAFDFE10FE
00000000000000000000000000000000
E903E7FE070AF905E601E0F0021AF813
03FF141D0303F8FE03F913FEF3030C03
21084210842108422084210842108421
08F40105EBFFE5F10816F70E08421084
0202FFFE00FD12FE0004F9FD0102EA00
0842108401084210842108420302101B
E30CEEE8FA18F6FC1084210842008420
E901FADA0F04FE0806030204FC09FDFE
0004000000000000FEFA091BF721F9FE
0815F9FA000000000000000004000000
F6040F0CF400FFFC0BF4FC04E60EF2EC
4210842103FF0B17FE1DFC01F2FCF6DF
08421104210842108821080210882108
0C00FEF90A000404EB0CFAED0E11F9F9
0301071200160300EF01F8E60200FB06
40108421004210042100421084210842
00000000000000000000000010842008
00000000000000000000000000000000
00000000000000000000000000000000
00000000000000000000000000000000
00000000000000000000000000000000
00000000000000000000000000000000
00000000000000000000000000000000
00000000000000000000000000000000
00000000000000000000000000000000
00000000000000000000000000000000
0905E709F201FAFD05F0190BF409FC1D
FFFB03E7FBDBF7FC1301F31D0AFCF3F5
00000000000000000000000000000000
010BF90403F4170B0307FF1C00000000
07DEFB0016FCF51AF2010DFAFA04E904
842108421084210842108421040207EB
03F3130A0805FF170882108420084210
13FFF414FF02FAF50C03EC0102F40105
2108421084210842040005ED05E40100
EB0201FA100421084010842108421084
0CFFFB05FB050207EB03FAFE0203F8FE
40000000FEFB0401FA03F6FCFCFB1404
00021000000000000001000400000000
E60400FEFC0CFA050100F801FC0105FA
030302030503FA0004F71905F10311FE
20084210842208402084210802108421
FEF402050100F9FF030104FB08842084
0404010002FC1905FF05FD00FF040000
08401080010842100421084203000000
010EECF4F4F7FEE91000010840108421
E8FFF3DA0E03FC0A0C031503F503FFFE
0000000000000000FEFBF915F621FBFF
01F802E8000000000000000004000000
F5040E0EF90112FB040AFD04FF11EDF6
4210842103FFFC12FF1DFE02F2FAEFDF
08421104210842108821084210842108
13010FF806F50504FF0EF1F507F801ED
0302FA0F00170502EFFFF3E70100FA08
42108421004210842108421084210842
00000000000000000000000010842008
00000000000000000000000000000000
00000000000000000000000000000000
00000000000000000000000000000000
00000000000000000000000000000000
00000000000000000000000000000000
00000000000000000000000000000000
00000000000000000000000000000000
00000000000000000000000000000000
00000000000000000000000000000000
08040309F009FDFC1DF11C1DF7EE060E
FEFCEEE0FDDDFB030DFBF62207FCF6F5
01004000000000000004000000000000
FFF3FC0217F3191B05ED0A0B00000000
09E1FE0211FFF81DF10110FAF8040403
8421084210882108421084210401F3E7
13F3121609F209090842108422088210
1000F515FF03FDF50A03030000000303
00004210842108420403F4EB08E60300
F6E40AE0108421084010042108421084
09FFFEFFFF051C06E902FBFD1FFE1511
00000000FEFCECE1FC02FA01F9FA100A
00000000000000000000000000000000
EA041BFFFA0AFA041901141005E60FE0
0301F2E60702FE0402F61209F0031303
21084210842108421084210842108421
FDF4020415FF0F0C0BEB0DE508421084
0602040300FB1107FF0500FD030419FD
0802108421084210842108420303F1E9
1B0B0306FAE007E81084210842008421
E8FEFCE20B03F70707031B02F303FFFD
0000000000000000FEFCEAFCF723FE03
06E50BE9000000000000000004000000
F404080BF40116FA0109FE03150E0305
421084210303F0FC011F0106F2F9F7E5
08821084210842108821084210842108
0D0112F703F50503110C00010BEC0AF3
0300EEFB00180804EFFFF9EB0000F506
42108420004210842108421080210842
00000000000000000000000010042008
00000000000000000000000000000000
00000000000000000000000000000000
00000000000000000000000000000000
00000000000000000000000000000000
00000000000000000000000000000000
00000000000000000000000000000000
00000000000000000000000000000000
00000000000000000000000000000000
00000000000000000000000000000000
09FD03F3F40EFEE601F703EEFCFB00FB
FF07F9F4FEF9FBFD06FBF3FAF9F00B0C
00000000000000401000000000000000
0302FEFE04F901F902F400FF00000000
FFFF01FCFCFFFCFFFEFBFF0B01FEFBFC
84220882208441084410840103FDFFF5
1605FEE9FDE800050842108421084210
09FCF2F8F5F2050407FEED19FF0DF9EC
3108621086210803FF0B04F9FDF9F6F6
01FD00FB1084210862188421084310C4
FBFDF70402FCFFF00AFCFFFBFA06FF02
C8318C0504FCF604070301F8F80607FF
18C6318C8320C6320C641906420C8418
FCF9F6FC0603FEF30AFCFDEA01EF00FC
01FDFEEFFEFFFFF7FDFEF8FA05F1FDF9
A4290842908521485290A5210E421006
040AFDF3F70F0106F80B00FC29084210
FE0201F2F1FDFAFAFF0F06FF07F90BF9
14A6298A6314E6295252940701F2050A
F70BFE0AFA0300FF314A5294C5314A53
0CFFFCFD0B07FFFB05F802180802FF03
73990731D4739808010101F9FE07FEFF
05120003418C631D06398C6398C739CC
FF0E01030101F802FD0BFF01F601F606
16949C09FE060826FEFFFEF0FDFE06FA
49CE73A12741CE741CE8520E841D283A
F9FDFD0AFD010806FF0301FDF5FE00F8
07FEFF010402FDFA04FF0BFF0102FFF8
484A128521095A5094A1494258A5A00A
0403FE01FD02FAF9F80100FE52108425
FEFCF2FBFC03FDFDFF0405FFF509FCFA
A52A6A92A5A56A4ADAB6240B0CF9F907
06FC03FBFC0400FD5A52952969525495
0AFD0502FFFEFBF902FAF617030506FE
B6298B531CC6A80CFD0503FF0102FE03
FDF500FA7294B5AD8A5A96A62D4B72D6
0801FFFDFFFFFFF7FDFFFEFBFBF603FE
5ED72C0E09FCF8FFFFFEF6FDFB0101FE
7AD6C631AB62D8C6B16C7B18C6ADAC5B
FF06E518FE0FFF060201FF0101FE0004
02FDFB1EFF02040410FF05F701FCFFFE
CC6B1AD7358D835AD735CD63A0F7B00F
FC02FFFFF1FAFC01FF0700FC8318D6B5
03FEF7FFFDFEFFFDFF03FE0103F201FD
39AE8BDEE7BDEE6BE31834100A09FCFF
FB02FEFCFFFE00FB8B5AF739ED735CE8
FEFF01FF03FE04FEFCFB01FF03FB02FF
F8460F7C6528B81104FCFCFAFEFDFFFC
F9010004939D07BE0E7B9F08BDCF9420
F903FD01FF02FFFBFF0201FAFBFE01FF
A7393C1305FF0103FF01F3FEF801FEFF
9BE118462F83E119C1F09C6308CA3084
04FFFF0E020901FFFCFC02FE060100F8
FE03FDFA04FFFEFC05FEFEFCFE01FC06
518C654A4A11A4A5194E718CE949C014
0106FCFCFE06FFFEF6FC00FCA42338CA
02FC0303FEFF02F7F702F201FEF4FE02
CE32ACE729D292952B5A441501FDFEEF
08FBFC06FDFF00FEAC65494E7394A75B
FBFEF2FEFC0AFEFBFF011DF00105FF03
3A56B39D6F6AC816FC0402FBFCFEFBF9
FF0C0002B4E759D6949CE96D5253B529
FE0102FEF505FEF1FB03FFE5F002FFFE
B17C5017FFECFA03FDFEF8FEFCFCFEFC
BD296A5EB5A52B7DD675BD6B4ADAD4A5
FFFBFC07FBFAFFFCF9F4FDFFFDF900FF
02F1FA02FE03FDFC07FF09FEF40508F8
F6AD6D8E5A96C5AD5B5EF5ADF38CD418
0401FF0801FFF705F9FE0001C56B7B66
FFFEFFFD05FF03FE01F102FCFCFCEF09
DEB7CDEF6BE336B6359D581901F9F901
FE03FFEFFFFE0009CDAD8CEB17B5EF9E
010202F701FF04FEE7FFFC010101FC04
7C6757C677ADDC1AFDFCF80AFF01FAFD
F7020004D5EF9D6F39BE71AFE2D8D631
0005EFF5FEFEF703040BFDFEFBFBFBFF
B9BE641C06FEFF0802FBF30201FC0DFF
DE31ADF35AC6B3B066F9DE738D6B98CE
FD05F3120301FF04FFFFFEEB01F70001
03F6F7FEFEFFFEFF0A010BF8000305F9
7BCEF5C06B3AE6B59DEFB9D6FBCEE81D
090D0108FF0BFE03FFFF00FEEE73BE77
FF01FBF306FDF9FF0001FFFFFEFDFD09
6F5BEEF7AE73FADF3FDF6C1E04F5F0F1
0D010002F7EE00FFF6B5CEFB9CD739D0
010105FF00FBFB03FBF9F60401FE00FF
BF741BE781EFF01F05F2FE0702FFFFF8
00040000FF37DFFFDDDFBDE0737CFF39
00FE05F90001F703020000F6ECFE00FA
C1F0740000FEFE040000FDFFFFFFFE00
0779E003FEE7FE00779D077BCF801CEF
00FFFE0600000001FF00000000010000
00FDFBFF00000000040000000001F3FE
00E800007BBE07BDD0001DF000007800
00000001FE00000000FE000007BBF000
00000000040000000001010000FF0006
7FC007C1E0001EF800007C000000FE00
0000000000000000003C000000F00000
FE0000000000FE0000000002000000F9
F0001F00000000000000FD0000000000
F8FF0006003E000000F8000003E00001
F9F30707FE09FD0BF6FCFDF2F3F7FCF2
00000000FFFDFBFAFEFCFE0AF3FDFBFD
00400000000000000000000000000000
02FBF9F10102FDFF01FAFEF801F300FF
0312FEF5FFFF01FFFFFFFDFAFDFCFF09
21084220842218421084410846108401
FE08FAF6080701EBFDF2000808821084
FEFB0404FBFCF801F502FE03F9FDF003
084320842108621088210802FFFB02F9
FD0BFA0102FF000610C4210842108431
FD0702FFFDFBF60702020209FEFFFF04
3190A318CA318C0304F3FC030703F9FB
02E800FD1946318C6318C6418C6428C6
FBF303F803F7F0F208FDFFFF06FCFCEC
0C42100501FDFAEFFEFC03FB03FEF9FE
2188421084210852108539084214C421
FE090CF40509FEF6FE0EFA06FAFE0001
01030207FE0201F201FE04FD020906FF
A5294A6294A6414A529CE5294E529406
0501FFF5F4FB020AFD0100FC29CA529C
FFFF0701F3FEFE0104FAF8F304FC02F5
98C7498C632106319273980701FD01FD
FF0CFE09050C00FF420E6320E631CC73
01FF0AFFFE08FD02FCFEFF07FC02FF01
73A52739D4949C08FEFAFF19FD02FEF3
FFFE00FF4A5273A5073A0E941CE859CE
FF02FFFBFF02FF01FE030702FE01F7FD
16A520090805010104FDFEFDFD03FF02
52948429284250A4A509625084A94842
F8FE040501FEFF04FB05FDFBF60200F8
0CFBFE06FE02FEFC01FD060102FF03FF
495292B5292A6AD29531694A5AB5A40A
0703060206FD03FCF80300FA5AD6952D
01FEF5FFF802FFFFFDFDFAFAFFFCFEFD
AD4B8314A5B58A529CC6280CFFFFFC01
F90402FFF9F900F96318A5B16A5AD4C5
01FFFEFE02F7FBFFFF01FF0804FEFEFC
B63DAB5ADED6AC0EFCFDF6FFFFFEFEFE
FDFE0003739AB6358B6316E6B56C8B56
0101FDF6FB03FEFEF4FFFFFDEDFBFD02
20F7300F09FEFDFFFFFFFC02FAFE02FF
7BDCC6B9AC6B58F7BD8D9398C6C1EC6B
020AEF0B03FC0106FDF6FC01020B00FF
02FEFF1403FC020501FF02FDFFFB0501
CD739B0841AE9BDAD7460D736317B410
FA0101FFF9FEFEFBFFFD00FD8462D73D
FE01F6FFFA02FF0101FC0301FCFCFF01
C5D0A424F7CA2F7BE52838110B05FDFF
F9FC0101FF0100FF8CE4E7C5EE7BDD38
FAFE0102FEFFFB03FDFEFEF8050301FA
084E70842738BC1204E8FEFFFFFFFF05
F9FF00029526F84A0F845F49C9F1ACA7
FD09F90102FF160602F1FC03FE03F703
6949401305EE06FD05FCF602FFFFFFFA
9D6908CE308CA15ACE13B4E91952918C
F314FD0102FEFFFDFEFEFEFE06FE0002
FEFAF90302FFFEFDFDFEFE01FEFDF305
5194E56B5634BD2B2A56B294AB59C414
FEFCFFEE03FB0108F5FF00FEA5AB1956
FD01010103FE0202F503FEFC011006FD
DA55CD6D3ADED49CEF6A4815FCFBFEFC
ED0DFFFEFF0100FAB5ED39DA729D277B
F9FFFFFFFFF602F9EE04EBFCFF01FFFD
4B62F5A5317ACC1601FDF9F9FDFDFC06
010100FEBE2F4A5E93A5698C5E76D5AF
F5FFFFFAFEDBFE020C01FF04F3FFFEFF
738BD01702F8FFFBFE03F6FEFFFFFD01
C6715B66B4ADEB9D6297DDF15BE736AD
FEFE020801F0FC03FB020207FFFE00FF
02EEFD02FFFAFF0501020303FE0206FE
D5B66DADE6B8E6336C6B57B5B59C5418
0103FDFFFEF8FFF3FDFD00FDCEB36CEA
0201FFFF01FD01FDF105FAF8FD01FCFD
6AF9EE757CEF98BDF7ACD819FDFFE902
FEFF01FFF7FF0005D6F57DEF16BEAFCE
FF020602FF02FFFD0103FE0A0503FF02
9D73B9C639BD601A06FEFF08FFFAFAF9
FC030009DF379E7337C6F3DEEF1AF6B7
000A02FEFAF9FA0603FE0109F605FFEE
7BCE641C02FFFB05FFFFF4FF08FDFD00
EF79AEF758D73400733BFEF9ADF7FACE
0006FC02080100FFFA06FE0301FD0003
04FEFCFF0201FFFD0302FF0000FC1206
79E7B600775C073BBE7C1BD6BFDEEC1D
FF0000FC07FF0002F7F000FEF7BBBFFB
00FF020203FFF6000001FCF300F401FB
7B7D077DCE801CE6C1EFF01E0500FDF7
F21200FA00070000F83FC07FBAEFF800
0200020000FF06FF00FFFF0201000001
DF001DEF01F07400000000040000FF01
000100000001D003DBF03C007F9E07FF
0000F6000000000403000001FEF90000
40007800000000030000FDF4FD00FE00
0001E003FCF83E0003A00001EF801EF7
00000000000000FBFE02000000FE0000
00000000000000FA000000000000FE00
1D00000003E0000000001FFF80007C00
0000000000FE00000000000000000000
000000FF000000000000000000000000
0000000000000007C000000000000000
0000000000000000000000001E000000
00000000000000000000000000000000
00000000000000000000000000000001
FB08000C000000001F00000000000000
FC02FF06FF030210F70CFCF4EBF8F7F4
0000000003FBFDF9FFFFFC11E8FEFFFE
08020004000000000020000000000000
01FCFBF2FF0BFCFFFFFCFFF8FAF50009
01FDFAF706FD0101FBFDFD01FE01FA0C
21108210844210421088410842110402
FB02FAFDF808FDF007F6000910441188
FF03030AF309FDFDF20CF40205FCFB0F
08631884210C621084218803021203FD
0111FF0202F100FA2086220C4218C421
0EFFFE04FBFEFE09F80603FBFE01FF05
3190A318C632900401FDF504FEFCFCFD
0102000428C83290632106318C8420C6
FEF8FAF90206F7F00103FFF3030701ED
48431406FF0403F3FE0101F702FFF8FB
310A4394A429485210A529084214C521
02040AF1FD02FEFA0DFCF705050200FE
01F8050204FF01F6F8FE050205FDF802
C531CA6294C6394A5298E6298A549807
0508FFFDFC03FA01FE0E00F7394E5418
FF010E04FDFFFE0602FAF6F0FEEAFEF4
98E7418C631D2731CC651C0AFEFB0301
0901F90BF8FF00044992651CE63A0C73
FD030A01FD08FF0101FB0C09F4010601
73A5483A0E75A00B0905FF11FFFFFEFC
F80100F751D4762107424E841D2849CE
FC01FBFBFE010101FE01FFFFFE0501FF
5086240C0AFD01010303FEFEFEFCFF02
5A168725284A9094A549521084A96942
FC06090401030503F7FA020AF70100FE
01FBFB04FEFDFFFF0603030302FEF9FB
4952D2A52D6B5A52952D8A4A9296A80D
05FDFDF90604FEFDFDFB00F96A5897A9
FF04F6FBF1FF0203FD01FEEFFDF6FE01
B18D6294A5B1AB52D4A72C0EFC04F5FF
FCFAF6FDFFFE0003729AC82D6A5B14B5
04FEFCFE01FFFC01F2FF07FC0309FEFD
B635EC5B16B8300F09FBFE0B05FFFDFF
FF0D00017ADCD8B18B6356C635AE6B16
FBFF0301FD0AFD03F5FD0102FFFCFFFC
5AC8B41001FDFFFE03FC0603F3FF0111
835EF935AC6B98D6B9CF7358C6BE0D63
FF06031103FC01FEEAFD04FDF9FD00FF
09FE0202FDFF010F01010701FC01F501
CD73DAF73DF07B9AD7462E6B9CD93811
F802FDFEFA0402FF040300FD8BA319B9
FDFCF404FDFEFF0103FBFA02FF0F0202
C21183DCE7CA8F73DEE9BC1303FFFDFD
FBFDFC0304FE000793E53A3DEE7C5D07
FDFFFF01FFFCF4FFFEED06030601FFFD
F852B07C20FA441406FFF8FB01FFFF06
FFFF00FD9C274AC20F84A11846328C1E
FF06FE03FAFEFDF8FF01FF06FE05FE01
631AC815FDFE0FFCFE01F903F9FDFE02
A4695B46308CE528CE53946108DED184
FEFF01FE0201FFFEFEFAFFFA010100FF
FCFFF9FFFFFFFEFBFDFF0301FE04FE02
5195273952749CA31962F294E52BCC16
FC01FFFF030BF402FF0900F5B4AB6CCA
02FBFE010FFFFDF7020505FC0509FF0A
D695A4E539E733A5293C501701040201
F90AFF05FE0100FFBCED7D4E729DEB49
F60302FA060202F8FDF701EF0603FBED
4BEF54AD6B4CD41802E7F9010204F906
F7FD0001C52F8DD293A66D5A5AB6B527
FB01FBF8F6120FFB0107FFFFF50302FE
AF5D581901EEFF0401FFF803FBFEFF03
CD719E56B4AEAF6AE2D7BD695C7375B5
FF0506040101FCFB04FFFF08010B0001
FDFA01FFFF02FE08FC020304FC02FAFE
D5B6F37B66F8C5AB6CFB96BDF16DDC1A
0702FF03FE06FDFDFC020004D5B3BEDA
03FEFB0303FEFB01F802FEF7E9F90E05
EF19D5ED9D7FB7C6737E641C04FCE902
F613080701FC0001DDF5CFDF36BF358B
FD03FE03FF01FFF2FFFEF905020001FF
AD83F8CEB59F681D01FE01010004FEF9
F7FE00FFE637D06757C7B79C733ADE2F
FFFA03FFF8030BFF070000FCF714FFF2
37AFEC1F03F9F10200F6FFFFF7FFF418
EE79E06B78CFF9ACF75BE673BE0019D7
FD1401F9FC00000401F102FF00EE0000
03EFFB00000103010A0001FFEF01FC06
99D03BBD7B7CEEB5CE801ADF79B07000
030000FE0602FFF2000B0000F6BA006F
00FB0302FE00FD02FEFFFDF302FD0304
FF9DF6FBDF801BE7BBC0740004FF0100
F8FFFE0300FF0000FEFC0073BAD83FCD
0E000002EE00FCFFF90A0202000000FE
E0001CEFFFD07C000008FD000002FFED
00000000073E007BDCE001DE03BEFF3D
FE00FFFF00FCFF00000000FFFE000002
01E0000000FF000000FFFD0102000001
0740007FFDE801FE83DF077E00001EF0
00FF0000000000FCFE0000FA00000000
00FF000000000002FC000000FF00FE00
1FF0000F03E007C000001FF801F00000
00000000000000000000000007800000
00000000FD000000FF00000000000000
80000000000000000000000000000000
03F405F8FCFE00F60000000000F8000F
03FCF3FA01F30D0D03F5F905F404FEE8
0000000000000000FF0F090AFDFF0107
01FA00FF000000000000000000000000
FEF7FE0103FEFBF20203FEFDFFFB01FC
4410840102FF16FCFFFF01FFFCFDFDF9
08441084210882208421104210844108
FCF5F207FBFBF9F709FFFEF7F90200FB
0412F8FFFDFD03030606F9FEF9F0080E
4210C431084220843108621086210802
FFFEFEFEFFFAFD01FFFF000318862108
0703F7FE18FF06FB0204F70304FBFFEB
8C6428C6418C8418C8318C0301FE0101
03FDFEF4FD0800FB28C8318C63190641
FFFDFEF8FEF0FDF001F7F9FD04FEFEF0
5210A5210E4210050106FBFDFE02FEF9
F70400FA310A42108421485210854108
081409FEFFF808FA0103FCF10209FFFF
50529406FFF3FFFDFE06FAF509FFF5FE
394C6294A5298A6294A6494A6294E629
02F302150503FFFEF8010101F7FF00F8
0102FD05FF06FFFFF3FEFBFAFF07FDED
E631CC7318C7518C7319073192639807
02F8FF020208FE0103FA00FF418E731C
FEFFFDFA04FFF4FF080A0302F7F8FC03
9CE859CE939D2839D4749C08FE02FD02
01FDF6F6F3FE000249D283A1073A0E83
FE020BFE020504FFFF01FC05FD010804
B421494216B5A00907FE03FF0401FEFA
F8FD00FA521494252842529421296210
0101FCFFF6FDFBFDFD01FE0103FE01FD
58C6240A0CFFFCFDFEFBFCFC06FDFC01
5A56B529494A94A6254A6A52C4A56A4A
0107010D020506FEFF04FAF9FA0400FE
FD02FE040102F305F70105FF060201FD
6A52D6B6B16B7294D5A98B529AD6A80B
04FCFEFB02FB0201FDFE00FD7298D5AD
FFFEFE031BFF01FD04F4FEFFFFF8F4FF
358C7AD6F62DAC5ADD172C0C09FFF702
08FD03FCFEFD00F87ADAE6318B5B18C7
F7FEFBFC0104FFF1FFFDFEFDFCFFFF01
06B1CD6B1F28300D02FEFE01FEFEFC02
FEF500FA831CF6B9AC635AD7B9AD8319
FFFF040102FBE504FE04FFFF05F5FF01
6138B40E0A09FFFC03FD03070AFFFEFD
8B5F073DCD6BA0E83DCE8B5B1735EE73
FCFFFD01FB0102FF03FFFCFDF9FE0004
0401FF02FE01F6FDFC01FEFF0503FFFF
EE73E508C1EF939D27BE0F7BA349380F
050101F9F9F7FEFE06FE00FB93A117C5
FFFCFEFEFFFE04FF0103FB0201EF01FD
4611A3E138423083E559BC1005FFFD01
FD0101FEFAFF00FA9BE3284E0F7C6719
F7FFF0F7F803F3FEFFF8FEF302FC01FF
4946718C276A4011FF03FEFF0407F502
FDFE00FFA42538D23184A949CA32AC23
08FDFEFEFFFFFFFF0102FDFCFFFC03FF
697AC41201FE020102FEFEFE09FEFCF6
AC674956538CEB5A4E53B46559CA9294
F4FF0F020305FF0306FDFFFFFF010004
FC01FBFAFCFF01FDFEFD09FE021301FB
74952D6AD274BCA96A4EB39CAB8B4C13
FB07FFE30B03FBFDFE0100F9B4A959DA
FD01FAFFEFFF02FCF8020CF9FFF7FC01
D695C4EB7AD2D4ACEF9C50140204F7FE
06FDFFF4FCF600FCC4EB6A5E969D6F7B
02FF01FEFF010902FC02FAFFFC06FEFB
8B56F5B531ACD41501F6FEFFFE01F7F6
F6FE00FECD2D8B66B7A5B18C5AB6CD2D
FFF405F7EB07F1050301FF0502F7FEFF
73BD5816FEF4F8FBFFFCFC010BFF0BFE
D56FACEAF8ADF39CDED7D56F9BDB36BD
FEFBFDFF01FCFD03FFFEF5F9FF020002
0602FFFEFF01FFFE050108FCFCFFF0FF
19B675AD62F8DDB1AC5F57C5B5CDDC17
FF10FDFE05F7FF02F3FD00FEDDB1BD6F
02FBFAF2FEFC01FFFF01FFFFFAF8F502
E719E5F3BCEB98CDF7DE601803F9FBF9
03FEFC0101FA0003EDF3CDF33CBEB9BD
0201FCF8F70506EAFCFEF6040201FF02
DD6FB9D639EEE41A04FEEDFDFF00F1F8
FFFB00FFF635DE035DC6FBCE6B3AEE35
0201FAFFFBFBFF0304FB0002FDFCFFFB
7BFF681B04FEFE01FF00FEFF09FD04FF
FE77EE837ECF3DDFEF7BFE77EDF01ADE
000DFC0106FF00FE0DFEFE00F7FF0003
00F402010200F6010801FEFF000707EE
9FD7BFE0739D06B9FE741BE6BE0FEC1C
FDFF0001ECFE0000000600FE06B9FF83
0000FE0013FF00000001F30200FBF600
7BBE06FA0EF81EEEC000701D0001F800
020B000000FA00FD06FA0003C0E7C000
FE000000000301FE00F9FE00010100FA
0F7C1FF70000741E00FBFF000000FD00
00FF00FE073C0003E0E800007FDF077C
0000FE0000FEFF0002000000FFFC0000
4000781F00F7FE000000000003000000
077E000000F0000003E007BE0F8000FF
00FE00000000000000FF000000FF0000
00FF000000000000FE00000000000000
00F80000000007C00000000780007C00
0000000000FC00000000000007800000
00000000000000000000000000000000
0000000000000007C000000000010000
FAF1FCF8FAFA000307C0000000000000
F6FEFBFCFFF10D05FD10FC07FBF5FEF6
0000000000000000FE02FF04FFFF0311
FCFB0002000000000000000000000000
FDF5FF01FFFBF8F30201FEFEFEF9FFFC
4211040201FDFFFEFEFE0101FCFFFE01
08421104210842108421104210844108
0103F106FDF8F9FE02FCFEF5F6FF0003
FE0E0AFE07FE090DF6FDFDFAF9F2010B
42108421084218C421086210C4228803
FD03FE0403F9FE01FF0400FF10842188
FE02FA04FF0702FBFAFFF604FAED01FD
0C642106318C83210633100404FEFFFF
050801F4F7FF00FD18C6320C6318C652
FCFFFFFC04EA02F2FE0DF4F20AFAFEF6
4210A52948439405FF01FEFEFFFE0202
040100FB210842908421086290852948
011004FFFFFB09F408F7FDF5F1FFFC03
8A549C07FDFCFEFBFF01FBF702FEFFFF
394A5314A5294A7394A6418A5294E631
03FD02FB05F7FF01F60EFC06FEFE00FE
01FEFDFAFEFF0402F1FFFFFFFF0AF6EE
E6318C949CC749CC631D0739CC752008
FF01FF02FFFFFD03F5FE00FF418C73A0
0401FDFEFBFEFD02FE04FE0101020306
A0E8524E73A128420E95A409FF060401
020201F8F80300FA49CE84250739CEA5
FDFFFFFF01FFFF02FBFDFF01FE020703
94A9494A92B6280A08FE01FFFEFCFEFD
F9FE00FF52109529284210C629095A90
FFFE03FFFEFF03FC02FEFE01FDFEFEFE
D4C6AC0B0D0101010102FDFFFD020502
5A52A5AD494A52D6AD2A62D2B52D6A5A
F9FBFD0406FD06FEF9FDF6FCFDFE00F9
FF0102FEFFFEF7FFFDFCFEFF0201FBFE
6A5A94E7314B6B16D5B18B6B16D7300C
05F8FEFD01F4FF01FEFF00FD6294B631
FFFCFE05F70202FF02F4FCF1FFFFFE01
B56D7358F635AC7358F8380DFDFDFFFB
FFFFFE01FEFE00F86AD6D6B58B6AD8F7
FCFFFAFE0203FD01FF04F1FDF4FDFF04
06BDCD7B9B18BC0EFDFFFEFF03FE010C
F9FF00037318E739AD7B1B08B98F839B
060206FFFE0FFFFF02FFFFFFF5F702FC
DD29400F0906FEFFFEFC01FEF8FEFF01
7B5B07BDCE83632A3DB18BDD1741EF83
FBFAFE01FCFD01FAFEFF0203060100FF
0202FF01FF01F60601FFFE01FEFF03FD
EF8BA53AC1D2941F27C6108C1F39CC10
06010103FFFDFD01F5F900FC83DD1845
05FFFE02FC0104FDFFFFFD0303FE0105
45F39C61384A3194614A54110B01FF02
03FCFCFEFEFC00FF8C1F38CA1093E74B
FFFEFEF9F401F8FDFAFFFFF101FF01FD
48CE729CA35AD81204FFFE0402FCF803
020400039461494E319C695BCA14A4A5
FF07F3F8FEFFFDF602F4FDF1FD02FE01
E56BDC1305FFFDFBFD04FE0209FFFC01
9CA559D252ACAB6C4E35ACE7595294A4
02210E010BFDFFFDFDFD01FFFEFF0003
FF03FFFDFEFFFF01FFFD0202FF07FE02
73B4ED7CD256B5296A56B5AD277C6014
03FEFF0303F4F7F4FCFC00FFA4E96A56
FEFEF802FDFE01FFF6FEFBF5F217F9FC
5697BD6B7ADAD6B569ACE41501F2F801
FFF2FEF8F70100FBAD2B7B5E94BD2F8D
FEFF0305FE0207FF010405FFFFFDFF03
8B5EF7BDEBCD6816FCF6FCFFFF02F508
FFFD00FEB56F9CE6B5C573ADDAB8CDAD
F6F1FD02EFDCEC030FF3FFFFFEFE0103
2FDDEC170102FBFDFFFCFF03FEFFFFFA
BDB5AD6AD6CDB7CE5EF9D5EF9BEB38C6
FEFFFEFE0102FD010AFEFF01F90400FE
02F802FF02FEFEF906FF01FFFEFEFEF2
F7D5F9EEE31ADE31ACEF59D671EE7018
05F3FD03FFF5FEFB01FE00FDC5F9BDF2
FF01FFFF0102FD0101FE02FFFC01F2F8
EB3BE675CD739ADEB3FEF41902FEFAF5
10FD0100FFFF0002CE3BDE7B18E67BFF
02FD010000011202FC04FF0104FFFFFE
EDF7BBE6F40F781AFCFF0100FFFFFB01
F70000FFD67C0EFF39F6BC006F5CEEB7
0001FDEC01F7F80007FF0103EC08FF00
360F801B06F6FD000200F403FC02FE00
DEBE0F835AFEFE00737DF6F80E7BFCEF
FA01FC00FD02000101FCFF0000000003
03F100000000FE0200FE000000010102
7B0700007B9EFF3A0EFC1DF77800001C
02000001FEFCFE00000000FEEF400003
0000FDFB00FF00000001F9FD00F40100
7FBF077C0F001EFFFE00001D04010000
00000000000000FDF78000039C074000
000200000000FE0000FFFF00030000FB
0F801F000000001E050000000000FFFA
000000FFF8000003BD07800003E007BE
00000000000000000000000000000000
0000001F000000000000FF0200FF0000
00000003DF07C0000000000000000000
00000000000000000000000000000000
000000000000FD000000000000000000
E0000000000000000000000000000000
F7FFFDF8EDF1F5F5FAF9000900000003
01020213E9FFFDFC01F8FF030207FA08
002000000000000000000000FFFDFAFE
FEF9FFFCF9FC00FF0000110000000000
FBFEFE01FDF8FF0102FFFAF8FDF6FDFF
110841084211040101FCF90206FE01FE
04F90002084221842108821084411042
F803F30B04FEF30CFE06FA03F407FDF3
84218802FF06F3FEFFFF0B0BEF08FEFB
308442084210C42108621884218C6210
FA06F5F504FDFF05FF01FF02F8010005
FEFD06FBFE02FE02EEFFFF04FCFEFC04
631906318C8420C832108318C6328C03
02FEFE0105F901F4F60400F73906528C
FEFC04FC04FFFE01FBEDF9FA01010AF6
10A5290A4294A42108439004FEFEF302
050AF80304FF00014948639084214842
FCFE02FA0309F502FD0601EF07F4FDF7
531CE5294A54940509FCFEF20401F8F8
FE020003518C7414A529CA5294C6394C
FEFFFDF7FEE80FF7F4FFFFFCF7FDFA01
8C6518060A0709FEFFFEFFFFF5FFFF01
59CE951CC6320C6398E7418E63A52631
FEFE080801010701F70DFC0BF60600FD
FEFE010101FF040AF7030201FD0BFFFF
E73A4E741D0851D2742D4739CE759C07
FFFDFF01FE0201FFF7FF00FE6A10A5A0
FF02FEFFFDFCFF02FC01FE02FB05FEFF
A1295A5894B16842D0862008FD010301
FFFB0204F6FD00F97252B62508429084
FE03010201FFFCFFFDF107F104FB05FF
B535894B1296A40A0A0101FF03FCFEFB
FD0100017A96C7292A4AD2952D4B629A
FC02F8F1F001010208FDFD0302F1FE01
54A7280B02FDFDF0FE03FD0107FF0103
82D8D7AD4B5314A5B16D6ADCC5BDAA53
FEFF030F03FEFEFAFDFFF7F8FEFD00F7
09FF01FEFFFFF702EDFEFD0102FBFDFE
6C5B56B6358E731ED641EB5B96B7AC0C
F7FE01FDF0F9FFFEFFFE00FE8B1AE831
05FAFD1603FF02FEFB010102FF070202
B9CF7B62E6C60C6BD8C8300D0304FE01
FEFF03FEFF0700F8935F08B58D6398C6
F601FD0EFE02F302FF07FF030302FC02
F74A8D741CD8B40E0601FF0302FE0402
F9FF00039BA13939AE6BDAD73DF083A4
03FFF8FFFE13FFFAFAFBFFFEFCFE0201
5EF94C0FFE010305FDFCF40401FEFF01
A3E349BDEF745EE7C2118BE707CEAE7C
FBEA06FA0902FFFEF9FDFC0203FA0001
FC01FEFDFE01FEFFFFFFFE01FFFDF4FD
117CA4F8463294291852CF84A119D010
01FFFFFDFFFEFEFCFAF900FDB4656A46
FEFFFB01FBFD0401FF08FE05FFFBFD0E
CE539C6B38D6F08CE32A541101FFFB02
FE01FF02FEFA00FFBCA77B4A3284E708
F9FFFF01FF02FC0106FF0AE602FEFF05
495B1195253AD812020303FD01FCFE02
010A00FFC4E99BCE538DE9195274A4AD
030102FC010AF5F4FD02FFFE01F8F1FF
694BDC1301F0F8FBFF06FE01FC03FC03
CD2BACD274966B29DA95ACEF59DF329D
FEFCFFFB0701FCF3FD01FFFEFEFF0009
FDF8010502FFF4040FFEFF0208F80102
959EAF3A5EB6B5316AE754ADAB5C6014
02FFFDFFFDF80201FDFD00FFD56DCD56
0201F702F902FFF5FCFFFAF5F51308FF
E2D7BD737B6B95B5EF6CE4150402FEF4
08FEFFFDF80100FFDDAFDDDAB6A6F14A
FEFEFFFAFCFBF801FF0503FE0603FFFB
9BEFB6BE317D681601FB020002FEFFF9
F9FD00F7E5F20E5ED7AF335B6AF9C5B5
F501FEECFFF7FAFD01F70103FEFEFE01
739E6C1703FE01000203FEFFFEFFF903
EE340FE6F8B7756BEF1ACDF9AC73F7C6
E4FE02FE03FE00FFFBF808F0F7FD00FF
03FF010000F8FF030503FE04FF03FEFF
19BFB77C733BD63DBCF418CEB5AFF018
0E0200FC06FEFFF200FF00FFF676006B
00FBFB02FCFFFD02FE04FE01FF04FFF7
F75CDE7FCD7C19D6F7C0741A04FBF500
FF14020300FF00FEFEB800733AC7F99C
F700FE18F201FCEDF4140004030000FF
DD801ADF39D0781C0005FB000001FA02
000000FC073A007B5BC83BAD7B7DE681
FE00F602FDFA00FF0D0000FE09F8FE02
7FE0001D00EF020000FFFFF50E00FDFE
077C007F7CD03FBD839EEEC1EE001BE7
01070000FC000004F0FC00FA000000FF
0001FE00000005FEFD000004F100FFFC
9DD801CE03BFF7000E801CEFC1F0001E
01000001FF000000000000FE07BE0003
0000FE02010000FFFC00FF00F9030000
83C0FF400F001DF00000001F00000000
FE0000000000000000000003BEE001EE
FD000002FF00FE0000FE0000030000FF
0F801EF800000000000000000000FF02
0000000000000003DFE801FF03E00780
FF00000000000000000000FC00000000
00000000000000000000FD00FD000000
00000003E0F0000F8000000000001F00
00000000000000000000000000000000
0000000000000000FC00000000000000
00F80000000000000000000000000000
F706FEE707F904FBFDFF00F400000000
FE010B16FDFCF3FB09F1090B04F2F101
000000000000000000000000010C110E
FAFFFFFFF80100FE0800000000000000
02FFFFFDFEFAFE010402FDF90101FDFE
1084410842110401FEFB180207FC0503
FD1500FA104421884110422084211042
01F90617FFF2F80CFA04F9FB05FEFFFF
84220802010EFDFCFF02FD0D1CFCFBFF
1886328C621884310842208421086210
04FAFFFEFFFEFD0106F3FEFEF8030003
FE0604FDFE05FC040C0506FD040AF6FE
A320C6418C6328C8318C8418C6428C03
0104FEEDFE02FDFB010E00FE20C84390
040801FE03FF02F70DFEFE05010103FD
9084310A4214A521085310050101F7F7
0202FF02F7F300FA290A5414C4290852
F3FDF6FEFF0A0BE8030602FFFC03FDF1
5298E6294A63940601FBFC02FE0801F8
03FD00F9314C651CE5314A6314A5394C
0802FCFF01F5FBFD0401FFF4FB01FFFB
90749807FE01FAF002FFFD01F7FFFCF8
398E75A106398C7398C64190631D0731
FFFBF810FFFFFF01FDFE01FCFEE500FF
FD020302FFFBFFFD08FDEFFE030303E2
2749CE941CE749D273A52839D2951C08
FD04080302FCFE03F4FE000249D08629
FFFFFAFCF7020A01FF05FF0601FD01FE
210952549429494214A5A009070503FD
06FBF6F6F70100FB525296B1485252A5
19FDFDFD02FE0404F70AF503FDFFFE01
A4AD6A4A56B6240A09FD01FF03FFF905
FA0700FE5A94A7356A5A94C6252B5A96
0301FEFFFDFAFDFCFFFF06FFF90501FD
98C6AC0BFF0303FDFEFEFD09F60106FD
6AD6B7B98B62D6D6A94C62D8B5318B52
F9FFEB010208FFFA0BF8FCFBFEFB00FC
FCFEFFF5FFFC030303FF01FE070402EC
AC6B18E72D6D6B1AD5B5AC5ADAD7300C
04FFFFFCFEFF01FFFFEE00F87318D83D
04010304FDFCFAFE02F1FFFFFFF3FB01
B58E835CE63DED631CF8340D090D0301
05F80301FEFE00FA7B5AE8C5CD735B17
FEFFFFF5FF0201FF03FE01FFFE0101FE
F6C20E6B5F08B80E0203020302FFF701
F9FD0004839CF949EE7BA14839AF8B9E
06FF0201FCEF02FFFBFB01FF07FEFF01
A1193C0F090203FFFCFCFF01F801FEF7
8BDF19CE0F83E558BDD093E117C62F73
02F9FE03050201F907F7FCFD04FE00FB
0301FE04FE0AF9010DFE04FC0206FDFF
308C677945F1A423384A707BE329C010
0203FDFFFA01FE03FCFF00FB94213A52
FEFEFF06FFFFF1FEFA03FBFCFFFEFFF6
CA12ACA5494E9184253A48110601FF05
FEF801F9FF0300FF9CA34B565194A989
EFFEFCFF11FCF303FFFB02F8FF05FFFC
59D2B28C674ACC1202FFFEFCFFFEFE01
FFEE0003ACE55CDA729CEB9A4E33B4E7
0408FDEBF40401FB0105FF0601FC02FF
A95B5013FB080501020304FBFAFD09FE
B5276D5E93A52DAAD254BD296A56D394
FF03FBFEFEFCFEE00708FFFA01F600FB
FF07F9FC02F9FB0B0AFF02FFFB020BF7
B4AD6FBBD695C56B7ADEF4A4EB6BD414
FDFEFFFB12FCFFFFFE0900FDBDA97DEA
0201FE0705FF01FAFFFB060CFCFBF5FC
5AB6CDAD9B6715AD2D7C581502FEFAFF
0BFAFCFFFC0100FEC5EB8E6EF5B5B1CC
FFFF0BFDFFF905F6EAFAF3F90111FF06
ABEB36B56F8CDC16FDFE08FE01FBFF04
F8FE0003D62D9EF316BDF3DCDED7D5EF
02FDF207FEFFFE01FF01FE0309FBFFF8
B19D60170406FCF502FFFCFA04010AFF
DE6FAFF737C675ED66F9DE31BCEF57CD
F8FAF302FC05FEFE0AFDFEFAFF0100FE
FF01FFFE0000FC010BFB0600FF07FEF1
58CEB80DEB1AE673CD7398D5F3ADE418
03FF0002FBFFF7FFF4FF0004E6F1B003
0000FF030901FA00020206FFFB05F802
6F3BEEB5DDF819DE35BE681A02FE02FB
07FAFF02020100FFEF33C00379D6FA0E
01FD04000112F90BFBFC0100FD010005
0E7C1AE677DEEC1B03F506F20000F9FB
FE140003F775D0039ADF3C0EF35CFEF8
03F8FAEF0006FB00FE0000FEFC04FAFF
B9EF701C04020900000004F518FFFE00
FFB80003BCE77E0FF77D073A0E801BEE
00F5FE000100000503FEFDFBF7E500FC
0001F9000000FFFDF801000000030403
DDEF80007F9E077C0F001CF6FFFFF41D
02000001010A0000000100FE07FA0003
0000FE0103FF00000000F8FB00FEFF00
03BF07BE0F801EFF0000781E0000FE00
00FC000000FE00FE003E0003FEF7C000
FE0000000000020000FE0000000000FA
00001F0740007C1F0000000000000003
00000000000000001FF8000003C007C0
0000FD00000000000000000000FE0000
80000000000000000000000000000000
000000000000000003E0000000000007
000000000000000000FB000000000000
00000000000000000000000000000000
000000000000000000000007C0000000
02F5FEF506F3FAFCFFFC00FF00000000
01FE0614F9FEF8FF09F40401FF09F8FC
000000000000000000000001FE0BF903
FEFDFFFDFC0200030000000000000000
01FDFF01FDF6FE010302FCFD01FFFEFF
108841084221040301F8FCFC07FC010B
011000FC084221882208821084211082
FEF3020BFDFEFA09FD03FAFEFFFEFBFD
84418804FD0B04FCFF010409F507FD01
1084320C4310C421084220C4218C6210
FCEE01FA09FCFE0406F3FEFEFF0400FD
010903FAFF02FA0406FF03010105F603
A42106418C64290632108318C6520C05
07FBFE010703FF01F80D00FE18C65310
FF0501F9FEFE01FAFAF602F0FC0FFDFF
10A539484294A42108629007FF030102
0F06FC02F8FB00FE21086394C5294852
EEFFFFFD0513F4FFFFFB0BF806FFFEF9
5318E5294A739408FE07FBEA040303FE
04FE00FF394A741CE6318A6294C6418A
0103FDF304FA0301FF01FFF6F307FCFF
CC949809FE01F901FEFEFD08F7FCFFFB
498C85210739CC7318E749CC639D0631
FAFF0A09FF01FFFDF7FE0104FEEF00FB
090106FE0101FBFFFEFFF6020208FFFE
48420EA39D085A0E7421273A0EA51C0A
FEFE070101FBFFF7F6FE00FE51CE95A5
FFFBF902FD0205FF01040408FD02FEFD
2129629094A5484250B5A00B0A0603FD
050401FFF70300F95A50B629694A52C4
01FDFF01FFFFFD03F9FC02F60202FF02
B529694A92C6240CFEFC04FF0301FDFF
FBFE00FE6A92C72D8A5294D5254B6AD4
FE02FFF9FFFEFBFF07020601FAF5FEFF
D4D6A80DFD0A01F1FEFE090BFC020101
72D4D7B1AB5AD6E5B16D8316C5AD8A52
FF01FE0405FDFFFD05FEF601FD0500F8
0AFD02FEFFFEF7FFFEFF02FF03F6FCFE
EC6B18F6358E8B58D631AB5B16E72C0E
F6F9FEFDFBF5FFFFFFFD00037B16E835
04FEFF0F03FCF8FE01010802FB09F401
B9AF93DAE6B5EC6B58F8300F0202FE02
07FF0201FEF200FF8358F8BA0D735B06
FBFFFF010404010103FCFD0103FC0101
F73E0D739F08B4100A030E0102FCFB07
F9FF00FC8B9B093E2F7B9F273DD09C1C
0302FAFFFAFFFE01FDFF01FF05F7FD02
E1193811040A02FEFD01FEFFF701FE01
93DD19C65083E537C1F1A45F07C22E7B
FEFE02FC06FD01FFF401FCFD04FE00FF
0601010601FFFC0505FE03FD0303F8FB
718C6748C612ACA118466F842329BC12
0102FDFBFFF7FE04FCFF00019C1F3A4A
01FC0202FDFFFCFB0103F30603020107
4A33B4E338CA908C653A4013FF03FB05
0EFC01FCFF020001A4614ACE9294A959
FFFDFC020C03FEF3F115FFEE02FEFF02
494EB1A4A74AC414010103FEFE05FBFD
FFFF00FFACA37B52B39CEB6A4E54BD27
FF0EFFF8011008F2FFF2FFFD0909F9FE
E95B4815FBFFFFFE01FEFD05FDFE0302
B4E59BD6F4A52D7B5275CD6959D2D2AC
ED02F8FA0FFEFF0208FAFEFC030300FB
010F0201FFFFFD0B0AFF01FFF702F30A
35AD6F8BD696D5AB6A56F3B52B6BCC16
04FEFFF3FFF401FFFEFA00FEBD27ACDB
02FEFD02FEFFFF01FFFE01F6FEDDFFFB
5AB7DDED7ADB34BD6F7C5017010CF3FF
FFFBFFFAFCF800FEC569BDDF56B5F19C
FF010304FAF70201FBFFF20101FDFEFD
8B5F55C5B19CD418FD09FE020101FFFB
F90700FDD5ABCE6777BE73AD5ED8E62F
FEFEFF09FBFFFFFA0DFFFD0105FAFEFD
F3AD581905FE05EC01FBF906FEFDFFFF
DE2DDEEB99C6B7BDE2F9EE719BE396CD
0101FDF802FE010312FF01FFFF020001
FE0701FF02FBFE04FD0102FDF8FEFDFA
BACEF9CE671AF6B3ACE7F7D635BDDC1A
01EF0003FDFBFF02F70100FFE66FFFF3
00FEFE0207FDF9FF020D0302FAF9F1FA
EB3CFEF5CD681ADE77DE641B02050400
12FCFCFF02150003EEB20077FBD73BDF
01FF01FF00020FEE000401FF040200FE
DDEC1BE6B9EEF01C0301190000FF0003
FFE400FEF6F4007C1CDF7DE06F5D0737
000EFC0300F703FE03FB0001F6FDFDFB
FFFF741D040C0100000000FDFB02FE01
FF3600001DE7BFF0737E0779EE701CEE
00FF010002FF000202080000F70100FD
00F1060000000002FEFF000000FE04FA
1EEFC000779F07BA0F781DF7000FF81E
0302000100FF000000FE00FE07780000
00000003020000000001010000FF0100
7BA007FC0FFC1E0740007C1F0002FB00
00FE00000000000007BA00001FF00000
FC0000000003FE0000000000000000FB
00001F07800000000001010000000000
0000000007FC000000F800007FE00000
00000000000000000000000000FB0000
C00000000000FE000000000000000000
003E0000000000000000000000000007
0603FA02F901FEF8F4F1F5F6FD030008
FE09F50301FE08FAEDFEF90107F2FD04
01000010000000000000000000000000
FCFFFF04F3FCFF02FB0300FE00000000
02FC0201FEFDFE06FDF7FE010601FBFF
84411042110423104211040101F9F801
0201FCF9051300010842110822088420
ED08FF03FBF3F50903FBFD10FFFFFDF9
2188451884218802FE06F4FF06010B05
FF0500051084218C4310C63108621884
FD02FE02FC03FFF50606FAFC08F8FF01
C6320C03FE0909FEFF0403FDEEFF0204
18C63214641908418C8320C6320C6620
FDFCFE010701FEFF0509F8FEF40C00F3
FFFEF704FF0103F903FE04FCF9F3FA03
85214A5210A42908429087294A429004
0905FE01F30DFA0201FA00023108429C
FFFEFDF9F6FDFF01040FF6FAF80609F4
94C5394A5314A831CC631406FE09FF01
F6FFFD0BF50300FE394A53A0A629CE62
F3FFFFFC0104FE03FEEA01FCF9FFFFFE
639CC93A0E739807FFF9FB020402010D
04F200FE41CC6424E732107318E6418C
FE0EFEFFFEFC0D0704FEFD03FFFEFFFF
50949C08FD070BF1FFFBFEFEFC030202
4A4E7529083A52841D0751CE7524EA42
FBFFFF010905FFF904020104FEFF00FA
09FC02010102FFFDFDFC0202FD02FFFE
2A429494A1285A1085AD2B4A92A5200A
02FC06FDFEFBFEF5F70100F8529085AD
FFFEFA04FE03FE02FCFFFD08FD0505F9
A549625296314C52D4B5A40C070B03FE
FEFDF7FFF7FD00F85AD296314B4AD6A5
09FF02030201FB01EEF803FEF9FDFFFE
A6B56D5B16C6280EFEFFFFFF03FCFB0F
FA0600026B18C7356D5318B6296A6A94
04FEFD03FE0CFEF102FD05FD01EFFF03
58D6AC0FFCFF0BF2FEFEFCFFEAFDFAFF
735AD7B98E5B5AC7AD8B7358B73D8E63
FF02FEFFFCFFFEFEFCF50102FDFD00FE
0A0603FEFFFB030204FF0109030303FD
AF639CD9B1AE7B9AC7C1AF6BDCE73011
0AFEFEFD020102FFFDF500FF7B9CE83D
0501FFFC09FEFF020CFBFF03FE0EFF09
35CF83DCD845F0741EF7B412020AFB05
F7F8FC01FF0100FE83E0F8C5D06C5EEA
02FF0101FD01EF03FEEEFE0101030104
E8CA118461083813080405FE02FFF8FF
F9FF000B8C631949F174A0FAB9F08C1E
FD03F8FBFAFD010502FB01FDFFFCFE04
A3193C140301FF05FDFBFE01FBFCFE01
94A539CE1284E51B3E129460F94E328C
FFFF02FDFC04FD010105FEFD020100FF
0701FD0C0106FEFEFBFF0303F702F407
338D272BC2339CA309D2939CE529C015
0301FFF601FAF203F70300FE9CE74A52
01FFFEF9FCFFFC02FF02FEFF060CFFF8
4A54A4E51A56B4A5293A4416FF06F905
02F3FFF8FFFF00FAA5295AD65495E93C
1002FCFAFE08FBFEFFFAFE0E07FEFFFF
3ADAD5AD6B4AC817010BFBFFFE01FC01
020100FEAD6B6B5A759E6B4CCE75B527
FC090209F411F8EB0302FFF902FE02FE
AF5BCC18FB09030202FD08FFF6FD01FB
B5AF7BDE96A6AD5D5296BD6B4B5EF6B5
FF0404F506FFFF0209F8FFFBFFF600FF
02FF03FEFF0301FAFC02FF03FE01FBFB
B7AEEF6DD6D7C5AD5BE317BDF16C5019
04FFFFFAFFFEFEFFFDF900FFBDF39CE6
01F8FDFFFDFEFF05F5FEFB01FFFBF9F8
5AF8CDEF6CE739C6337CD41A01FF0FFF
15FC08FAFC0400FFC635AD6AF8B7317E
06FFFF01FFF9FE08E3FFFFF61003FEFC
9D6F5AD6759D581BFD0701EF02FAFD02
F90700FBD677DDF339BF739EDF19D631
FFFFFEF8FE0303F90305FFFEFEECFFFC
B7AE5C1C0309FCFF01FFFCFFFE02FE16
DEB9FE775AC7B5AF633ADE73ADF37BDE
F615FEFF1002FDFF06FDFEFF01FF00FD
FE14FE0002010502F7FFFFFE0002FD01
9BCFF7B06B7BE6B5BE7F9CE6FFBEE81D
FB000103F70B00FDF7FF00FFE73A0EFB
02FFFBFA1500030D0001F8F1FBFC01FB
6F9DEEF7CE83FDEF01CFEC1E02F20100
FF010003001300FEEF7C0FFFBCD039C0
FD00F90300070304010A07FF020000FE
DF001EFF41D0701F0202FF000000FEFE
00E70000F7BE0003FDD83BD073BEF739
0003FFFAF90305FC030000FC00FF00FB
81F074000401000000000002F800FEFF
FFC000001EE03FE077DFFF7BEF801F07
00FE02FF0000000000FC000000FF0000
0000000000000002020000020001FE00
1FE801F07BE007BDF0000007C0007C00
00000000000000000000000000000000
00000000FD0000000002000000FFFF00
7C0007FE000000000000000000000000
00000000000000000000000000F00000
FC000000000000000000000000000000
00000000000000000000000000000000
FFF601110000000000F8000000000000
FFFEF70DF80E01F6FF15FFFBF911F3FA
0000800003FEEAFF0503FD0506FFFA01
00000180000000000000000000000000
FFF5F9FC0108FE02FDFF01FFFDFD0BFF
F7FEF7FFFEFD04FF02FF01F6FF01FF01
41088211042108422088210842110441
0702040CFE13F7FCF6F4090708422284
FFEF0108F5020405FF010A08F80701FB
88421084310C42108421888207FBF4FE
040102FDFAFE0304108433086210C421
0BFF061DFFFA04FF0B01FF06FEF403FE
41906318C6320CA3FCFF02FEFCF301F8
FE04F9F918C65390831906328C6318C6
FFFFFFF301F3FDED04EFFF050EFFFE02
084290C4F808EFFEFFFCFAFF01FE06FF
21487494A62148439084210852148421
FCF50EF5FC05FD061301FEFFFF02F9FF
FAFF07FF0BFCF7FF07FEFBFF01F801F7
C729CA5414A5294A6298A5294A5394E5
FBF6F9FF01FDFDF8FEFAFD01318A8518
FBFC02FEFE02F7FBFDF8FAFA01F9FCE6
98C7318C731CC6318C7499060507FB01
16F705FC02FEFEF139CCA61CE8320C65
F90104FF01FB0C02FC06FD02F201FE14
93A0E739CE859D4701FC17FBFBFE0101
030508FC420EB6A1093A4E861CE839CE
FEFFFDF903010104FEFB03FD020603FD
1296256901010BFDFD04FE0402FD0101
4A92D7252A42D096A5094210A4A52842
0702FCF70505010106FD0503FFFFFD01
F203FE010105050406FD060A0102FE03
4B4B52A7292A4A54B529694A56A7298A
FEFBFC010501FEFE11F604FD52D4E829
0903FD01FA03FF0802F6FDFA01FEFBF2
AD4B5296D5AD8A5AD8B7ADABF9FF03FF
0205040203FDFD025B16F8AD6C5394B8
0A0505FFFF01FDFD0FFEF90302FCFEFF
E631AB631AC8B1CCFD06FCFFFE02FFFD
010601F5635909318D5BD6CA316D5AD8
FE01FBFDFFFDFBFDF60501FE03F5FDF7
5CD935ED07FE0FFFF50A04FEFDFF0A02
6B9B29B5AF64DADCB58F631AF6B5CC6B
041104FB03FDFD060309FEFE0E02FB02
FF04FCFF01FEFEFDFBFFF9FFFDFEFF01
D16D20ED39B06B5F0739ED739EE9BA0E
0105FD0103FFFFFF0101FF0273DD4AB9
FFFEFFFE01FFFFFFFFFDFCFFFFFDFCFA
3DD173A127C20E7BE0FA3E2FFEFEFEFF
01FD01FC04FAFF017C215B3DF475670E
03FFF31A00FA02FF02FBF806FD0301FD
38462F84231AC250FBFF03FFFFFEFBFF
04FEF30684636BC2157DA91041F37BE3
00FFFB02FEFB06EE0207FBFFFD040101
653B4691F4FFFCFEFC01FF07F8FFFC02
8CE59CC63685EB204614842748D2508C
010417FCFFFDFB030304FFFEFDFC0302
FE07E9FCFAFEFFFD0AFF06E000FE02F7
578E2D304A358C6959567194A74BCAD2
01FFF6FE0110F1FFFE0405FF9529AECA
FD010303F8FE04040007FFFA04FE1103
4E5694AB69DA929D296C4EF3030AFCFF
08FEFC01FE03FE119D6BBF4E799E6F50
0FFD01F900FAFDF4FFFD0504F8F1FFFE
7A5EB3A5AB7CD71405040AFEFD08F4F3
FD0301FDA5ADCFD29AA6B16052779CED
00FAE0FDFDFCFAFDFFFE04F7FCF404FF
ED8D5B3506F601FF0004F9010BFE06F7
ADEFD056BBAF33705698A52F8AE2D4AD
04FA02FBFFF802FA06FFFCFFFF0510FE
FF0202FF0001FA0305FF19FF00FBFFF6
DCB775905AB9AD739B66F5B62F9DDF56
FFF9FEFCF9FE0101FDFFFDFCB631F05A
00030301FF00FF030006FEEC06FD0802
5EDAB5B5AC6B17BE71AE6377FA020F00
03EE04FFFF1414FFBE720066FDB837A0
02000C0300FFF6ED0203FBFFFCF603FE
BCF339C6B3BEEB98FCFF03000011FF01
FCFFFAFAC6B4006B1EC039C062FCBDF7
00FB01FB02FE0A0304FF0DF90B0BF903
35CF6FB903FEFF000001FC01080001F9
CEF6006F3FC83BD0671DC639CD775ACF
0C01ECF4FDFDFD01F4FF01FE0101FEF6
03FFF50000EAF600120001FC0002FFFD
40D03DE06B3ECE7BDDFB7BD7B7DFF7DA
0800050B0206FA010001FF01D7380073
00FFFA000400000300FEDD01150AFFF9
6F5FD6BFFE039CDFF9F07BFBF5F90700
0200010000FB00F7DF7A007780D801F0
020000000002FF0001FF0000F5000402
0E83BDE03E007C1CFDFF030000FE0400
000000FEE7FC007FA0E800007760DEC0
00FD010006EB0000FE00FA0003000000
0000001D0200FB000000FE0003000000
E83E0003C0F000007F80E7000F03E0E8
040100000000000005000000000000FF
FF0000000000FF000000000000000100
E000000003A0EF40000000F00000001E
000000000400000000000003F0000003
00000000000000000000FF0003FE0000
03C0F7C0000000F80000001FFC000000
0000000000000000F800000000000000
000000000000FE000300000000000000
00000000000000000000000000000000
01FCF409000000000000000003E0F800
FF03170AF8060F010408F0F7FD10F603
00008000F7FCEDFF0203080303FEFD02
08000000400000000000000000000000
FDF7F6010802FDFEFB01FBFEFDFE0205
0304F5FF02FBFFFFFFFF02F7FFFCFE08
81088411042208421104210844110422
0307F603090B01F9F9FDFC0110422104
FDF1F503F1020102FFF804FFF80A04FF
084310842208421886218843FE01F3FE
08FEFD01FFFF01F918843288A210C622
01FFFE1CFFFD02F502F90AFEFD0105FD
328C6320C8320C64010303FFFF02FBFC
010108FD20C6430CC3190A328C6418C6
FFF105F7FDF5FF04FBF4FD040BFDFE05
0C5290851104EFFEFDF00501FDFEFE02
29085390E5214C43908521084314A529
F8F511EEF2FDFAFF02060402FFF50101
0EF903FE0FFB02FF06FE04FC01030D01
0629CE6414A6294A539CC6314E6314A6
FF02FD09100201F701FCF7F6394A7515
FFF9FCFEFA01FF02FEFEFCFDFEFAFEFA
9CC7318C6420E739D07398C702FDFCFF
020202FD03F7F7FF418C859927321075
F401FEFA01FEFD01F70A06EEFDFD01FD
74A5084212841CEB02050B01FEFF04FE
FD03FF0149CEA621483A528624E839CE
FE01FDFE01FE02FF050503FF08FE01FF
5495250CF5FE09FBFF02FF0403FD0202
5212B6A5694AD496A90942108529294A
01FE07FFFEFBFEFFFE02040106FFFEFA
FC01FCFEFF01FC02F9FEFB0601FC0203
8A5356A72D2A4A5295AD4A5296A5A92D
02FDFEFB0901FF0206F7FD016254D729
FE030905FF03FF08FFFEFDFE0403F901
B14B5294A6316B5AD8C6AD6EFBFF0101
010503FB01FD01016A96E7ADAB5B98B7
FF05FEFD02F8FEFF02FA03F6F904FBFD
B6B58C631AD731900107FDFF0102FE01
1701F80272D8F831CC63DCC8B56C5AD6
FEFFFFFF01FCFAFE0101FAF906FAFEFF
5CE7B5B1FE0A06FF0908FAFEFEFFFFFF
7B5B08B5ED6CDEDA398D6318C741AD6B
021011F60103FDFE0305FE04FF020101
F7FFFCFFFEFEFDFD05FDFDFCFFFC11FE
117D20ECBDAE6B5AD7C5EE739EF839F2
FDFBFD010401FF0105FEFA078B9D293A
F8FB0101F7FFFFFFFEFFFFFCFFFD04FF
41EF739CF8520F7BE108BE14FD01FFFE
01FFF5FC02FC03FB93DF49C23385E30D
02FFFF14FFFEF901FEF40FFE030203FE
08DA308429194235FEFCFEFFFFFFF303
12FF02029C215A4A948E251E4A1083DF
00010103FDFEFC01FFF4FBFE0302FD01
6B29C6760E0303FF02FFF7FF0FFEFE01
A4636ACEB5A667204E318C21195E5294
040301FBFCFFFB01FE03030108FCFAF9
FFFFFCFEFC06FA080DFEFBE50010FDFC
D6AEA930527394652A62739CAD3ACA97
FCFCF9F80601FC0F070201FFACE59CD2
FC05FF0103FFF90200FF1B0302FDFF04
5A949CA73B6694A4EF4B4EB802EAFFFC
FF110108FEF901FEB527AED6F8B72B40
FAFFFEFF00F9FFF7F5FD16F8FFFF01F8
4C6EB5AD315BD2F9F306F3FEFE01FF06
FEFEFEF7BD69CF6719BF6D505EB5A4E9
00FE01F3FDF619FDFAFB03FE08FD0201
736C571AFD01FCFFFD07FBF90300FDFB
C5ABFFEB3AC82F6062D7AD2B5CF2D6B5
01F70BFD08F703FAFBFFFB010101FEFB
03FD080000EAF8011400FEFA00FEFDFE
5BD0337066F8B56D6D76F7BDB57CDB3C
FDFEFEFF04F4FE0104040CFECDEC0073
00FFFFFDFF00F7FF00F601FDFFFB0104
6B19BDB17DFB18C5F99D5F5D01030100
0CFF010AFFFF01FFD63000777DD83580
FA00FC0100FD02EF03FC0AFD0B0003FD
8E0339CE7FADE37EF5020B0000FFF303
04FE0A02DE72007B9EE039906F3ACDF3
00F824F30DFE08F8F6000BECFCF700FF
81BE679F0706FE0000FE0201FE00FFFF
E6B6007FBFE83DA0735CD6359E835AD6
FFFBFBFEFD00FD0302F600060213FA00
FEFFF3000000FE00FF00FFFF0001FFF7
C0F83FB07B7DDE77BF037CDF01CEEBA0
0000020201FD00FBFCFF0000EEF80003
0000FF000000000500FE0CFFFF0602F8
7F9EEEB9D003BDE741DF6C00FF090500
05FF000102FF0000F73A0003E00001C0
000000F800000200FFFEF6FE000001FF
E003DEEF81FFF000FDFF020000000000
00FF0000FF7C0000000001D003A0F6FB
0000FF0003F201F90000FAFE05040000
C000740000FFFB0000000000000000FD
07BE0000000001E003E0FF3DF003FFF7
00FC0000000000000400000000010000
00010000000000000000000200000000
000001F000000740000000F800007800
000000000000000000FB000007C00000
00000000000000000000000000FF0000
000007800000000000007C0000000000
00000000000000000000000000000000
000000000000000000FC000000000000
00000000000000000000000000000000
020DFC040000000000000000000007C0
FE09F005F6FC0C040205F5F40404FF0B
00000000F0FAF2FE03FF0C0603FEFCFC
00000000000000000000000000000000
FCFBF501FF01FFFCFC02FFFEFF030304
F904F6FEFFFC01FFFEFF01F8FFF9FF01
21088211042108421084210842108822
0A0CFCFF05F7FDFA0202FDFE08422084
02F40E06F3030103FFF20A0AF60CF403
884210842108421084210C43FCFBF5FE
0A030604FAFD04FB10C431084210C422
F6FEFF1AFF0201FDFAF70901FF0407FB
318C63194A319064080204FFFE040401
02F70AFB1906418C641946338C6318C6
01E904FFFBFDFF05020803FD04FFFF07
8C52948508EEF2FE01F7FB03FDFEFB02
21485210A521C8441084210842108421
F5FC02F7F5FF090208FF0602FB01FBF5
09FC07FEFE020501FB02FF01FE13FBFD
E6320A5594A5294A5294A52A0E6318C7
FBFAFFFE0C0101F7FDEFFBFF298A7294
FDF902FCED01FFFDFF03FB01FEFFF603
98C8318C6318C63A52739CE8FCF301FF
010301010202FFFF31CC8319073A5066
FDFDFCFF01030C03F10AFCF9EF020609
73A0E7429494252AFFFC0B01FF0902FF
01FD01033A0EA39D484AD2771CE939CE
FF03FC05FAFD02FEFBFE01FC080303FD
D6A4A94B03FBFFFB01020805FEFE03F7
4250B4A569535487A10A4A1084A5284A
07FE07FB0605FDFEFE03020401F9FC01
060207FE10FFFBFFF803FC0202060106
8A5B9698A52B5252952949535AB52D6C
FDFDFDFF0BFDFE0105FE02F34A92D529
FF06030AFB05FD02FEFCFDFDF607FAFF
296C5A94A5AD6A5B9CC5B18DF7FEFD01
01FFFEFD01F9F7FF52D4E5ADAB6BD8AA
0201F60AFF04010204FCFDF401FEFAF7
B6318B63DED635AE060202FEFF0AFF01
FF020AFF5B16F635CC749ABCAD8D62D8
FEFDFDFEFDFE12FCFD05F6FD04FFFF01
20E6B9EFF8FBFDFFFEFFFCFA02FFFCFC
635906B9ED7CDCCD31AE6B1AC6B5AC6C
01FE02FD0201FDFC0503030302FDFDFF
EFFEFBFFFDFA0402FAFEFFFEFFF7FFFD
2F851EDE35CF735CD7B9CD7C68F73E14
FD01FEFC010202010FFF03FC6B9D27C2
0701FF01FDFFFFFB0001FD04FEFE0BFE
39F17B9EE83DEE84AD07C235FCFFFEFE
01FFFEFDFDFF01037BDF48C6508DE0E0
06FEFEFC0001FAFFFFF0F70203FDFF02
08C20F8CEF184656FDFE05FFFEFDFDFD
03FC06FB8423594E719E62F03E1283E1
000101FFFB020202F40502FD03020101
3328CA770101FDFFFA0407010BFEFFFF
8C6569D292A6A50042338C231A463095
030301FB0301FCFEFFFFFAFE01FE03FF
FEFFFDFF0305F8020EFFFE130001FEFF
B3AF2710465494652ACA519D75394EB8
FBFFFCFE05FFFF14110DFE0194A78AD6
02040409FAFFFB0100FEE5F906FC0202
4A959CA93B4E72A5B949D2D9F60205FE
FFFC0107FDFFFEF09CED9B5ED4BF6920
FE01F9DF00FBFD05F5FC0EFF01F70704
4BD293ADFB5A56FA04ED02FDFF02F3FE
0701FFFFA52FABE6F5C7EB304EB6A4EB
0022FAF6FEF906FEFF0202F909010103
3F6ADB1BFE0101FEFD09FF0AFB00FEFE
AD71CCEB16C82D4052D7AD2D5C56B4B6
FBF503F7F803FEF8FE01000508FAFCFA
03FB09FF01F601011100F4FE0004F9FF
38D02F5056F8B56F6CDAD5BE417B5F3C
0BFD02FD03050005FBFD0AFEB5B3DD73
FF01F008FE00FFFD000A0202FEFC0705
5B19C5B37D5EF6C6819BE75DFDFCF7FF
0C020004FF040101BE75FDF759D83160
F900FCFA00E80204FAF814FDFDFFFEFB
8DE317CEC1AC6B7FFFFFFE0002FFF9FA
01FE0800C6F60E7B9AE033705F3ACDF5
0007DF0808FFFEF50DFEFFFEFBF700FC
01CCEF8006FDF500FCFFFB02FA00E505
CF380EFFBBE83590675CD6379E6758D7
FFFCFF04FA09FEFB03FF00FCFEF7F900
03FF0600FE000002FD00FFFE00FAFEF8
1CF037B06B7DDE79AEEB79DF41DDF3A0
FD0402EE06FF000101F8FF00D77A0F00
FD0000FCFF00F80200FD03FFFBF0FAFE
6FBFE6BBBF739AE781EE77C0FBFE0100
05030002FE010100DFBC0F801DF839C0
0000FFFA00F80000FBFE00FD00FA02FF
C077BBEFC1FEFBE00D00FC0000000004
FDFB0000E03E00001E003BD07000EEC1
00FA0000FE0200FA00FFFA0305000000
000F7C00FB000000000000010000FF02
E80000001F003DF07400F701D07BFDF0
03F800FD000000FF0300000002000000
01000000000000000000FF0000030000
00003E007800FF41E0001EF8000F8000
000000FE0000000000000000F0000000
000000000000000000FD000000FC00FA
7C0007C1F0001F0000000000FD000000
FB10F8FAFFF4FD0CF800000000000000
FBFFFA01FFF4F20EF909EEF7F712EFF7
0000000000000000FC01EEFFFF04FE03
FDFBFBFF000000000000000000000000
FF02010502F6F50101FFF9FFFB1601FF
82110421F9FDF6FEFFFBFFFD03FE01F6
08422084210882110422084210842108
FA02F9FF02FCF210FEFBFDF9F4F5FC02
01FCF1FF04F5FF09F6020501FF02F101
6210C621884310843108421944218842
04FEFD0305FF01FCFDFA050410843188
FEFEFEF80CFF071AFFFC05F40DF5FB08
0C641906420C632186338C63F402F0FF
07F9FFFFFEFB04FB18C8420C83190832
01FFFCFCFF08F9F604F8F3F1FEF1F903
52908429C8449084FAFA07FE01F3F9FF
04FCFE05210A5290A4294A4290852148
FFFCF302FBF911F4FBF1FB06FF0502FE
0A5614A5FF13FBFEFFF8F9FFFBFEF704
294C7314C531CC5394A6298A6314A532
010708ECF707F5FD0803FEFEFCFBF901
F90312FF02FA0303FF0205FC01F3FBF9
E73A0E6418C731CE7398C63ACC6698C6
FEECFD0AFF040BFC1402FDF9318E8398
01F8FDFE02010605FEFBEE02FBFFFE01
9CE83A12841CE7430E779CE7040BFAFC
FEF901FC02FEFE0139D6B41D28425275
04FDFFFD0101FEFD02FC010501FEF9FF
94A5684B5288A10801FEFEFEFEFF0302
010205FE4218D4A1494AD48629094294
FEFAFDFA08FAF9FE0103FC04020502FD
94992529F00207010C03FB05FAFE04FF
529AE5256A535696AD2B4AD6B5298953
01FAFCFE02FB0202FDFF02031201FC01
F302FCFFFB04FE0408030E0A01F4FE01
8B5B9AA7354C5318C5ADCB5C16A9A94A
F6FBFEFD010107FDFEF109FE5ADCF629
FE030501FB050107FFFEFEFF0F11F9F6
B96D5B5AD6B1EC645ABA2D6BFCFFFFFF
FC03FF0203FDFB02631F06B1AC63DEB7
FDFFF90102F8FCFFFFFDFE02FD04FBFE
E8360D6C9CCAB18C0504FE01FE07FEFE
040309F46B611735CF6CE0D8C18F639E
FFFFF10106F8FCFD02FDFD02FE04FEFE
DEDB35AD02FE02FFFFFFFCFD02FFF2FF
73A327B9F17D68EA45B06BE2F8BA2E74
FFFBFFFBFF05FBFE0104FFFEFCFDFF02
FC06FEFF01FEFD01F6FFFC01FFFEFFFE
1385EAFBC9D1742509424F7D20EBBDCE
01FFFFFDFF0101FFFEFBFE037BE5383E
09FCFDF80BFF07FFFF09030703040301
CDF47C6719C6708562FC41EFFA0101FE
FB0201FFFDFDFA01842748C2348E2D0C
F9FE0515FEF3FCFBFEFE04FAF703F105
2A4E918DA50CC610EC02F2FFFEFFFFFE
FEFBFF068C69594A559E6F1D521584A9
FEF702FC02FC0302FD1002FF03F4FFFB
E71D4A51FDFDFCFFF6030308FEFD0102
94EB69CE76A6B12E56368CEB3AD2D295
04FEF7EC030102FF0201F401FF02FA01
0914FFFFFE02F7FB07FF06EA00FCFEF4
97AEF3305A57952F4B56F39E693DCE72
0102FDF805F9FCFBFDF6F0129D2D7A52
FF01F80104FD1D030004FFFEFEFCFEFC
5E789D715BDB14A6AB4ED294010D03FE
FC1201FEFCFE02FCA5739B56B8B73540
F8FF070500FDEBFAF8FAFE07FFEB0AFB
6C5F55AF2D5F56B50202F6FCFF02FA06
010205FAADB5ABDAD9BF79506699A5B3
00FCFEF904F9FD0505FEFD04FBFFFDFE
AF6FDED7FEF7FEFFFFFF04F6020001F8
B5F7BC5EFAC03B606ADAADF57D6376B7
06FEFDFFFDFBFCFBF804010100FF06FE
F903F1FDFB02FE01070001F900FFF6FF
1BC83D706EFBB6378DE797BFF17062F8
0B020202010002FF00FE06FCBE39CCE7
FE0DFA060B0000FF000FFEEF03FD1004
731CBE799E6BB9C033806739FB0305FF
FF00FAFF00050CF3C67BFD6B3CD00180
040000FC0004FCF90307F906F3FDF9F5
AEEFFAC835906B5A01FFFD000101FC03
00FFFC01D6BE0E6F5DD80190773DC6BB
0001EAFE0CFFFFFFFFF50002F300F7FE
39A06F7BF3FF0000FDF4FF03FD0000FE
DEC00EF37EE001B07B5ECEFDBF701BD0
14F1FE04FFF40012FF0001FF00F607F4
FCFE0000FDFEF901FD00000400FDFE01
9FE801C07F7FD73FCFF41CE03BB0739C
00FD00FAFE0001FB0002FBFDE7000F77
FDFEFD00030000F70000EF0001F900F1
0380DF41D0781DE83FC077BDFEFD0000
030000010001FEFFF7400FFFA0F001D0
010000FA0000FE0008FF000200000001
E0001EF801F07BDEFCFF00000000FE00
00FAFF03FF800003C0F801E003A0E781
0000FE0002FE00F80000000000000000
00007FFF000000000000FE0000000003
00000003E00001F003C0EFC1F0000000
03000000000000000000000000000000
0000000000000000000000000000FE00
0000000003E0F0000000000000000000
00000000000000000000000000000000
00000000000000000000000003000000
0000F800000000000000000000000000
F90FF8FD0102FA040000000000000000
01FE0103FFFA0D08F60BF9FFFF07EAF7
00000000000080000108F6FF010107FD
FEFEFCFF000000000100020000000000
FFFEF301FFFBF30106FFF9FDFA02FDFE
44110421F702F7FFFFF9FF03F5FE02F8
08422084221084110441084211042108
FC0C05010101EA09FA0CFFF7F7FFF701
0304F6FF02F305FCFF03FF19FFFE0301
4318C632886210842188421088218842
05FBF90102FF0201FFFDFF0110843108
FF01FA01FDFF02FFFFFE010103FCFF06
8C8318C642108318CA328C63F70602FF
02FBFDFEFCFCF4FB18C6418C84210843
FFFEFF0101FB02F7FBFBEDEE03EFFA02
5294A5210C4310A4FAFCF3FEFEF4F202
03F5F7F921085210A5294A5410A42908
FE01FBF9FEF708F9FAECF9FC06FA0B03
4E5414C70F0306FFFFFBFDFFF8FEFFFE
294A7314C631CC6594C5314A631CC629
FAFEFCF2FA01FA0601010101FBFEF3F8
FFFFFDFF03F8FE03F6020303FFFEEBFF
273A0E7698E6398C73A0E731D26518ED
FFFF01FD070202F902FBFE01318C8399
01FD01FFFF01FFF801FFFFFF01FD0E03
1D0741CE9425083A14759D2E0C060AFC
02FF01FD02FEFF0139CEB41D48425087
F8FDFD05FFFE010101FDFFFE01010102
A4A929525686214F01FF01FEFF01FE05
0102FC024212D4A16952D2A7A5294A10
0201FEFF05FF01FB02FFFFFF010106FE
9A96A571FF03FE011101FE02FDFE0205
4A54E5258A5B54B8A94A5254B52D4A62
03FEFAFC03FCF9FEFD03FF0101F60201
F4FFFBFFFF010806FE03FBFEFEFCFEFD
AB6396CA2D6B5AD6C5B16B6ADCA72D92
F6FDFCFEFE03FE0119FDFF025296F5A9
FE030101FB05FF05FFFEFEFF01FBFDFB
B18C6318D6B58C731EC7B1B3FB08FEFF
0204FEFBFCFF02065AD90631CC6BD8DC
FDFFFDFCFEF6030201FC0DFF0103FCF9
F73DAD7B60D835D4FEFF0201FF07FCFF
0301FFFC631B16B5ED74DCED35AD6B9A
FFFF03FEFEF7FFFEFCFE02FF010201FE
A2E8B9F5F70DFCFFFE01FF0105FDFF01
6B5D27BE0E7D1EFE39CE73DD0841CE83
01FF05020101FF02FD02010301FBFA04
04FFFEFD01FAFFFDF5FFFE1000FCF9FF
318561103E107C1F18CDEF8BE4F93E16
FF03FDFC0302F5FC16FD02F8739F4842
09FF010202FFFF0100FE0202FD02FDFA
42318461295210946919C237FA03FEFF
0102FD01FEFFFFFF7BE158C6738DA320
03FFFFF00001FEFFFEFD0101FD06FF02
3A56319CAB2A4678FFFE02FFFE02FFFF
07FCFAF68423694E949DE53046728CA3
00FE1DFD04FCFFF20203FCFE0302FD0A
EF4ACA9AF106FEFEF901FBFE04FEFD04
8C6599D2B5A669404A9394E54B5A52A4
0307FFFC01F0FE01FE04010507FF04FA
FD01FDFDFF03FC090AFEF90300030104
F6AEAB504EB49D275BDE73AD315B4EBC
FFFEF9F5FDF501FDFBFE02FC94A9AA56
01FFFFFC01FEFEFA000202FEF4FEFD03
52D5A5696C6294B5F37BD2FD01FCFCFE
F8FDFBFFFEFCFE019CEBCADF17B72D60
F300FCFD00FDFC01FDFF0602FFFF01F7
7CE6B5BEB58C571F0EF8FFFFFBFFFD02
FFFFFF00A52DFCE338B82F7056F6ADAB
00FCFFEFFFF501FF020603010101F901
F99CE320FA080200FFFFFF08FF00FFFE
AD6E0D6759C031805B17BDED8D6AD6C6
02FEFC03FDFD03FB01FC0103FDFE0D00
FE0301000108FEF90100FDFD00F926FF
7AC833905F58CE2FADEEF7CF3FAD6740
0BFFFDFFF9FF00FFFE04FF00B5B00E6B
FEF2EE020A00F90500FFFEF70CFCFEFE
637AD671BE7318D781BE6B60F1FD0300
010300FF01FEFE00BDF20EF39BD035A0
F800FDFD00FEFDFFFFFB0101F5EE02EF
CEF73ADFC1CEEF80FC04FA00FDFEF502
FCF2FB00C6340F77BCE039B0679BDEB3
00F9FFEF05FE01F1FFFE0A0AF90000FD
01DF73A00104FE00FDFFFFFFF800FF06
CE760FFBDDE83DC06BBCE6F5DF7B5CE0
FDFFFEF8FF00FDF9FE00000101FF0000
0209F40000FFFF04FF00FFF700FEFFF4
FEF03FD06FFDEF37FF837DE801FFF400
0000FA010300000000010000D6B8007F
00000001FF0000FB00060000FFEF0700
7000F77800039EF800007800F3090400
0000000000FB0000DF3A00001FF801E0
000000020002000003FDFB00000001FF
0003BF0000007C000103FD0000000000
00000000E77E0000000001F07400FFFA
000200000000FF000000010000000000
00000000FAFF00000000000000000000
EF800000000000007800003C0003C000
0000FE000000FA000000000000000000
FE010000000000000000000000FE0000
000000007C00003E0003E00000000000
000000000000000000000000F7C00000
00000000000000000000000000000000
000000000000000000000000FC000000
FD05FC06030AFF06F800000000000000
05FEFF02FE09E909F406FE09FD06F5F6
0000000000000000FE03FBFF03FC1A02
0102FF05004000000000000000000000
FFFA0103FDFDF2020104FAFDFA01FEFD
44108822F9FEF9FFFEFB14FDFFFE02F8
08822084410882110421084210882108
F80AFB090703ED09FDFD03FAFF02FBFF
F9FDFCFF05F30501F4030117FFF8F006
6410C43288421084210C421088210C43
06FF03FE03010904F7FB01FB10C43108
FD04F906F4FFFE01FF020203FBFB0102
8C6518C632106318CA31908402F305FF
01FCFE01FFF7F3FF1946418C85190643
FEFEFFFD01E5FCFEFD01EE0301F9FB02
429484210C4214A6FDFCF4FE01FBFA06
0301FCF821885210A721486410862108
FE0DF004F7FFF8EEFAF9080306F90E08
4E5298C707F903FE04020107FEFE01F6
29CA7294C929CA8594A7294A5318A529
FD02F501FCF6FEFC07FD0202FAEFF0FF
FDFD01FFFEF80108FA02FF010102FB06
EB320E9618C9318C639CC63994631CE8
FF01050CFFFE01F6FEFF0102320C8318
05060101F0FDFF01FF02F0FFF5FCFEF4
A0EA39D07420E741D873A109FDFD0701
010109FD010302FE3A4EA39D0C3AD0A6
FAFFFC060103FD07F8FC01FFFFFF01FD
84A5284A9AA4252A0302FDFC010305FF
FFFDFA034A94B4212D4B12B7250B4A14
FFFC01FD0701FCFD0301FEFE0104FF05
DCB5296BF801FDFE12FEFC01FEFF03FD
52D6D5294E5354C7A94C5256A5294A52
F604FEF80201F8FB0201FFF702FB0301
0302FE01FF020801F503FC020202FD02
6F5B96D8AD6D5A98B5AD6B5B5ED5AD8C
FCFDFCFD01FCFE0202FD01F25B18E62D
03FFFDFDF905FEFBFEFD010804020DFB
318F62DAC6B18C63A0F631CDFB01FCFE
FFFF0101FFF509FE635CF6B1916BD8EA
0101F3FFFFF4F1FDFCFEFDFC0103F8FF
D7B5AD6BE506B5EEF1FFFFFF010B0801
0201FE016B9F0735B27C9AFCB5B06B1C
FFFE0102FF02F9FEFC01FEFEFEFE02FD
29173A0FFFFF0101FD020201FAFFFB0F
73E117BDD384DD1D3DD17B60E839CE74
FEFD03FF0105FF020303FD0213FC02FF
FBFE04FF01FA0506FCFDFFE9FF02FDFF
F48D1F3E45F283A2F8BE0F7C6F27BE30
FFFAFCFC010201FDFCFF01FF7C232841
0702FFFE09FEFF0400FEFA03FBF6FF01
4A138BE509425084B1384251FD04FEFE
FFFEFD1101FC0402846548C6159E6140
0BFFFEFF00F9020C0303FD030101FEFF
19C6718CF548CA73FBFFFEFFFE01030A
01FBFA058CA7594A36A6A3504E349427
001AFE050702F3FBF5FB0CFE02FFFB06
39594E94FDF2FFFFFB070EFE0CFFFFFC
952969D697AF256052559C692A529295
F4FCFFFF01050205FEFF0104170A04FC
F7FFFDFE02FD0A02FEFFFFFE00FF010A
D8B767705676A4AB3AD6B3AD7B69D2B5
0203FDEFFFFEFF0205FC01059DAD9A5A
0205F00AF801FFFF0007F2F6FEFDFEFB
5A97ACED4BDAD4B5BD7A56D6060103FD
FBFE01FF0903FFFDA5EFAADEF9BFE980
FD00F90300E6FEFFF90301FEFFFB03F6
5C5EF5BDFF8ADB17FD0101FE02FF07F6
08F3FEFFAE33CB633AC02B905EB8B52F
0006FC06FE02FEFEFEFFFEFF01FF0005
819B5F38FFFFFAFFFCFEFA03F900FF02
B675FCE75BC82DA066D9BD716CE316C6
FE01FF030606FFF9030300FDFCFF1004
FB02FE00030CFFFB0800F4FE00EFFA04
7CD02FB06AFAC5B37D6B37CEC1ABE359
FCFF04FFF8F700FFFEF3FFEABEB60D6B
FF01F4FDFE00FF0100FDFF09F8FA05FF
6F1CCDF58DEF58D701BC6B7AFEFAF900
010300FCFFFEFDFFC7380DEF9DD831C0
F500FCF900F8FFF30703FCFB0F02FDFE
9E7379DF41CCEF9B0301050005F9F105
FFF3FBF7CF7A0E73BEE033D0733DD6B9
00FBEE01FBFFFB01F6F9FAF0FCFF00FF
81DD73BCFEFFFF00FEFE0201F900DFFF
D7BC0EFBDFE835E0775EEEFBAEF79AE7
FD0FFFFEFEFF01FF03030001FEF700FF
F800FD00FE00FF00FC00F7010003FDFF
E0F039F07B7FF73DBF7BBBFFC1EDF41D
FF00FB0B00000002FE010001D83E0F03
FD000000FF00FF0000FEEE0003EDFEFD
7F80FF7FCF83FC0001FE781EFA000000
00000000FFFB0000E8000F8000F83A00
0000FF000000FF00000100F2000000FB
D0001D00000EFC00FF00000000000000
FC000000F000000000003C0003A00781
0000FF0000FC00FF000000FE00000000
000F0000FC000000000000000000FF00
F800000000003E0003C007C1E0001F00
000000F9000000000000000001000000
0000000000000000000000000000FF00
0000000003E00001F0000000000F8000
F914EBFBFCFEF9FDFFFAFC0900000000
FDFDF7F90BFFFA01FFEDFB0CFC05E4F3
000000000000000040000000FBFEF3FE
F911FEFFFDFDFFFE0000000000000000
01FE01FBFF04FC0102FAF70101FFF9FF
1084211884110421FFFFFAFEFEF902FC
F6FAFEF6084220842108821104220842
FF0C1202F805F90306FCE20903FCFFF8
C6218842F2FBF0FFFDF1F8FCFB020303
188431084210C4221043108431084220
0C04FC0A02FCF909FE01FFFBFFF80404
05FEFEFF04FCFFF907FF0513FF0201F3
63190632946418C6418C632908320C83
03F2F602FEFE04FD02F803FC20C6418C
FDF401FA03FF07FDFFF2FBF903F9FDF9
98852108521084318A4290A404FCF5FE
FE0B0EFAFCF7F90E2908521084214843
0202FCFF01010204F9F814F6F7F8FD0E
6294A539CE5394C5F81508FE01FC01FF
FEFD0B01314A7294A52A0A641CA6294A
FEFFFAF8FBFB01F2FC06F4FEFE02FFFE
126498E60803FCFF01F9FB03FD01F701
398C8318C7324C75ACC7398C7318C642
02FE0FFFF0EA0513F80203FA0101FE02
010F0DFC01FC05FEF7FD07FE01FE1AFD
E83ACE8630E941CE839CE74A54759D07
FEFFFF06050301FC04FC040141CEB41C
FE03FD0103FE07FEFFF5FFFE08FFFF06
B50A4A509421295298862128FFFEF8FE
FB040AFDFFFFFEFE4A12D4A529435296
0303FE0A02FBFDF901F9FAFE040302FF
A4A94A5ADA96A549EFFC02010C050306
FF0104015254E5294A4B94A7392B5292
FF01FF050BFE0603FEFCF2050202FE02
1EA7296AF004F2FEFEFEF802FC050404
5A96F5AD6B53D6B7BD4D5AD4B52D6B63
01F8FCFB06FCFEFDFBFE01FB14F0FBFC
FDFFFFFFFC03FF0105010D0102F703FE
8C5C9AC8C16E6316C5B18C6B62B7AD8B
FE010907FD01020203FC100263190631
FC060103FEFEFFFDFF01FB020703FBF6
45906B58D635AD73A4C8B1AC02FB0201
FFFFF6FF01FDFDF66B5B16B5CD64DCDA
FDFF0202FFFD04FEFFFCECFDF1FE0203
E6B9CE83E8E935CD02FCFDFFFEFEFBFE
0FFDFE03739D273DEE6D5F0CC9B1739A
FE08FF0103F9FCFDFE0301FEFBFFFDFF
2B09B9EEFA05FEFFFFFBFFFE05FFF811
7BDF37C20F7DE11D4DD37BDCF741F08C
FEFBFAFDFFFBFA0A02FEFFFA02FAFB05
F901FFFE01FFFC01F9FE0201FEE9020D
3086672E51F4841F07C611946D1A3E0F
FDFFFBFC0201FEF906FC010184214846
08FF05FE0CFDF4EA00F6FCFF01040104
56158C61184A339CAF4AC230E90303FF
FC0601FE04FBFF058C6358CA718EA930
01FDFBFE00FCFFFC03FEFFF90204FB03
28CE54A4F15B4651FD01FFFFFE040701
FDFBFD0194E5694E93972B405A3694A3
0004FEF4FFFAFFFFFE180506FBF3FFFF
336BCA720D0FFDFFF7FFFDF7FFFF0703
9D2979D2B49F6D505E579CE5395276AD
FA03F8EEFF07F5FBF8FD0202FF01F217
0206FDFE01FEFCFF110005FC0001DDFE
D5A02F606298A52949D697B5757C4E94
F3030101FA03FEFFFFF3FEFCA56B9AD6
FE0103050D0001F800FE01FB0403F4FC
66B9AD6B5A5AB8BDB98CD2B5FCFFF7FC
FFF103FFFEFB0401ADADAB5AF6A83170
040007FE0001F30605FAFB08FCE90105
6ADED9C5FB9D56D6FCF5FFFDFF03FEFC
FFFD02FAB5EFCBDF17B033806AFAB5AD
0001FEF203F4F90606FF02FEF803FFFB
7DADDAF7FC01FFFFFF01FA02FB001AFD
BE31FC6738B835906F1CBDEF7B62FACE
02FEFD0701FEFD04F5F402FFFFFF02FF
FDFEF900FB0E0205010008010012FCF8
59C039A0733DC6319BE71BD6BFBE5F18
FF08FE0CFF1100F3FAFF04FCC6720CEB
0101FAFB060001FD0005DAFE0BFCF911
775ECE73AC6B3CDF01CEE339FEF3EF00
FE080002FDFB06F1CEB40D6F9AC83BB0
0F0001050001FC011409F1FF03FC06FE
BCEF5DE741DF675AFBFCFE00FFF3F802
01F4FD01D7360EF3BBD03DC07B7FD6B5
00FC0C0001FF0D0502F8FD02FC0100FF
C1EFEB7BF4FEEF00FCFFFEFB040000FD
DF780F7FDCD801D07F80DEF9CD737EEF
03FF03EFFDEFF101FC00000000FE08EB
FEFF0300FD00FF03FD0000FB0000FD00
FEE001E003A0E73BDDF79FF000006F9C
0EFE04000300000000EF02FBE7BA0F83
00000001FE0000020000FF00FFF7FF02
03C0EF7DEE7BA0F8000073BDFD01FE00
000000000003FEFFEFFC00001FE801F0
020000000000FD0003FEFEF7F600FA00
FE83E000000077DEFE00FE0000000000
00FAFF03F03E000000F0000003E0F7BF
0000000003FE0000FE00000000000000
00007FFFFC0000000000000000000000
F8000000000000000000FFC00F800000
F708ECFA010AF1FBFBFFF4FE0108FE04
100AFAFFFDFC10F60CFEFDFDFFF71A08
00000010000000000080000000000000
0BFFF9FCFFFFFFFEF804FEFF00000000
FEF908FCF7FE0102FF02FA01F7FBFA02
042110421104210842118821FE02FBFF
0107FAF802FCFEFD0842208441108221
FC030212FFFF09FD020107040307E805
2188421084220C421006F6FFFEEFF7F8
01F9FC02108431088218C43208421884
FF01FF02FF04FD030604FE06FBFEFEFF
C6329063F503F7FFFFF4F6FDFFFFFF01
18C84190A32906528C6320C6320C6318
FCFCF705FFF9F8FCFFFCFFFDFEF603FF
F5FB05FEFDFFFCFDFBFF02FDFF0602F1
E4314863908429084294842908431484
F9FCFD09FFFC0404FFF9F007210A5214
FFF90102F102FF02010514F8FF0203F1
14A5314A5318A5314A539CA5040AFFFE
FEFDFDFB03FDF502294C7319253A0A74
FF01FFF9FEFBFBFFF7FDFAF9F4EEF8FD
639CC6418C7420C9FF0906FF01FFFEFF
0101FBFF31CE839D464A4C8598C6398C
FF0409F7010217F1FF010108F8090EFD
CE84A4EA0202FBFC0102FE02FBFD01FF
3A52B4216752CE969CE749CE74252749
05FFFEFF03FFFFFF0402FEFEFCFFFF01
0101F6FEFE0201FEFDFFFF0601FC0101
885B50A72529521084A948521295292C
FF06F304FC0203FE05F7FBF94296D4A9
11FC0604FF03FD02FF01FFFD0202FA05
A94A6252952D695A94B5AD6DFF08FE01
0102FD0101FC01024ADCE52DA96392B7
FB0501FF02FDFFFBFFFB07FC07FBFEFF
A5B18A62D6C6318EF3FFFEFFFE030304
03F90802531EF5B1CA6BD4C8AD6B6A94
FFFCFFFFFE02FEFEFFFD05FEFD0101FC
18D6B5AFF90503FFFE090104FDFFFB02
5B630635EB74D6D9B18C72D6B635AC6B
02F8FBFBF0040101FDFF0AFF01FF0302
FFFEFF01FC01010106FEFFFEFEF71205
0C7D18EA35AD7B18C6BDCE735AE739D1
FFFA0202FC0101021AFAFF016BA516BA
FD01FEFFF8FFFD01FFFC03FEFD01FCF3
B9CE835AD7C1EF8BDCF7BDF2050306FF
02FEFEFFFDFEF90373E927BE2D855AFC
02FFFD0DFEFCFF05FDFDFCFDFBFDFCFD
E84610941F084213F806FDFF01FB05FF
03FD010B7C6B38426E8D9D1D3DEF8B9C
FFFCF9FF04FEF9FE0101FD070202FEFB
A118C634FF01F9FE07FF0FFE09FFFE01
84AD48C6919DE12E421093DEF8CE319C
04FDFDFEFF0AFCFFFB02010101FCFFFD
EFFE02FFFE0101010CFEFEEF0002FF02
B3A6633046339C21095252A4E3294A55
FF0D04FFFCF4020C15FE01058CEF594A
FA0303FC08FEFF0100FE1D0AF6030203
4A94A46319D673AD2549CE76FC03FBFF
F7FBF505FE04F6FA953369CED4AEA540
02FD020200020103FDFEFEF9FC0501FF
2A5AB4B5695A52970606F6FEFE01F8FE
08FB01FF9D759A52F5B727504EB5ACA5
00F9030201F9FCFEFFF403FBF9F6FDFF
EB8AD6D80C05FEFC0104FF06F8FFFEFE
A5B7ABD716BF696052D6CCE73ADEF5BD
0D0DE5EC0601FE02F9FFFE0107010101
F4FCF2FDFFFE01FCFE01FAFC00FCFCEF
37C7EB7056F7D5294B6716CE2DAB5AF9
030505FBF801FDFEFBF9FFF5ADF9CC5B
FB02FE021100FDFD00F9FF01FF07F2FC
5B19DD6B5BEB57D66FBBDF1AFE0303FF
FDF4FEFCFEFE05F7B63BFCDF78D02D80
FA00FCFD00FDFF0703F5FA05FFFBFC04
6C6F79E6B3CC675CF503FE00FDFFF008
01F2FFFCBE7C0D6399E02F905F3AE5ED
000122F2FAFFFBFF0307F0F8FE01F901
F9FCEB7DFF01FE00FFFEF0FCF800FDFD
C6BE0E67BAE833B0635CEE2F8CF39AEE
FEFEFE04FBF10402FDFF020002FEF801
FF010000010E0103FF00F80300FDFDF4
DBF035C0677DF6B19D77BBF73A0D6F9F
FDFEFB050309FF0005F00400CEC00EEB
FDF000FCFF00FFFD00FB150003FEF905
6B80FEF3ADFBFCFF7C0E73A0FC090000
00FF0200FDFD0000D7000F701CF839D0
0000FEFC000BFB000001EDFE0D0000FB
BE001D07BE0F7400F3030000FDFE00FF
01010000DF400FF81D003BE073A00735
0007FF0000F101EFF600000200020000
C00FF800FB000000000000040000FF01
E00000001E003FF077E00777DE801E07
00FE0501FF0000000000000000FB0000
FC000000000000010000000000010000
1F000000780007FBEF80000000007C00
000000000000000000000000E8000000
000000000000000000FE00000000FFF7
7C00003DF000000000000000FD000000
0000000000000000F000000000000000
00000000000000000000FE0000000000
0000000000000000FC00000000000000
FF0B0702F8000000000000000000003E
FE0CF509F4FAFC090108F5F7FDFFF609
400080000A09FCFFFEF520F903FEFFFF
00003000000000000000000200000000
FEFD0E0201FFFBFDFEFEF8FCFB030301
0803FDFFFEFA12FCFFFE01FDFF05FC03
410882110C2108441084210884110843
0E06EB0BFF01FEFCF703FDFD10424084
FDEC04F9F203FD01FFEE1302F4F6020F
9042108621084210C6218C64F504FBFD
FBF90503FDFAFF04208451886210C622
F1FFFE12FF09FD03FB04F403020A0202
318C631908321085FAFF04FEFE03F701
01FAF0FF28C6720C83190833946318C8
0103FD02FE08F3030801F708FFF70B01
4A4294A602FFF8FF03FCF9FFFEFF0101
31088290A4214C441884214A42108521
F9FDF8EF01FC03FA01FDFE0BFB01FA04
F8F403FCFE04FD05FB02FDFFFE02FC06
C52A0E559CA5298C5294A6298C5318C7
F9F9FF0CFFFE120301F2F7FF394AB314
03FBFE01FA01FEFD0101FAFBFE090AFF
20C631CE6318C731CE639CE8FFFD03FE
0301FEF802FE0103418CD398E6325066
F4FFFCF8FF011A02F3FEFDF4F1F604FE
739CE83A1274210902F9030101040205
020402FE49CEE41D073A9286A4E73A10
01FEFE07F804FCFDFF01FF01FD0102FF
9485A52AF9FEFBFE120406FEF9FD02FF
5212F521284AD49729094A5284210942
07FF06030302FEFFFA03FBFD02FCFA02
0201FFFFFEFDF80602FFFA02FF0301FC
495316A7AD2A529494A54A4AD6A6296B
FFFDF5FE04FF0204FFFD04FA5A5505A5
FFFF0601F303FD0203FD0306F70402FC
B14B5AD6A5296B5318B6AD8DFB03FB01
FDFC0E0102FD06FF629716296A5B98B8
FF05F2FEFFFA02FE03FBFDFE090BFCFE
B5AD8C5B5AC731AE0406FEFFFFFDFF06
12F202036AD926AD8B6BDAC9B56C6318
FEFD0102FA0708FAFFFBFEFD01FC02F8
9CD7B5CFFF02FFFF010C1001FBFFFBFD
731B3735AC84DCDA398D6B5AC631CD63
FFFFFBF3F00303FFFEFEFF03FCFF07FF
FC01FDFEFC0105FEFCFDFDFEFFFD0301
CD8D22ECBDAE739CD6B5EE6BDEF839F0
FF06FF03FCFEFE0201FAFDFF7B5D47B9
01030D01FFFEFFFFFF02020FFFFCF9FB
41CF7BDEE73E0F742108BE110106FFFF
010202FB01FF01FF845F583DEF9664FD
0CFF010DFF05FDFAFFFEFCFEFBF8FEFB
F842307C63194232FB0102FF06FCFCFE
15FF05038CE168C2119EA71E45F08420
00FEFA06FA040504FFFEFD03FC020201
A529C673FDF804FEFE02020106FE01E8
9523994632A729304A138C631946518C
03FEFFF9FAFF03FE02FE01FEFFFBFD03
FC03FFFDFC02060407FFF9FC00FAFF11
74AF6B404E3494A52A4E7294E73A4A94
FE01040301FC021807FA01FB9DA5A9CA
01010FFEFE01FFFD0014FE0D07FAF9FD
52559CE73AD2939D294ACEB5FF01FDFE
FBFCFE06080C0207A5E7CA4E95B7ED50
FA00F5FF00FD030DF5FEE8F6060801F6
4B56B4A56D5B52D6FB0204FF01010B07
FCFCFFFCAE29FAD2B6B82F605676A529
0004E5F9FF0BF3FE0405FAFAFCFEFC04
AF6BD7370103F90002090CFEFC00FFFD
B66C0B56D7C031705A97AD6B5BDAD5AD
F902FA01FF0301F8F9FEFE04FD040705
FA02020001FBF102F800FCFE00E9FF08
F8C833805EB9B5AD6C66F7B5F37C5B59
0207FEFFFAFFFFFFFEEEFFF0BEAE0BDA
FF06090A0D00E2020002FD04FEFD05FF
62DAC5EF7CEB18BE378DDF7A01FDFA00
FBF9F904FE02F6FFC7320C5F39D03590
FE00F8FC0004F8FFF80101FFFCFDFDF2
9D6F3ACEB99E679B0205FE00FCFF0AFB
FEEA05F6CF740CE35AD839A066FCCE31
00EFFFF80804FBF8FD0A070EF80201FE
FBAEEBBC0700FE00FFFDFF04F500FDFD
D0360D677BE03BB06B1DD673ADF35CD6
F90AF1FE13FEFCFBFDF6FFFEFCFDFFFD
F800F800FF15F4FAF900FFFE00FFFE01
9CE83FC06F3EEEB5BE777DE73DBF6FDD
F7FEF701FF0802FE01F50001D8380DEB
0102F005FB0000FE00FCDD00FDFF03FE
7340F6F7CEFB9EEF7FCFF01EF9000200
FDFF000100F40000E03A0EEFBEF001D0
FF0000FF0004FC000308F0F3FF0003FE
DF03BFF781D07400FB00FD00FEF60202
00020000E83C0F73DFF801E07760FF39
0003050000F506F8FE00FF0003020001
C1E07800FE00FE00FDFE000000000001
F03E0FF8000001F07B80077BFF83C0FF
0001FF000000FC000000000100FA0000
FC000000000200000000000000FEFD00
000000007FA007BE0003E00001F07C00
000000000000000000000000F800007C
00000000000000000000FF0000FD0000
03C007C0000000000000000000000000
00000000000000000000000000000000
000000000000FF000000000000000000
00000000000000000000000000000000
00000000000000000000000003E00000
F9FF0301FE0301FA020AFA01040103FF
FC02FBFEFEFB0101FE01FEFEFE02FFFE
00000000000000000100020000000800
FFFF08FDFF0BFBFCFAFE040500000000
FD0401F4FFFFFF0605FA050B01F90602
084210862208431084210C420404FF05
FFF3010204FD06091084210842108621
04FAFAFAFF06060A01FDFE09FDF7F8FD
328C6418C631906302F7FCFA05070205
FAFF020A18CA318C6318C8318C6418C8
030304FE09F40502FF03FBFBFEFDF701
08421484FDFD0105FB01F7F905FBFCFB
210C421084210A421085210A4390A521
FAFC03FF07FF04FDFE0603FF05FF06FF
03FAF8F90101010202FCFB02FC05FF03
A5294C5294A6294C5414C6294A5298A5
FFFE0214FC06030201FDFD01298E5294
FDFBF9F9FAFEFA020806020306020404
18C7398E6498E7398C631CC601050F09
03100202FD07FCFB39D06318C6398E63
05FAFD0706FB03F403FF01FD03020907
759D0841CE73A0E705030105FE03F6F1
03FEFBFE4212741CE741D0739CE841D2
FFF9F8010109FDFE02FFFE0202F901FA
10842508FAFE03FD02FF0B09020705F9
4A5484A1084A128421094A1486212A4A
0501FF0102FB040101FF030101010103
FFFD03FFFFFF02FEFFFE0101FDFEFF04
29525494A92A5256A6A54B5252A52929
F9FE02FCFFFEFCFDFFFEFF0252D69525
FCFDFFF405FBF4FE02FF0401FF01F202
2D6B5A98B7296C5A96B5AD4AFBFC14FF
F6F202FAF503FEFD5B18A5A94B5A96B5
FBFB0DFBFBFEFB0AF9FB01FF0AF821FF
C7AD8D62D8C6316BFCFFF104F701FB01
040611FF635AB62D6C6AD8C5B18C62DA
FDFEFFF2FFFE05F903FCFBFF0506F1F9
1AD6B58CFCFEF813F2F9FE06F70302FB
6BDCC6B18D731AD635AD6B1CD831AF6B
F9010301FBFEF7020802FAFA0702FFFF
05FBFAF2FBFFF30CFF02030701FB09FA
AE7B5CE6B9CE735EE8B5D1735CE739AD
0103FD08010CFB09FDFFFC02741ED735
FEFA030301FEFDFB02020AFF0401FB03
3DEF7BA0F939F37B9EF83DCE040C01FD
FEF8FF0502FBF3037C60E7B9CF839EF7
FEFC010C01FF08090207FFFC0BF80FF9
09BE148BE128C1EFFEFEFBF809FDFCF1
FA01020584E2F83DF08BE107C61093E3
02FC040203F703010201FFFBFB020401
2339461006FEF9040403FDFAFEF5FC07
8D2508C211942318CA319C251A423594
0204FEFE0205F814040BF8FC0201FFFE
0101FDFEF6FD04F9F90105050701FFFF
329C65294E52A4672AC6579C6549CA31
0103FD01FF09FD01FDFEF50195A71946
FEFFF9FE01FF0206FFFA03F6F7FEFEFA
D693ACA93B4A79ACA75A5252FEFEFF01
02FBFEFF02FD01039DE929CA53A4A739
050101FDFD02FDFF01FFFEFF05FE03FF
5BCE9AB4E96AD673FEFD07FD04FE0204
FFFEFF08B62B3A4E74ACE94A5AB4B4EB
FEFB0103FD030201F6FE02FEFDF7FA01
2D7BDAD402FF0102FA03FC0703FB08F8
BE6D4AD295B52B5B5ED5BD2D6CD2BBBD
FBFFFFFF01FFFFFFFDF80101020306FC
FBFEFC0D03F60508FD0104FC02FFF5FE
B7BD6D6C62F6C56F7DD6DCC56F8C5F15
0301F4F701FB020804FC0501C6AF5B56
FCFD01FB030109FB0403FEF80301FB03
E717CDB19E5AFDCDB39CE336FFFFFF04
FDFF04FDFFFB01FDCEF17BDAD8C5AF7C
010C06FBFD010EFEFD0602FCFE04FBF9
AEDF1ED5F5AD675702FD03FF04FB0501
F5010202D7338C5EFACDF18D6B38D5F3
FEFD010105F501FEF804FF03FBF6FDFD
37BE6F78FDFA01FB0502FE0102020103
DF779CE73BDE339E7379EE35BF6B3FE6
0102FCFE0402FE00FB010307FCFA0704
03FE0204FBFEFEF9FCF802FC05010401
5CE675AEF79AF6F7CFEF40EE79CEF399
00FE0200FDFEFC06F9FC01FFEFF9AD6B
F70205FB02FF07FA01FF06FFFFFBF301
7FBBFF39D07360F6BBDF77BAFD00F412
FCFF050B02F806FBF03BCE6F9DEEB7BF
01FE0206FF000A070002020200010A00
E07B80FEFDEFFBFB010001FA04F8FEF2
000200FEF83DDEF3BEF6F9CF83DC077B
000003FB00F6FE0100020100000805FC
3FF07C1C000000010808F9FB02FB0405
0001EF77DFFF3BD003FD07BDF07FA007
00FD0300000006000003000000000009
000000FC00FF01000001090300000008
E0077DE0001E07FE0003C0074000001D
0000010000050000000000FF0001F07B
00FA000000FA04010000000200000000
001F00000003E0078000001E00000000
00000000000000020000007C0007BFF0
00FD0000000000000000000000000000
000000000000001F0000000000000000
01FEFE01000000000007C00000000000
FD0101FD0404FFFD020406FC0402FEFD
00000800FF0504FFFEFB0103FB02FB03
00000000000000000000200020000200
FCF4040707FEFD03FFFFFCFDFD0202FF
03020301FEFDFAF50103FCFCFDFCFE05
42188421084228843188641084210C42
FFF7FF01FEFB060801F8FAFF10842108
0505020102FA01FE020105FF07040104
0C6338C6420C8518C6321083FEFA02FF
FFFCFE0B08FDFE0318C6318C6320C632
02FFFDFCFEFF030509FB04FD03040201
5290C621084294A4FCFEFBFD0102F0FA
FEFB0602210852108431084290844108
0404FEFD01010203FBFD03FFFF0204FC
4A5318E503FF0407FF030202FBFFFB02
294A6294A5394A5318A5494C6394E729
0201040103F8F7FFFD030B07FAF502FD
FDFB0102FFFDFCF8FBFFFE020A020803
C6418C739CE6518E741908318C639D06
01FAFFFDFC0A0E03FB0B02FE318C7318
FDFCFCF502FDFA01FFFBFCFF03F4FFF9
290759D084A12A39CE742147F4FFFCFB
FD0AFAF8FFFFFEFE39CE839CE749CE94
020903FCFC02FFFCFC07FF01FFFE0301
A5254B421084A568FF01FFFE01010307
020101014210A421085210C4AD286214
F8FF04010403FE0103FE02F601FF0201
9295298AFAFF02FE0301FDFFFBFF03FC
4A52B4A5495A52D631496A56B5A96C4A
0101F6FFFEF50EFCFCF90201FB08FBFB
FDFBFD09FEFEFBFC01FDFF030B040103
6A6294E7356A7298C62D8D5AD4A5B1AB
06FEFEFFFB0504F8020305FF52D4C529
FF04FCF8FBFAFCFCFC030201FEFF02FC
398B7ADAD6B1AF6316C635CCFEFB05FC
04FFFAFAFE01FAFE5B16D5AD8B6AD6F8
F8030A040102F60401030301EE040501
E735D06B58E6B9EEF9FF06FDFA02FDFE
05FA03036358E631AC731908BDAC831C
08FE04F5FB0405010308F8050601F80A
9AF73E0FFF04F8FDFBFD0804FEFDFE01
6B9AF6B9CD7B5B1941ED8B5EF7B9F173
0401F8FA01FC0A03F8FDFCFCF8FC0203
0702FC05FDFBFC0905FAFD04FD0109F8
EE839D29C60E93A1083E1283DD07CA30
FD01020702FFFFFFFD01FDFA73DD073D
01FEFE05FDFF0101FA050405010A0105
4A309BE318C6338C1F18525103FFF401
FD01F9FD02FF01FE7C1F17C20F8BDF3A
FBF505FEFE01FEFE02F505FFFC05FA01
294A54946128D672FB070406FEFA08F5
FBFF020584612846309C214ACE52A425
FEFEFFF9FE0103FD060602FEFB0402FF
A3395A93FDFCFAF801FEF8FC0101FFFB
8CA338CA51AC635B5273AC6739CE75A4
02F9FFFE05FBFBFF01FFFEFCFB030204
FCFDFEFFFBFC02FA0407FEFC02FDFFFD
72B4A56BD694B4A95A5297B4E549DEB4
01FE010D08F902010205FEFF94E5494E
FFFDFEFCF902FEFEF902FC0504FEFD01
5AB5BCEB6AD6B8BD276A62D5FE010307
01030404FC03FC039D275A5693BCE77C
FCFD02FD01FD02FFFF0202FE0102FF03
7B62D9C5697AE6F703FFFF01FCFEFD01
FF01F5FDA5697ADAB4C5298CE2D6C52D
FDFEFEF90102FCFD02FAF802FDFDFD01
AD8BEB18FF01FF020204FF0202030502
ADAB8B5ED5CD6B9D6717CD6F8BE6FACD
FF01FBFE0604F4FBFD07090801FCFFFD
FFFEFFFCFE060801010E02FB010203FF
F6D5EDADEB38D5B1AC6B1DD5EF9C733B
FB0303FBFFFF02FFFDFB0406B5ED9BE2
03FFFF0504FE0FFB02010202FD08FFFF
6F5AE5F3BCEF3EDE73ACF75DFCFDFBFF
FAFE03FE020701FEBE2FAC6737DE2FBE
FEFB0BFDFDFE01FEFEF8010201FB0303
DD775FE6B5BDFB7E02FF02FE020101FD
FD0109FFC671BCEB58E671CEF37CEE35
FF0304FA02FDFD0202030100FAFEFC04
F7CE7F9FFEFD0204FCFEFFFF02FFFEFF
CEB3CD7379EEF3DF779DFE77EDFB60EE
0004F800FF020700F906FF080200FF00
02FF01FDFE01FDFF06FF0101FFF80304
9AF735EFFBBE06F80E7F80F739DE83A0
0400F600FDFEFC06FE000200D6F5DDF7
F9F7FBF602FC010100000B0200FA0500
03DF073A0E83A0FF7BEF03C0FDFC01FD
00FF02FD02000100DF37FE7FBCFF77F0
00FC02000000010000FB04000400FC00
0F83C007BDFF83E001FEF700020000FB
00000000E7BA0E801D07B80003E0077E
0000000000F000000000000000020800
FE000000F7FE0000FF0000F500000600
F7C00F801E003A000000078000000007
00000000000000000000000000000000
02000000000000FD0000030000000000
1F003C00000000000000000000000000
000000000000000000000000F8000000
000000000000FE000000000000000000
00000000000000000000000000000000
010602FAFF0202020000000000003E00
FE05F903FFFC02FC0609010101020B01
000000000000000004FFFBFBFCFC0802
FE08FD08100400000000800008001000
FFFAFB0BFEF5040204030202FFFCF8FA
84210842F801F902FBFF02F80303FBFE
188621086210C4210C42188421086210
0109FE050EF9010902050607FC02FDF3
F9FBF7FC0802F202FFFB02FFFFFC0602
83190631906320C6318C8318C6318C63
02FBFF0EFF020915FFFAF9F620C8418C
03FF01FA050404FEFFFF0406FCF90505
148429084210A4210842108407FDFF01
FD0209F202FEFB05290C5210A4214C42
FE04010102030203FC03FDFC0309F5FC
5294C5294C5294A5FB0202050202FD04
FEFE02FF314E6294C529CE6298A6314A
01040501030301FF05FBFF0CFF030511
8E6318C6FBFBFF06F9FBFFF905080302
39907318E63210831CC7398C6318E631
02F6FFFC0113F0F8F9FEFFF6F7090805
FCFAFDFAFAFE05F6010203FF0D08F7F7
073A52A3A10841CE741D0839D0839CE7
020605010201FF010604FC0F41D4839D
0203FF07FBFF040202FAFE01030103F6
2929521084A1494A54942108F90204FF
FFFB04FFFE01FCFE4A16A421284294B4
02FB0305FDFF0202FF03FF010601FF02
95A56A5296A4A969FAFFF8FC0302F9FE
FD03F8FF5258B4A56A4AD6C4B14A5A54
FF0EFB05FA05FFFDFEFBF40402FFFC08
D8B52D8AFCFD040CFD02FFF903FF0CFF
5ADAC52D8B5318D5356C6296A6298B5A
08020105E5F9FFF6FCFEF9F0FE0201FA
FFFE06F6FF01FD01FFF901FEF60401F8
AC5B5AE5B98D6AD8B72DAC635AC5B1AB
08FC04FCFBFF0A0E0503160B631CD5B1
FD030403FDF802FCFA0A02FDFF0605FF
3DAE731AC831CD739ED635CCFEFA0301
FE0203F10401FD016B5EE635CD639EF6
02FC070B0DFBF7F4FA070302F5FEFCF4
D8B5EE7BE0E739ED0C0603FBF5FDFD01
FC05FE0373A2F739EE6BE10741CF7B5C
FB01FE0404030704F608F704FE02FF15
22F7BE0EFCFF0104FFF80604F80201FF
7BE507BE0F742517C5F0839EE93A0F84
0306FB07FDF40C06060403FC020704FD
FDFD07FEFE0206F7FE020202FE070501
307C69284A1193E0F9BE308C6508422F
FE04FBFDF50407F9FF0303FC84271842
FFF4F6FEFFFC03FF0506FBFE06FA04FD
CE329C230A465194E718C650F901FD05
01FF020401FDFDF88C6D28C6518CAB38
04FE01FE0901FEF9040202FC01010A08
1B4A729D29294A7104FEFEF7F901FFFB
01FFFFFC94EF394A7294ED495253A465
FD02FDFB01F80302F905040102030608
6B39CE92FC02F9FD02FD09FEFFFE03FC
9D3149CEF3A52F59DA74ACA73BCE93A5
03F90109FAF9FFFFFFFE010601FBFCFE
FEFEF802FF01030404FE01FDFE090103
14AD716A5E95B4E94C52D4ADAF4A52B3
0201FB02FFFF0403FEFEFD08AD735A57
FB06FE04030AFDFEFEFEFEFF0204FD02
E2B6BD2B5D5AF6BDF16AD6D403FF0303
FEFB07F304FDF603BE357AE335B5F37A
02FF01FEFEFC03FA010301020207F2EC
6DDF17C6337BDAF5FEFD010601FB0203
01FEF6FFC6778B6756BE358B66D7C56D
0704FDFEFB02FEF5FDFAF90BFE01FFF9
778C5F16FDFE03FDFE04FF0501FF0301
CEB99BEB77C6799BEAF8CDAF7E6338CE
0105FEFD05FB0607FEFFF8FFFEF6FF0A
01FFFCFD05FFFD03FCFD04FCF702FE05
98CEFBAC6F19D5F18EE759D6BB9CE337
09030104FFFDF502020504FDD6FBAC6F
02FAF80101FBFCFCFE01FF0201FE03FD
F33ADE739F6B7ADEFDADE758FEFDFEFD
FC080AFFFD0404FCDF3DBCF3B9D73DBC
04FBFFFCFEFC04FFFA02FEFF04FE0101
AFF39BE73FBE6B99FEF90106FC020203
FE02FEFFE77FCD77DBDF7FDD7B5BE6B7
040302FF0204FFFE00FDFB04FCFF0001
41CEF3BAFBF800FDFD03FFF4FA040007
EF81DDFBFCE781EE7F7CF6F9B077BCEF
05FEFF010007F60CFBFD0010FC070101
FFFD000201F400FD05020000FD0003F3
1DEFC00E83BDFF3BC07BDDF781DF77DB
00000002FE0200FC02140104F7C1EE7C
010000FB02000000FE00010B00FB0107
03DE077DD0001EFFC1EFFBFC000000FE
000000FD000100030001FE801EF0000F
01000000FF00FF0200F506FB00000002
E0001F0001F07C1D00000000FA000001
000000FC00000F001FF8000F83FF07BF
00000000000400FE0000000000000000
0000001E00000000FF00000000000000
00000F8000000000000007C1F0000000
000000000000000000000000000000FA
00000000000000000000000000000000
0000000000000000000000000000001F
0202FFFCFE04FF0104FDFFFE00000000
FDFD02FF0201FF0AFF03020AF8FE0101
004200000008001800000040FD03FCFE
FE0C0603EFFF07020000000000000020
FE02FEFF0BFAFE0101F80203FFFCFBFE
210C622084210C620506FEF90105FBF5
0205FC05108421084210863108831084
FF05FE0CF9FD0208FCFEFCF9FEF4FDFA
C6319083FFF90106FF04FD070101FDFC
18C8318C6318C8418CA418C631908328
0CF9FD010102FCFBFF03FDF8FFFD0505
FEFCFC03FE09FDFB04FBFDFEFA06FBFE
84210A5294C521084214A431084214A4
FDFDFFF80106FB010101FEFF210A4290
04FEFF0203FD04030405FE03F7FA01FF
98E6294A5298C5394A5298C5FFFF0201
04FCFAF6FFFF0105294C5314A5294C63
FD01FCFE02F9FC05FE040202030311FB
639CE6418C631CE603F802050D03FDFE
01FDFAFF318E6398E7318E841D07318C
FCFAFEF3FFFE0AFF09010BFD03090201
CE73A10701FF0A02FA030707FB02F701
39D0741D0839D094A12839CE74210749
0506FE01FDFEFF0D03FA030104FD0102
010101FB02FD01FE02080502FAFFFFFF
294212A5A94B421084A5285210842528
0303FFFEFFFF03FFFF030203421284A1
0101FE0102FCFFFF0AFFFC050402FD02
2D6C5254A5A9495A52952949FAFE01FF
FBF9FAFD020101F94A56A5294A4A94B6
02FEF50201FFF8F8FCFF010507FFFF03
B62D6A6294A5AD6DFF020101FDFDFEF5
F8060D015298C5AD6B5AD6C6B58D5A96
01FA06FB01FAF6FAFFFFFDFE08FAF8FA
D6B6318EFCF8FE02FF0102FCFE0707FC
5ADAD6318C6318D739AE62D8D6B18B72
02020305F6FFFD03FFFFFB01020105FE
FEFCFBFDF8FEF7FFFDFF02FAFC020601
AD6B5AF7BDCF6B1AE735AC7B58C6B5CF
0301FDFC0409F6FD05FBF206631CF6B5
FFFE0208FDFC0B0DFDFF0705FDFC0603
41F0735CF7B9CD839AE739F0FAFFFFFB
01FA0804FF0207FE6B5F0739CE739D08
FFFDFD03FEFE0604060601FDFE02FE04
0845EE8BDCF83E1304010102FBFEFEF6
FD05FD0673A117BDF07BDF18C6117BDF
04F80102FBFFFDFF09FEF901FDFFFCFD
1F08C23404FEFDFA0505FCFAFFFE0301
7BE32842118421394A328421194E0F94
0706FE0304FDFE030503F803FCFEFCFE
06FDFFFE04FD06FBFEFF05FE02FFFDFA
328C6559CE538C6329D6309C61194655
01FFFE02FD090309FF09FBFE8C2538C6
040505FFFAFFFEFFFBFAFFFF04FF04FC
569494E53A5A71A4A329CA77FE06FE02
FEFDFDFFFB03FEFF9C6749CA5394A96A
FBFF02FD0201FFFF0501FCFD070202FC
4ADEB2ACE53A4E98FEFAFD0205FFFE02
090303FEACA95A4E749D2B7ADAB69DA7
FFF901F9FB02FE0101FF0B0302FB05FD
274AD2BAFE02050101030105FD0202FC
B4EB6AD295A56D8B5ED7ADE95B62F3B5
FFFB010108FDFE01FCFBFAFE02FFFFFC
FCFF020204FE010502020701FE04F801
17ADAF9BE6F8BE2B6C6714BD695B56DB
F903FDFEFEFD01FEFFFF02FDC52D7B57
02FFFEFC0107FDFEFBFFFDFEFD0202FE
6B1AC6ED7CEB35C5AB6BDAFCFE01FB04
02FFF90202FDFF04CD6F8BDB38B5F3AC
FDFDFFFC04FB04FFFFFF01FC0304FEFF
8DF356CDED7C5F1D0101F9040402FC01
04FE0301D5B19C5F59BE75BCF33BCF2F
FF01FF05FDFEF7FC04FCFC0DFEFF07FD
2F9CE33FFEFE04FF05FD020203FF0304
DDF3BCE37BC6B7CD775CD771AEF797D6
07FCFFFF0103FE0201FF02FCFEFA0100
FFFAFF07FBFF03FD03FE0101020004FC
9CCEF9DD839DE7B3BF7FB8E6B1ADE740
050002FD03FFFCFFF403FF00E635CD67
FEFFFEFEFE0207030400FF0503FEFCFE
03DEEFF7CF83F9F6F3CE6B6003FF0101
FD050303FDFCFC00EEB7DDEBBDD77BEE
01FD01FF01000101FE00F6FE000000FE
E0001AFF35EEF3A001FFFBFD0403FAFD
F7FD0200F6F9EEEFDEE7BDFE83FFF039
03000000FC00FE02000000FC0006FCFE
77FF77C00003FFFE100D01FB01FEFE00
073BFF73FFEFFE0F0000F83BF0001B07
00000100000000FF00FF0400FFFD0500
00FA0100FE0600000200000000000000
00F000000000003E00001C07B80FFBE0
000000FB00FFFB0000FF0000077C0FF4
00FF0000010000000000000000000000
0000000000001D07FA007C0000FB0200
000004000000000007BE007800F80000
000000000000000000000000000000F8
00001E003C00000000FD000000F80000
0000000007C0007C0000000000000000
00000000000000000000000100000100
3E000000000000000000000000000000
00000000000000000000000000001F00
FDF9030103FE01FD03FFFFFDFFFFFE01
020303FCFFFD01020103FB04FF0307FF
00000000004000842000000000000000
05020301FF030104F703FBF710000000
01FD02F8FB06FC0604FDFD09FB060104
086210C83108431084210882FD0202FF
FFFB01FD0701FDFD1884210842188421
FFFD0201FDFEFE0AFFFBFFFE03FCFCFD
418C6418C6418CA3FFF902060103FE02
01FFFB0320C6318C6328C6318C84190A
FBFFFBFC07FF07FD0503FFFFFC0101FF
085214C402FD01FF0407F6FDFAFFFDFE
290842108431084290A5218E5210A521
FBF6010203FE0601FF01FFFD07FC0BFF
01FC0401FD02FE02FFFFFAFEFC010103
A5394A5314C629D06294C6294A6298E6
01FC02F4FBFC05FDFFFCFF02318A5294
0404FEFFF90103F9010204FD0102FF02
98E832127318E7318C731D07FAFD0106
020302010202FEFE39CE6318C6418C73
0105FFFFFCFFFC01FF04FEFCFD03FC02
839D0839CE83A148FE02FB0107FEF7FD
F8FEFD01421093A0E74A0E849D093A56
FDFFFD0203FFFBFFFEFEFEFFFD0DF501
10942569FAFF02FCFD020102FCFE0201
4A52B42508529095252A4298B4212942
01FE01FE0201FE0102FC03FE0201F401
FC01FA020202FBFFF9FE0402FAFFFF03
695AD2A5A94C4ADAC5294B4A92A5298A
0102F9FBFD01FCFC020B02FC5294C4A9
FCFF03FEFD04FFFFFC02FEFB04FB03FC
2D6D531CD62D8C5B14B5B1ABFDFAFF07
FD02FE0603FC0BFF5AD6D52D8A6314B6
FBFCFFFFFF03FAF701FD030407FDFD01
E6B1AD6356C635CCFFF9FEFDFE01F4FA
FD02F9FD631AE5B1AB6B56E6B18E5B5E
0301FE01FE06FCFEF209080601FFFEFF
98D6B9EDFAFD02FEFCFF05FD05FA06FE
6B5CF635CC7398F735AF63E0F735CE6B
08FF01FEFE0DFFFD0EFFFFFE06FB01FD
0108F9FAFDFDFF0803FE0108FB020E03
EE841B07B9D06C2307B9EF73DAE73E0E
0201FA02FEFB0205FA030403739F06BD
FFFF0402FA0102FEFC02050305050603
3DF2746518BE107C1CF7C22F02FEFEFE
FAFFF9FFFCF905FE7BE118420F8C5F18
FB0303FE03010BFA02F8010403FF0203
2942318461084651FFF9FD0301FD06F9
0402FAFF842328C63094A1294E537CA9
FFFDFDFFFFFD02FCFF040703090606FE
A318CA72FE0803FD0501F9FCFD0106FE
8C67394A519CE339D27484ED39C6528C
FEFEFFFDF603FD02020203FEF5FE0101
FDF7FD0203FDFCFDF803FF01FCFCFE04
B2A5654A56958D2F4BCA749CE5295293
FE02FF01F8FC02FAFC0304FD94A949CE
01FEFEFDFC07FCFF0102FEFF0403FAFF
DAB695715C4E95A52739D6B4FEFFFD01
0103FCFC01FFFEFE9D2B5A52F3ADE95A
01FE01FE01FE01FA0102FD0103F601FF
6DD2B7AD694A5AD5FE01FE02FF05FF01
FEFCFDFFA5EF9AD734B62B6BDEF79DB3
F801F5FCFF0701F5FFFEFF0501FEFBFF
AB6ADEF6FDFD04FE0204FF0101FF0AFC
AE31AB5F55BE6F7C6318A5F58E56F8B5
FFFFFDFE0AFE03FF0706FC0501FBF401
FFFB06FF02030101FCFE0401FFFFFFFF
76C6B18CE739AE379EDB1ABDED7B6317
070706FF05011D03FF04FCFCB673BBE3
03FE060205FEFB01FD01060102FFF7FD
6B9AB679AF633BC62F8BEB38FEFE02FF
FFFB09FD02FBFF02BEB5CC6797CEF39D
FF05FFFD0101FCFEFDFFFF0105F9FD02
CFE75CCE719C7379FDFF0102050205FC
04F805FFC6F7DCEBB8D735ADEFBBBEBB
FFFE02FF03030201000305FCFEFDFEFD
F3ACF79AFEFBFCFCFD01FD0101FEFEFD
CF39ED6FDBDF77BE73DCC6FDD06B9DD6
02F902FE00F9FC01FFFF02FC0103FDFE
01FEFBFFFD0300FB03FFFE02FD0100FC
1CE7B9CEFC1DCF3FE073BEDF35DD7BBB
00FAFF03FEFDFAFFFDFFFDFFD77BFDF0
FF0100FCFF0001FEFA000002FF030001
001ED741F077DFE7B7EE7FDCFDFA0200
FE0101FF02000102DFBC0E741DE83DDF
1000FC0100000001FFF8000000FC0200
007BE0EFF9FE83FDFCFD0200020300FB
030000FDE7FE0EF81EF03FE0001FDF80
00000000FF01000000010000FE000200
3A0F001E0400000007F500FE010000FF
E8000F7C1FF801F00000E7C0007C00F0
FF00000000000000FD00FE00020000FE
FF000000FD0000000000000000000000
000000000000E800000000F83C0F801F
000000000000050000000000F0000F80
00000000000000000000000000000000
00000000000000003E00000001000000
FE02FCFBFE01FFFAF800000000000000
01FEF903020303FEFE06010204FF03FD
0000000004000002FFFE03FBFDFF0402
FC05FCF5000000080000000000400000
FAFC040E07F70603040605FD050404FB
C62108430604020105FFFCFC01FFF803
1084218C421084210862108421084218
FB0BF9FF0303020A020104050404FEF6
F7FCFA0404070202FA030502FBF90501
6318C6318C8318C63190632108319064
010107FFFCFE0A08FAF8FF0518C63210
FFFFF7FE02FE01FDFEFB040C06FF03FE
10A42108421484298C42188505FEFBFD
05F7FEFA020AFCFF2908429484210852
0104FE0102FB04FCFC03FBFE03F9FFFE
5298A531CE529CA60201FF0102080103
FFFCFF08314A5398A5294A6294C5294A
F9030E0605020201FF02FC0AFF030402
109420C7F9F8F706FF01FAFB090105FC
398C641CC7318C7318E6318C631CC63A
09F6FFFE0A03FA08010201FFFE010306
FFFBFEFD03FAFB030A01050205FFFFFB
E839CE839D0839CE83A0E74252A52CE8
F802FAFB03FBFA02FF01FDFF41CE84A0
FD0201FFFE040301FC05FF01FB020501
A12942109425084A94B5B109FA0302FC
040201FD0208FEFF4A10A5250B4210A4
010204FBFE01FFFCFF05FFFD0301FF01
A5A92952D6C6354AF9FFFEFD0302FFFE
FB0DF5F85294B6292C4A52B5254B4A52
F6FFF9050405FE02F901030302FEF702
18D6B96BFBFBFE08FFFDFA02FD01FF07
5AD6C6AD6D5294C5A96C5294B6314A5B
FDFEFB0502FFFF09FCFF02F60407FB06
0AFDFE05F603FF04F9FF02F9F9FE01FE
8E5AD6E62D8D5AD6C6B56B635AE73D8C
08FEF5F9FFFA080EFB0303FF6318D731
FF01FD02FA0202FF0AFF04FBFD040202
31AE6358D7398C6B9CF7C1ADFCFF0803
F703FFFC05060D026B5AE7B5AF631AF7
02FCFE0EFA08FEF60B020404FC05F6FF
E7BDAD73DF0845CE07FE09FF01010BF8
03FEFBFD739CF839D06B5D07B5CF6B9A
FD06FB06FE040503020401FCFB030403
2318C9EFFAFD06FCFFF603FDFAFA03FD
7BDF08BE11739F1839F073DD0841CE84
FDFB01FD020404040BFD0AF9FAFEFDFB
F8FD03FCFF0605FDFCFB06FC040CFDFF
327BE128BE117C1F18C5EF8C65295210
FEFDF509F9010703FF01FFFD84231942
02F6F9FDF9FD04FF020201060903FF02
42329461294A1094A739D631FA04FF05
01030501FFFD03FE8C6529C653842339
02030102010309FC02F903FEFDFF08FC
39CE319CE94A5A52020108FDFF06F806
FD02FAFC94A73A4A748C6549CA539CA3
FC05FE0201FB0206FAFD0109FF030102
6B6ADE73FE03FD01FCFE010204FE03FC
9CE94ACE9594A77A4E75A4E54A5252A5
03FFFF01FD0202F9FFFFFFFB01EEFE01
FCFDFEFE0206FD0304FCFDFFFE02FCFF
B69CEB8AD296B5295AD673ADAD7B6294
FF0401FF05FD0BFFFCFEFFFCA52D7B56
02010103FCFFFFFEFFFF02FEFF06FE02
56D7C56F6B5E94BDEF8C66B5FEFEF903
FFFC0AFA0402FEFEAD738BDAD7A52DAB
01FE01FE02030601010301FEF8FF0102
7BE2B5C6319CEAD6FF02020304FE0301
FFFFFF08B5F59C5EF8AD6FBBDAF8D5B1
F901F605FF06FFFBF1FDFE0102020302
73AE6EF7040402FD0405030101030304
BE39ACE319B5F1CC6319DDF38C66F6CE
FE04FEFD030301F3FCFF02FFFCFFFDFE
FDFA02FEFDFDFD031AFFFCFDFBFB02FF
3BBE33DCE73BE6379CEB17D6B5BEF318
01FDFEFBFEFDFEFB01FAFCFFC67BBD67
FC0401FC03FDFF06FD0303FF0102FAFE
6B5CEEB9AD6F58DEF7CF7739FDFFF905
FEFEFB0A03FFFFFEDEBDCDEB5CC6B7ED
01FDFFFEFF0201F9070403FF02FB0503
BDF399E739DFFF7A01FF02FB060102FC
00000202EEFFDEEF7DD6F9FE6F7DF6FB
F901030A03F9030102FB0201FF02FEFC
7BE0039B01FE00FF060402FE0101FF00
F701EF77BEDF3C0EF39EFF3DCE77BAF7
0003030605FAF606FE01F400000001FE
00F800FFFD090901FDFFFD00FA010302
DFE77E0F7BBF077FDEFBDCFFFC0003BC
0EFF0105000008000000FDFF0741FFFB
00F20100010200000003040000FA00FD
7FC00781EF7FFD003E0003DD00F90000
00000000000000FF0780007FE0EFC000
0800000000000000000400FF04000009
FF801E000000001E00FD000000000000
000000FB07C0000000F00000000007C1
00000000000000000000000300000000
0000001F000000000000000001000000
0000000000F800000000000000001F00
F7FFFE0202FD02FA0101030302FDFF01
0401FFFEFDFB03010501FCFEFEFA010A
00000000080200000000001000000000
0302FD01FD0AFC0C0B0B020110000000
01FD0DEF0403FDFF0309FF04FCF609FE
0C4410842108421886210842010204F2
02FAF3F8FAFF04082084210842108421
FCFD0103FF0404FFF6FD0502F60A01F8
318C6320C8318C6305F9020CF5FEFD0D
FBFFFBFF30C6318C6318C631906518C6
FA04F9FE01F9FFFEFD02FDFBFB0AFDFC
0A421084FFFCFF07FE0805FD02F401FC
3908421084310852148621085210A431
F7FCFBFEFF04F8F7FD0601FBF7FD0301
FE01F905FBFDFF04FEFD0CFFFCFF0109
A5394C6298A7294A6294C5394E6294A5
010604FD03FB0304FB040103414A5294
01FE07010101FEFA01F9FFF6F6030303
9CC8318C7318E641907318E6FA0306FF
020303FA0F0CFCFE498C6318C6418E73
0103F40102FCFF0206030AFF0BFA09F7
839D0749D2839D07FEFE07FC16FF0106
0DFE0104524E839CE749D0A420E941CE
FC01FB02FFF9FAFF04FCFF0801F3FFFF
14942128FD010DFFFAF80106010A04FC
5A90A421285212B4A50A4A10A4214852
0602FD03FD03F9FDFE07FA01FFFD0103
01FB0202010101FF04FF0207FFFEFEFE
495A54C5292C5256B4AD695B16A4A549
FD05FC03F9FAF6FCFB010B0162D2B4A5
FDFB0602F7FBFCF9F801FDF6FCFF0301
B14D5A9AC5318B635AB5298AFCF9FDF9
02FF0B07FAFC03016B14C5A96A6296D5
07FEFFF608FAFBFCFBFBFDF907090511
D635AC6B9CC5ADAB0703030203FF03F7
F3F601017356D62D8B6AD8E6396E62DC
0A02F7FE03FB0202FDFE05FC0AFCFD07
DED631CC0304F908FCFF05F40302FDFE
7B98E6B1AC731AF73D8F6B1EE6B9CD73
010108010605FAF7010A02010402F2F2
02FF0201020103FE01FA050DF9010205
CD835D07C1D07360F73DEE7C20E6B5ED
FB05FA0304FA0202FBFF04FF83DAF735
F7FD020AFE03FEFFFCFC08090606F601
46117BA307C20F846317BA0F0702FBF7
FE07FE090AFEF8018C1F07B9EE8B9F18
03FCFDFA08F50301FF0601FCF1FEFF04
1846308CA5283E31FB07FF0203010202
F80402FD9461183E0F93E128CA3283E5
040104FC0704FD0306FB03FFF9FBFF03
E738C252FEFEFAF405FF03EFFCFE08FF
9D2328C2309C253952738C2728CA5194
FD05040115FC030304F7FBFB14FCF8FB
FE0101FD010611FAFE0202FEF9FC04FF
51A4AB5A56B49469394E729D294AC673
02FFF903FBFAF9FF030A0108A565394A
0503FCF901FE0101010201FF0A0506FB
DAD59CAB49D293A56D5B4A94FDFEFFFB
FEFF04FF070606FEADE759CE72ACED6A
FF0303FAFFF9F7FFFE0304FDF6FBFDFC
5A56B5ADAF6BCEB5FEFBFF0102020302
FB02FFFDB6296A5293B52F7B5EF6A4ED
FC02F804F9FCFC0206FF10FF02FAFEFC
F17C52D80101080303F90104FD03F7FE
BE6B7AD6B4BD718BE317AD2F6ADAF6B5
04FFF7FEFFF8FF01F8FDFB03FA040402
FD0302020403FF08FE03FFFF02040104
D5C5B39C6738BD717B5F18BE338CD6F9
FDFCFAFC03FDFEFE04FF02FEC6AD8B5A
07FD04010207FDFF05FF01FEFC02FAFC
EB59CDB38BE339C6779D5B1AFEFFF606
FEFF01FEFE0506FDCEF19BDEF6CDF5AC
FEFE01FEFF0102FEFD01FE010A0901FE
9C675BCEB9ADDF3BFF06FD0306FBFE09
F0FB02FFD735CC6737DE37BD6F7AE5F7
02FFFEFFFAFF01FEFF03FFF7FF01FA02
FBBE675CFDFA01FC0305FBF701FEFA07
DF77DCEB58E67DCDF3BBF63BACEB7CD6
FC01FFFF05FEFD05040DF8040405FF01
FFFCFBFAFB030201FBFFFDFF06FD0306
79EEBFDE77DCFE7DBD6F9DE73DCEEB9D
0304FC04FE070205F8010201E7B9ED6F
FF050203FCFE0005FE000106000100FB
83FD06C1CDF3BEEF7FDF6FBE04FD0100
FD010001F9FA0900EFFA0DF39BF6C1EE
FFFE00FD0600000600010004FF04FC02
DE77DFF781EFF3C0FD00FB00090102FC
00030500F03C0E77BCFF01FF001E0701
FF0000010003000709F80200FEFF00FF
C1F077E00000040008FBFAF800FE0000
003E0EFBDD07400F801F0741EEFBE0FF
00080001030300000000000000FF0000
0000000013F303FA0001000000000000
FE07800000000781FF7C000000007800
040000000000000000FE000000000F7F
FE0000FD00FE00000000000000FE0000
000007C00F80000000007C0000000000
04FDFE01F702FC0300000F801F07C000
0203FA03FDFC01FFFB01FF0106FB01FD
0000000000000000020302FBFFFC0305
0308FBFF008000000000800008000000
02FF0303F4F607030206FE06FF02FE05
84210842FCFA02FD01FF03F202FDFBFC
18C421084210C4210C62108421084210
FE0301FCFA0801FCFFFFFCFE02FCFE01
01FE0108F9FEFF06F9FA0803FCFFFD01
A3190631908318C6318C6418C8318C63
030403FEFD0201FB03FEFEFE2106318C
010605FCFFFFFE01FCFDFF0401F7FEFB
18A42108421085210A62148403060102
0201FBFBFF04FDFF29884210C4214A42
FF0107FBFCFB01FCFC02FDFE040CFFFB
5298A6294E829CA6FCFF0204FBFF0104
FA06FD0239CA5298E5298C529CC5294A
F902FC02FAFC03FCFCFD08F7F7FBF901
909320C704FF090103FEFF02FB06FAFD
424C631D0631CE6320E7318E631CC731
FA03FD0208F9FFF904FF02FCFDFE0101
FA03030613FF0402040703F9F9FDFDFF
473A1073A90839D073A0E839D2B424E8
F70206FF0106FB0BFFFF02014A8E73A1
FF03FF06F9FD04FDFF03FE020507FFFE
312942128425094A14C5A949FCFAFCFE
F9FDFC0103FBFE0252D0A42568429284
01FD02FEFB02FF0405030402FF01FFFE
A4A92A5A96D62D6AFAF602FF01FD08FF
FFFFFAFE5B12B4A98A4AD6B4B54A5254
F702FBFEFFFCFDFD0103FBFF04050BFE
D916B18B0308FBF8F8FFF8FAFA05FE02
6354C52DAB5318C5B96B5A96B52D4B62
FCFE02FBF505F50B0301FD04FB03FE01
FB0F0106FDFCFEF8F5FC02FF0205F4FE
CC5B5AD63D8C62D8D5B18C6B1B27B9CC
0102FF020CFD010107F5F8FC6B96D5B1
FBFEFE0205FBFAFAFB0102FF02F7FB07
C1AD6B1CE635ED735D383DED02FEF405
FFF8FEFB07FBFBFF73D8E63A0D639CE6
03FF010806010EFD04FD02FBFD0101FE
F6BA0E7B9F48C20EFFFD04F702FE0D0A
F6F90309841B06BE4E6C1F0745CE735E
FAFC04FF03FD030208070107FC0505FE
E159462FFF0501FF03FF03020D0401FD
8C5D17426F746117C9EF7BA1073E2F83
FBFEFE01F4030A0B080109FFFD0503FD
FDFEFBFDFDFB03F4010202FBFC0506FE
907CA3284E1083E317C2508C2369CA52
F6F9FBFCFEF6F6FC0303F9FD949F27C6
FD03FEFD02FEFAFE06FDFAFF020BFE07
D2318C25284A7194657A4E73FF04FAFF
0104020308FE03039CE1384AB184E538
FAFFFE01FDFE0A03FA05FFFE0CF70603
38CE929CA78AD294FEFD0202FEFCFFFE
01070301A52348CED28D274956529467
FF0201FC02FE02FF05F50201F9FCFBFF
29AB56B5FEFF09FC0B03FEFF0204FE01
AD655956F3956959DA739CA94952B3A5
FE0305FDFCFC07FE02FDF701FFFFFEFF
FFFFFB0707030104FE01FF02FBFF0102
149DAB6A5EB4ACEB59D714ADEBBBDAD6
FDFF02FD01FAFD0502030101B5E779DB
0101FD05F30C01FBFFFF010302FE0302
62D5B52D6A5B35B66DCC62F704FEFDFE
09020E010201FFFCBE298A5F35A5EF7B
FCFA0101FBFEFFFE0206FC04FEFBFE01
7ADF56BEAFDCE718FA02FF020302FF01
0103FE03C6AB9AE356AE318BE6F7BD6F
FF04F5030702FAF7FFFD04F905FF0901
F1FD6B39FEFFF9FF02FC0206FFFF02FF
CEEFAB6777B6739C6B18C5B18B6397C6
FF0CFAFEFC09FEF7F9FEFC00FFFF02FF
010303FD090203F8FFFEFDFFFE01FCFE
98BEB5ACEF3ACDF39BE7B8CF320DEF5A
0302F805FE010100FBF6FF01D731CBEB
010105FFFBFEFEFFFF0301FFFE0301FC
739BD635AC6BD9D7740E739CFCFE02FE
FFFFFB0005F8FFFFDF73DC6FB9C6F7BD
0202FD020101F801FEFEFF0201FD0203
BCEFFADFF60EF7BDFDFCFFFCFEFBFA02
FEFFFFFEE7B5ECF3DBCF39CDFBBCDE77
FE01F903F801FD0204F700FDFF00FE00
380FFFDF03FCFD00FCFF02FAFEFCFEFE
EFF80DF7FCD77DDE7FDDE6B9CD701CE0
FD03010103020001F800050000000200
FD00FA00FFFE00F8FF00FC02FF000004
1DD83FEE801EEEFBEDF41DE83A0003E0
FE00000AFA00FC0000000000F03A0E78
04F100F8010000FDFD000002F6F901FF
001FF73DFE001EF03C0000000000FF00
FE00050000000000003C0EFC1EE001FF
0100000000000000FF0401000A000004
0E801FF83E00000000000400090000FF
00000000003E0F001FE800000000FF7E
00000000000100000400000000000000
0000000000000000FC00000001000000
00000F8000F00000000007800F000000
00000000040000000000000000000000
0000000000000000FF00000000000000
00F80000000000000F80000000000000
07FDFDFFFF02FDFEF702FC0100000000
FBFF040301FAFAFF030301FEFC05FF02
00000000000000000400000001FD03FC
030405FC03FEFD060000000000000000
04FDFCFBFAFCFC08FFF9080802010507
2108431086210C42010602020105FAF1
0301FEFA108421084210842108421084
FCFA06020207FAFBFA050AF606040504
C8419063F7F7FF05FFFB0207F9030905
18C6318C6318C6318C6318C6318C6418
050101FCFFFE0AFD010403F8FCF3FFF8
02FF0101040205FDFE060105FEFAFF08
8421084210842148421085210A621884
02F6FDF9FEFE0202FDFEF90421485210
FEFEFB040305FEFB03FB0BFCFEFCFC03
94A5298A5294A6294C7320C505070205
01F8F803FEFFFB02298A6294C5294A52
0503FFFEF6FF0106020CFEFBF1F50F02
631CC7398E83A8E6FFFEFD070404F904
FDF6FE0639CC7318E6318C6318C6320E
FEFF0A01FF04020302F8FAF205F90A01
D0942D070501FBFF1401FCFE0502FEFB
420E839D0739CE739CE7425073A0E841
0101FE07F6020501030201FD01FD0306
FAFF01FFFDFBFF0704090403FF0708FC
2842108421084A9284250A4A12A53148
020103060202FBFBFF02FEFF4A929421
0203010102030401FC01FE0306FEFE02
A529531695294B5254B5B569F903FDFE
FFFDFF020405FF0152D6A4A5494A5294
FAFEFEF902FEFAFCFBFF0506F80C05FD
B5AD6C6296C6398AFAFEFDFFF9FCF9FF
0201FEFB5B18B5296A52D4B5296B5B58
FAFCF90403FC020EF8FCF403FD0401FB
DAD6BDAB0A0D07FD02F703FDF60B01F7
635AC5AD8B5B16E5AD8C6BDAC6318D6A
01FDFEFCFAEFF803F6FD03FD01FCF805
FA10020B05050BFE0BF9FE01FFFEFF01
CC6398F631AD741CD6B5AE731CE741EC
1EEDF10702FDFC04FC08FF026B9CD635
06FE0305FBF8F80903070DFF0301FA06
B5CE7C5EE739CF7B5EF7C60D09FE0304
02F005FF08F8FC0173DEE6B9ED73DD06
FCF504FD110BF3F6FCFCFEF4F9190C10
F7BDF083A1084A2FFBFDFE01FEF7F707
07FCFEFE7C20F73E0E7C1F1739EF84A0
F80DFC03FE02FF02FF1002FA06050307
E318CE50FA0D05FAF8070104FC0307FB
846308422F846127BE108CE30842118B
FFFFFDFE06FAFCFDF607FFF7F9FEFAFA
FD03FEFDFEF308F40203FFFFFA020601
508CA3384A319D2718C6329425295271
FFF60AF901F20501FF02FC018CA518C6
090403FD04FEF9030C080807030AFF09
CE52A569294A53A4673A5692FF02FB03
02FF030105FDFFFF94E7294A7194E548
04FFFC03FB08FCFF03040502FBFDFE05
39CE74ACA94ADAB3FFFDFA0107FBFFFD
01FEFF079D2939CEB29D2B595293B5AB
F803020302070105020401FF05FFFDFB
EB7B5ED4FEFDFF03FF0301FFF701FF03
A56B4A52D3A56D6A56B4BDED4A5295BC
FB07FF02FBFD0502FB020203FCFE0102
FE04FEFD0106FB07FE0CFC01FF0301FF
F4ADEF7ADAD6C62F5AD6B6C52F8C62F5
FE0101F301030CFB03FF0AFFADED5B56
0B050205FEFD01FCFF0209FB01FEFF03
5EF7CE716B5AD7CD719CE716FF04FA09
FC01020102FFFE06B62F7BDB15B6318B
120203FDFFF9FB0DFD02FB0AFCF1F7F3
7BDEF8D5B3AD6B3707FF04FCFEFDFC02
FEFD01FDBE718C5F36BE739BE718D6B3
01060205FE04FFFD03040502FEF80101
F5BDEF59FA01FB02FB050407FDFEFEFF
C6B39CE357C6B5AC6B39DEF58C6719DD
FBF8FFFCFF04070102FEFE04FFF904FF
02FFFE0103FC03FCFFFDFE04FD02FEFD
78CEF7CCEF5AE7379CEB3BE677CE739A
03FBFF02FF01F90B04F9FF03CEF5AD67
FB04FA01FD02FFF9FE0401FFFC04FD01
7F7BEF79AD6F5CEEB9DEF7BBFFFDFEFB
FCFFFEFCFEFB0504D739DDEB9ADF39DD
FAFDFF04FF00FEFFFCFE050102FEFF02
BDF37DF6FBEF7BDCFBFD04FFFC020303
01FF0101DF7BEE6FBBE77BED839CF7BB
FB00FDFB03020403040A0904FFFBFF03
3DFFFFFD03FFF80006FE02FBFCFA02FD
E7BC0EF3FCEFBDFE03BDFFFDCE779EFF
000002070401FE040004090000000002
FEFD03000A0400F9FC02FE00FE00FF0C
1DF7FE0E83DE003FDFFBBF07BE00001E
00FCF70000FF0000000000FCEFFE0F74
FC0900FA01000000FB00010300000004
03FF0001E07FC007C000001F03000000
0000000000000000F0000FF81EF8000F
0000000000000000000000FD00000200
F003E00000000000FF00000000EF0001
01FF02F4F800007C1F00000000000001
FCFB03F5FF0101F504FA04FEFEF907FF
000000000104FD03FEF70109FD0301FF
08000000000800100000000000000008
030901FB0203FC11FE07FCFD0503F5FC
0503F805F8FC0206010702FF05F6FDFE
42104220842108421084411042108421
FE0508020301FDFB0702030810821084
03FDFF0506FC0302F6FEFCFBF6FC0401
88421084210862188421084202F701FB
04FE040402F9FB0418C4210863188431
03FDFC02FFFDFD03FFFEFE02FD0103FE
318C842106318C6301FD0304FCFFFE02
FFFE01FD2106318C8428C6420C6418C6
FEFDFE03FFFA05F9FFFDFDFE02FAFCFD
4A421484FE040503010305FB0303FF07
29484210A5390A62908521084210A529
0202FF0102030B0301FC02FF070103FD
FC010103FD01FFFF04FD040201FF01FC
C6414C7394A6294A5294C7318C5298A5
0202F8020406FE0203FBFFFA318A5298
FE04FDFD04FF09FE03FEFB07FC08F9FD
18C7318C6318E839CE631CC6F9060205
01F903FB0C01FF0239CC631CE7498E94
FFFCFC02020203080507FFFE03020607
739D09421073A0E804FD0909FD03FDFB
F605FC03421073A1085210A49CE839D0
FD07FFFD0401FCF902FEF9FF04FFFB05
5284A50906010504FEFB01FAF902F905
4A5284252A5A52B5A1094252A4212A4A
FCF906F904020204F9050DFB02F4FEFE
FF0202FB04F708F8FFFEFFFF03FCF5FD
4B6A96C6252A4A94B4A56B529495292A
FB05030B03FC060C01FE08075294A529
FDF9F8FFFFFDFD0203FB0807FAF9FCFE
A94B52D6C5298C62D8A5AD4CF8F80102
0205F4010AFF07FF5AD6B5AD6C72D8D6
07FA06FB0604010404FD05FE050801FA
D5ADAD6B1AB6318D02FC0308010B0304
0304FBFF6318D6318D7B1AF72D6C5B18
FEF9FB020302FB0401FF08FDF4130FF5
5CC6B5AE0201FD02F6FB0203FC0A02FD
6B5AE6B5AE835D17B1AD635AE631CE73
FCFFFE01FE0CF9EFFC04F9FAFCFB04FF
08020105FEFE010803030C0305FC05FD
CF8B9F2835CE6B9EF6B5EF7B9ED739CF
FCFA04FFFCEF040B03F7FEFD739CF739
FAF9FF0301FEFFF202FD0203FAFE0502
BDEF73E1073A1083E0E7BDF0FAFDFAF8
02FEFC0301FD0AEE7BDF07C1F09BE148
FD0207FEFFFB12F5030106FDFCF9FB04
27BE318C22F84214FCFBFCFEFD020103
FE0701FE8423284631AC2359C2107C65
04FDFF090E04FF01F7FBF5FF0802F606
6508C6350103F4100304FF0703FF01FE
8CA548CA52B4676AC6318CA738425394
FAF8F9F4F901010B0304F2FE080101FE
FE0205FBFB0104FC01FC16FBFEFFF8F4
94BCA97B4A52952948C694A4A9294A56
FEFDFFFFFFFCF80102FF01FD952B594E
FCFE010708FF01FEFBFCFE01F604FCFC
D293A56B594AB5B52F39CE77FF03FF01
01FE03FCFE0409FC9D6D7A52B5C4EB9B
080401FEFEF8FDFBFCFFFF0101FFFEFE
69CED6BD714A5299FAFAFA08FCFA0112
04FCFCFFA5EF8AD6F7CD2DAC56B4ADAD
FA01F5F5FF0105FC0906F4050401F9FE
B35B56BB01FF0204FEFD020202FD03FE
AE319BDF38DD6FBCDAF5B5EF7A52F7C5
F6F7FAFC01F90104FAF7F70103FF0B01
09FCFC01FBF9FC03090306FFF8FDFEFF
59EDF1DD5F16BEB18AD718CDF56BDB3C
02FEF901FFFEFBFCFD0201FEBE73BC67
FFFF02FEFC03040302FD05FE0601F601
E337C6F59B5F39D6377C5F5DFFFDFEFF
FFFE01FC01FDFAFEC6B7CCEB7AF673ED
FFFE080802FB0104FD0101FE0303F9FE
ABE35ADE798DE37EFDFF0818FE06FA02
02FF0603CF3BDD6FDBFEB5FEE758CF37
FFFA01F8FDF7F60201FCFFFF01F9FB07
BB9E67BFFEFEFA030102FE0200FA0500
D77DFDF3FC06F60F6B79D77BBC677BF6
FEFFFE01F603FFFF01FCFCFFF5020100
FC03F40001FE00F700FE0100FFFD02FC
1D07380FEF9ADFBDCCEB9CFEFDAEEBC0
02FDFD0500FEFFFC03FF0200EFBE0E74
FD0200FE00FF03000001FDFE050101FF
73BBEFFFDD6FBD073FBF6FE008090000
00FF000105FE0000F7C00EF81E077A00
0001080000FD0602FA0000F9FFFDFFFE
EDF3DE0741DFF000FB000000F8FC00FD
00FB0000F8000F7C1F07BC0077DCF001
00FBFE0C05000001FFFFF9FF000900FD
81E0740000000000FD00000000020400
00000F800007FE007BFDF801FE77FF07
0000000004030000000E000000080000
000000000000000000000000000200FF
000000007C1E00000EF80007C0007800
FB010000000000000000000000000000
0000000000000000000000FC00000000
001F00000F7C00000000000000000000
00000000000000000000000000000000
000000000000000000000000F9000000
0F800000000000000000000000000000
0102F9FB000000000000000000000000
FDFEF9FC070101F501FA02FF040504F4
02000020FD05FF08FBFCFE02FFFF06FF
00000000000000000001000000000000
0505FDF803FEFAFF010AF9FA0402FB05
FC03F304FCFF0603FA0A01FEFCFC01FD
21084210842208421084210844108441
0103F703FF05FEFF0B04FA0308421084
030C0405FEFE0105FE02FDFDFB0201FF
0843108421084210863108620905FDFE
05FE01F803F8FDFF1084210C42108421
01FDFE04FDFE01010201FE0101170603
318C631908418C8302010403FD01F703
04FAFFFD18C631906318C6318C6418C6
FEF9FFFF0402FDFA030101F70701FCFE
8C5210A4FF010203FFFFFFFFFEFDFE06
210A5218842108421085214A42148421
FE01FC05FCFA06FA05FCFFF804FE02FC
FF020201FC02FFFDFE0201010302FEFD
A6294A5294A6298C5298A529CE6294C6
FFFF04FFFDFE06FC0406F6FE298E629C
FBFEFBFA010107FFFC0103FFFEFE01FA
18C731CE6320C63210731907F7020101
FC04FA0703FFFFFE31D07320C7398C73
050102FCFFFFFD0404FEFEFE02FEFC02
73A4E73A54839D28F6FD0301FEFD05FE
FEF9FF013A1283A4E841CE839CE83A10
03FF03FC0201FE01FF0802FF040701FF
9694214B030203F8FCF8FEFF0201FC03
4254942D0A521094250A42528429094A
02FE0402030BF60604F204FE050603FF
FEFF05020202FEFDF906FA01FEFDFE02
2B5A52A4A92B4A9494AD2A52D8A5258D
FAFE04FAFF02F802FEFFFBFE4A96A4B1
FFFC03FFFDFE0404FB010202FFFBFAFE
2D8C52D6A5314B5B1AB5A9AEFFFD03FE
FFFCFEFBFBFA08FA52D8B5354C6294B5
01FDFDFEF8FBFFFC09FBFFFD04FAFE09
B6356C635CC62DD0FFFE05FFFE01F6FF
050507025B1AC5B96D6AD6E5B5AD5B18
FEFD05FF0BFFFDF8FFFE01F7F705FAFE
9ED6B211FFFEFE0303FE0B010204F7FE
63DCD6418E7358F639CE635AC6B98D73
FEFEFEFFFCFA0BFCFAECF905FDFCFFFF
FF03FA01FB0105020403FEFFFDFFFD06
B07B9D06BDEF6B9CD73DAE7BE0E73633
07F7FE020405FD01040603FE6C1EE6C5
FD010203FEFD01FC01FFFCFDFC01FC01
421073DEE7C1D08C28F7BA5401010503
04F7F7FCFDF8FB017460F74DD183E117
03FCFD05FFFCF808010803FAF8FE02FF
F84611946B083E95FD0404FEF9FDFD06
030702FE7CA507D1F28C2527C6517C20
FF0602FC04FE03FDFDFF06F905FFF603
AF1942B6FFFFFCFCFCFEFCFFFB0101F9
85291856149467484A92846308CA52A4
0EFF0301FCFFFCFF06FE05FB0202FF02
0202FBFDFF02030301FA0A0201FB0101
359CA958D6B38CA5194E93AD3129C6D7
01FDFF02FF07FA0104F8FCFC956B28DE
FF01FBFF01FF01FF0201FF040401FFFD
5AD494E729D2D4B5733A4AF9FFFAFF04
0501F7FE01FFFC039DED496256A4ED69
FFFF0601FF02F7F8FDFDFBF6FEFCF4FF
4A56F5BDB54ACF1A05FFFCFCFFFF0107
040201FFBE2F59E697AD2F79DEF5A529
FEFB01FFFE02FBFFFD0BFBFEFEF7FA02
F75B533B02030601FAFF01FF02040101
CE736A6B18B5718B6B16AD6B5ADF16C5
FF04FF0202FB0403FAFE010103FE04FF
030203FEFD05020105FF07FFFAFDFCFD
39C5B59CEF37B5ED6B6737CE396BD75C
02FEF6FCFD0204FFFFFFFD01D6B57AEF
