FAA3FE84FC52017001A801DAF8EC002EFAE2F832FFF001E8FEBAFC3005E7FC25FFDDFE0500E9FBE3F833FE46FE7700080223FCE500C8FCDF0A5001FDFD1C0175
FE9AFFDD007A0033FFF8003C014AFF4A00B200430078FF910005FFC2006901D40259FFFA008BFFEFFF2B002AFF3A01C9004D008F011901F40306004CFFFF007D
00E0FF9B0137005B00700011FFEDFF40001B002A005A003F000D00C9017D0033FF28009700090285FFF90034020B0049FEFFFF60FF82FFA3FDAE01FF002BFF9E
0163FFDB0026FFCFFF1BFF6500140108FEEF005DFF0AFF4D00F2FF7D011F00C4FF05FFB60020007F0048FFE7FFF00023FEB9000CFFDD005A005D0045FF68FFD8
0164FFC20096FF58006700330041FF7EFFBDFF95FF25004B003600A0000A003601110052FFC2FF9EFF6AFFA9FFD4FFF50076FFE700BD013200510046007CFF2F
017BFE0C0072FF6700C1FF81021F018E03210266016DFF3600D5FF3BFF4802180097002C00390186019700E6022D01A7FFED008200A800D4011801FD00CA02BA
00D300D30058FF3601FA0006013000C4FFCA029601CF0082007700E3002600BB01850029FF76FFDC012E002E01A70070036000FF014C004AFF4AFFBA0077010F
02A10072FB93011301AB0091006400CD019600C302970215026600AA02F102B300D60013022D01ECFCBF007D0164012F033A015E011A0047023A02D4013C022F
02A1FF69FFAD0091001AFFF900D200C0023CFF5601E201D5014A01EB0051009FFFA2037A00D902090101000200CC013801A0014401C4FDF4030EFFE2FFF3FFCD
009501BF00B2006D015800DE0132007000D8011B01110105FFF50103018DFDD1010D01030165FFE10075017D01490058FF1C0239017C0225014E0061008801A2
011200A700C40144004A002400EA0076018201A0016F020F00AA00BD007B01C1018F017F00A5009101A300220254008B01EA007300CB00C3007C002C00A6007D
018E0113008C00D2000500BD011B00EFFEDD01B7013300870026025700FF0120016100A8016E00CDFFFEFFB1FFD801B2011C00CCFFC0002DFFFE017600D60116
0077015A00AD002CFEB2FFB400320165012300E6009901B300470032036A02D3006701D900DE005D0148011303690145009E00C2FFBA01CDFF5B023101A501CC
00D8019602E1005E00BA007000E70222011E007F007500E70006008F01AD02110180FF4D013400E0011E002900FA009C011500AEFEC3021102150108019F0258
011E016D007CFFED008F015C011CFFF1014D0104019501530176007000C201070109017E0048019300AF0242FF86008B01180082FFB90197004E00B7004A0044
00370131000700730046FFDC0129FED5011D01CE007200250184004DFD0D0106024A019F00BB00E600B4009200CB0078FFDA016900C50121FF9E008501820061
013500A4007000CB021A01010124015500C4002601140179010901D00118021501200109017A009B01AF00C100F400EA0190009000A00058FFD3FF9A00FA0114
00000000000000000000000000000000000000000000000000000000000000000000000000000000000000000000000000000000000000000000000002CCFD34
0000000000000000000000000000000000000000000000000000000000000000000000000000000000000000000000000000000000000000FFB2FCD000E30333
000000000000000000000000000000000000000000000000000000000000000000000000000000000000000017E6182212CA0C000C38152B0BAE108D160B0AE0
