000000000000000000000000000000000000000000000000000000000000000000000000000000000000000005570010FF95010FFFC0FFD800B20982075CFF56
000000000000000000000000000000000000000000000000000000000000000002B80099FFE101B6005C0052003100BD0266026901890105006C025D027D0105
018A0315026403A6FF23FEBA03FC0368038903AD0332057D05E1FD8BFE10FD23F9F0060003420774FED2FE7C014003270316056202230196F8E4052D06EDFFA4
000000000000000000000000000000000000000000000000000000000000000000000000000000000000000000000000000000000000000000000000FFFF0001
0000000000000000000000000000000000000000000000000000000000000000000000000000000000000000000000000000000000000000FFF4FFC1FFD40016
