000000000000F7F111F7FBE9DFF508FF
00000000000000000000000000000000
00000000000000000000000000000000
000025FDFC03FAEEFF0AF8FC00000000
00000000000000000000000000000000
00000000000021084210842100000000
06FBFDF70306FBFE0000000000000000
0000000000000000000000000000EBFA
00004210842108420000000000000000
EAFF0505000000000000000000000000
00000000000000000000FC1F0F02ECF2
00000001000000000000000000000000
00000000000000000000000000000000
0000000000000F0CFE07EFFFFA08FE02
00000000000000000000000000000000
00000000000000000000210842108422
0000F1090500F707FAFE040000000000
00000000000000000000000000000000
00000000000042100421084000000000
0D0DF50304F70D020000000000000000
000000000000000000000000000002F1
00002000000000000000000000000000
F809FC02000000000000000000000000
00000000000000000000FFF8FBF1F601
42108421000000000000000000000000
00000000000000000000000000004108
00000000000000FD040705FEFE0BF6FD
00000000000000000000000000000000
00000000000000000000021084210842
00000000000000000000000000000000
00000000000000000000000000000000
00000000000000000000000000000000
00000000000000000000000000000000
00000000000000000000000000000000
00000000000000000000000000000000
00000000000000000000000000000000
00000000000000000000000000000000
00000000000000000000000000000000
00000000000000000000000000000000
000000000000E7EC0AF51232F803F20D
00000000000000000000000000000000
00000000000000000000000000000000
00000DF208FE0925FE04040E00000000
00000000000000000000000000000000
00000000000021084210842100000000
FDFB030FF9FC13000000000000000000
000000000000000000000000000004FA
00004210842108400000000000000000
1003F304000000000000000000000000
00000000000000000000F7251006090E
00000000000000000000000000000000
00000000000000000000000000000000
0000000000000F1609060405FB02FB05
00000000000000000000000000000000
00000000000000000000210842110421
0000050A050201F600F9070700000000
00000000000000000000000000000000
00000000000042108420084200000000
091CFA0413FE04F90000000000000000
0000000000000000000000000000FCF0
00000000000000000000000000000000
0202FDFB000000000000000000000000
00000000000000000000FCF504F9F401
42108421000000000000000000000000
00000000000000000000000000002108
00000000000006FC0308F9FD03FEFCFE
00000000000000000000000000000000
00000000000000000000421084210842
00000000000000000000000000000000
00000000000000000000000000000000
00000000000000000000000000000000
00000000000000000000000000000000
00000000000000000000000000000000
00000000000000000000000000000000
00000000000000000000000000000000
00000000000000000000000000000000
00000000000000000000000000000000
00000000000000000000000000000000
0000000000000BF4E4E404EB03FADA14
00000000000000000000000000000000
00000000000000000000000000000000
000009FEFB0102EE0905120800000000
00000000000000000000000000000000
00000000000021084210842100000000
F8FF07F7FC0514010000000000000000
0000000000000000000000000000F0FD
00004210842108420000000000000000
0B03F4EA000000000000000000000000
000000000000000000000315E6F20BF4
00000000000000000000000000000000
00000000000000000000000000000000
000000000000FE09FA040BF8090608EF
00000000000000000000000000000000
00000000000000000000210842108421
0000F904F5FD050605FB0BFD00000000
00000000000000000000000000000000
00000000000042108421084200000000
E51308FF06FC04F70000000000000000
000000000000000000000000000005F7
00000000000000000000000000000000
FC050BF8000000000000000000000000
00000000000000000000F6FA01FD0503
42208421000000000000000000000000
00000000000000000000000000002108
00000000000008FFFBFD04000E02F101
00000000000000000000000000000000
00000000000000000000421084010842
00000000000000000000000000000000
00000000000000000000000000000000
00000000000000000000000000000000
00000000000000000000000000000000
00000000000000000000000000000000
00000000000000000000000000000000
00000000000000000000000000000000
00000000000000000000000000000000
00000000000000000000000000000000
00000000000000000000000000000000
07F0F8EBFC010601FA07FCF708FDF8FC
00000000000000000000000000000000
00000000000000020000000000000000
F7050BFEF1FA05FDF4FFEBFF00000000
00000000000000000000000002F711DE
00000844108421084221042100000000
F6120901D915EDFD0000000000000000
00000000000000000BF304E0FC010EF8
21084210843208420000000000000000
DB05F40B000000000000000000001086
000000000206F2DC030308FCF31AFA01
C6428C63000000000000000000000000
0000000000000000000018CA318C6318
0105F3030204EF09E7F4010715FD020F
00000000000000000000000000000000
000000000000210C4210842108531084
0501FBF804F7FD0AF0FB0EF800000000
000000000000000000000000FCFEFA07
000029505294A5294A6394A500000000
03EFEB0211FA01010000000000000000
0000000000000000FD0AFCFB1103F708
6318C6318C7418C70000000000000000
FFFB04FF000000000000000000003192
00000000FC070001FFFBF6F8040306F4
CE849CE8000000000000000000000000
0000000000000000000039C0739CE739
030300050801080507F6F7FC0001FD00
00000000000000000000000000000000
00000000000042008421084210902100
05030500F40001000006DF0000000000
00000000000000000000000004FA00DA
00004A4094A520481200252000000000
02FEFA0807FFFFF40000000000000000
0000000000000000FEF7F7F40F13F805
00000000000004000000000000000000
FAFC1909000000000000000000000000
00000000F80E05FA04FAFC03FCE7F5F8
42108841000000000000000000000000
00000000000000000000084210842108
FF0CE8ED0711F8F9FEF3F3EF0404F808
00000000000000000000000000000000
00000000000018842108421084211062
FA0F04FB0107F9FA03FFFDFC00000000
00000000000000000000000002FE05F9
000028C6318C6318C631948300000000
FFF301FAD9FD0C060000000000000000
000000000000000002040403F70304FB
4210842908421CA40000000000000000
F2010406000000000000000000003108
000000000210FD0AFAF0F9FA02FA040E
4A52A0C5000000000000000000000000
00000000000000000000394A5294A531
FF02F70105041E0B05FEEFECFF0302F4
00000000000000000000000000000000
00000000000041CC6318C6418C6324E6
FC01F8F000F907EAFB00FD0200000000
00000000000000000000000002FA0504
00004A0E739CE7020E83810700000000
00F3F6F007000D0B0000000000000000
00000000000000000002EE070A010209
84210802509401280000000000000000
FE000007000000000000000000000250
000000000000F8FAF70800FF0000F600
12048009000000000000000000000000
00000000000000000000001294A40900
F707F6040AF802020105F8E3FE09FCED
00000000000000000000000000000000
00000000000000001000000000000420
0402F1020BF602FA0A13FE0800000000
000000000000000000000000E70EFA04
00000842208421084210886100000000
FEF0FA33EB06FC0D0000000000000000
00000000000000000C0412FC03FB04F7
3108422084210C820000000000000000
02080307000000000000000000001084
00000000FFFB08FF0316FAF4FFFC05DD
C63190A3000000000000000000000000
0000000000000000000018C8418C6328
03FD10FAFD0F03F101FCFEF4FE040502
00000000000000000000000000000000
000000000000210A5210A431084214C4
08EDF9FDFFFDFF2D08FCFFFF00000000
0000000000000000000000000803FEFE
0000294C6294C5394A5298E500000000
0102FBFF03FFFF080000000000000000
00000000000000000302F9FD08FF0105
731CE6418C631D060000000000000000
05010703000000000000000000003190
00000000FFFF1108FFDBFBF9FEFD0906
CE73A127000000000000000000000000
0000000000000000000041D283A10749
07FD000301FFF6080003FBE80D11000A
00000000000000000000000000000000
0000000000004A009425280210842408
070000FB00ED020FFF00000800000000
00000000000000000000000000030000
00000240048009025294800900000000
F8040401F8F60C0A0000000000000000
000000000000000006E60FF701FB04FB
00000000000000000000000000000000
0402F501000000000000000000000800
0000000009E901F5FFFDFC03FDF80A03
42108421000000000000000000000000
00000000000000000000104210882108
06DEF7140DF5F80809F417020308F305
00000000000000000000000000000000
0000000000001884210C421084210842
0901F6F7F604FAFDEC02FAEC00000000
00000000000000000000000002F1FFFA
000020C831906318C6318C6300000000
E0E806FFF90301060000000000000000
0000000000000000FD08F510FAFBFB0C
421484210A4210850000000000000000
0605010700000000000000000000310A
000000000302FCFD12FF0CFBFEFEEBF6
4C5294A6000000000000000000000000
00000000000000000000394C5298A531
02ED07FBEEF6F40A090308010EF702FB
00000000000000000000000000000000
000000000000418E631CC6398E631CC7
0A0306F80101F7F905FEFB0600000000
00000000000000000000000000FDFC08
000001D073A0E741D073A4E800000000
F9060209FF0011020000000000000000
000000000000000000CFFAFEF0FCFA02
8425084A128401090000000000000000
0300F400000000000000000000000212
0000000000FE0009FF00030600F50003
40948120000000000000000000000000
00000000000000000000024094812902
FFFA0AFC0A05F60505030101F7FC0801
00000000000000000000000000000000
00000000000000000000000000000000
06F503FE05F4FC0603FEFA0400000000
000000000000000000000000F5060BFB
00000842108422084210842100000000
0AFAFDED02F30DFF0000000000000000
0000000000000000FD13F9FE0FEE02FB
21084310842108420000000000000000
F0FEF902000000000000000000001084
0000000008FC11FC0F010AFB06FAF909
C6318C63000000000000000000000000
0000000000000000000018C6318C6418
FB02FBFFF80510F601FA04FAF103EFFA
00000000000000000000000000000000
00000000000021084210852108421084
F2FF0703FD010EFEFFF9020E00000000
000000000000000000000000FB0CFE04
0000294C6294A6294A5298A500000000
FC02F00C01FFFC180000000000000000
00000000000000000506F8FBFD1803E7
7318C7318C731CC60000000000000000
0F03FAF900000000000000000000318E
00000000020E0806FFFF0807FEFF0804
CE83A0E7000000000000000000000000
0000000000000000000039D083A0E839
02FEFD03FAFDFAFEFB06F80204000A02
00000000000000000000000000000000
00000000000042129425094210940108
FB00020009FCF900FD00FB0300000000
000000000000000000000000F0040000
00004A400481204A5204812900000000
0105FA030301F6F00000000000000000
0000000000000000FA0BF20408E9FA04
00000000000000200000000000000000
0A0704F2000000000000000000000000
00000000E0020D040AFA06020F0609FC
42110441000000000000000000000000
00000000000000000000084210842108
ED0AFE0CFFF7F70D0F0AFEDD0602FCF5
00000000000000000000000000000000
00000000000010842108421084218C62
090BFCF001FB04FBFD07F4ED00000000
00000000000000000000000003F5F701
000018C6318C6318C632108300000000
02FE03F6070103FC0000000000000000
00000000000000000201F805FC07FDE4
42108421084294A40000000000000000
F6FE02F7000000000000000000002108
00000000FE0406F9FDF5FA0204FF03FA
4A5318C6000000000000000000000000
00000000000000000000294A5294A529
030A08FAF80EED0407FD0BF702FBFFF8
00000000000000000000000000000000
000000000000318C6398C6318C639CE7
FFFBFDF1FD0205F3FDFF020900000000
000000000000000000000000FDFC0709
000039CE949CE73A0E74250800000000
FD05FD05FE0002F70000000000000000
00000000000000000208FF0000C6040A
00210842508481290000000000000000
00000000000000000000000000004210
00000000E2FBF80000F4F9010F0008F6
12900000000000000000000000000000
000000000000000000004A5200252948
020208FE12FF0B0BEDFE08FEF90A05F5
00000000000000000000000000000000
00000000000000000000010040000000
F602060BFC12FD08F8DBE0F700000000
00000000000000000000000001F9FE12
00000842108422088210842100000000
0102120811F1EB120000000000000000
00000000000000000EE8FA06FB09FE01
21084310C42108430000000000000000
F8020701000000000000000000001084
000000000508050307FAFC08F0FD0AFD
06318C64000000000000000000000000
0000000000000000000018C6318C6419
FE0702F5F907F9FDEB04FF050EF40403
00000000000000000000000000000000
00000000000021085290852148429085
EB05FC070902FD0201F2030200000000
000000000000000000000000FE04FAFD
0000294A6318A6298A5314A600000000
05010302FEF7EB020000000000000000
000000000000000004FA0205FB05F9FF
839CC731CC6398C70000000000000000
FCE50AFB00000000000000000000318C
000000000304FE01E802090106FC0202
0E849CE8000000000000000000000000
0000000000000000000039CE9421083A
02FE0600FD01020BFFFEFA04000AFBF8
00000000000000000000000000000000
000000000000421004A5294250902109
00000000FA00010000E5E40000000000
00000000000000000000000000040600
00000252000000481200252000000000
030B05FEF90509F70000000000000000
0000000000000000FC0811FBFCFC0505
00800000000000000000000000000000
03F604FB000000000000000000000000
000000000201FC0DF809FE02F901F9FE
42110421000000000000000000000000
00000000000000000000084211044108
0412050712FD03FFF90201FBF6F4140A
00000000000000000000000000000000
00000000000010842188621084218842
F6F507FB070804FF04FC03F600000000
00000000000000000000000006F4EF04
000018C6320C8318C6320C6300000000
FA01FB040402FAF30000000000000000
0000000000000000FC02E2040106F7FA
4290A421084290840000000000000000
0601FCFF000000000000000000002108
00000000FDFCFCFF020C15F6FCFBF8FF
4C5314A5000000000000000000000000
00000000000000000000294A5314C529
07FC17FDF510F606FEF4F9F606FDF5F8
00000000000000000000000000000000
000000000000318C6398E6318E6398C6
F7FC01EEFFFBFE010504031000000000
000000000000000000000000F904F7FE
000049CE741D0739D074A0E700000000
04FDFE090000FCF00000000000000000
000000000000000000FD1404FEF80408
84A12842128001080000000000000000
0000FE03000000000000000000000210
0000000000FD000A000700FDFCFD0001
40900129000000000000000000000000
0000000000000000000002409024094A
F7FE040311F2FD02FB07FC0B03FA091B
00000000000000000000000000000000
00000000000008000000200000108400
FC0109EFF009F70EFD02060100000000
000000000000000000000000F305F70A
00001042108441084221082100000000
F310E40DFFFC04F10000000000000000
0000000000000000070A0A02EF12FFFF
2108621084318C420000000000000000
09050510000000000000000000001884
000000000101F6070BFFFEEEFA06FFFF
C6421063000000000000000000000000
000000000000000000002106318C8318
FD03F403F90A07DBFF04FFF904FBFBF3
00000000000000000000000000000000
00000000000029484210A42108529C84
F808F8F3010205FFFCFDFBFC00000000
000000000000000000000000FEFE11F7
0000318A5294C5294A6324A500000000
07FD08030400FEC70000000000000000
000000000000000002FC0AFEFA09030B
6318E6318C7380C60000000000000000
FE00FE090000000000000000000039CC
00000000FF0202030F06F8E2F803FC06
CE8400E7000000000000000000000000
000000000000000000004212739D0739
DC0100FFF0D1000D04FD0809040004D5
00000000000000000000000000000000
0000000000004A408420084210948128
FDFD00FAF20B0400000000FE00000000
00000000000000000000000000000008
0000000094A4094A5200000900000000
00000000000000000000000000000000
F71104F8F703020504080C170EFBFF08
03130802F8EDD8FDFA12FBFA09FBEF04
00000000000000000000000000000000
06F225FCF8130BBCDFFF071200000000
F71A3C01C812EDEB0AFEF508E8EDF8E6
842108421084210842108421F9ECFD1A
FC0D0D0703EAEFC90842108421084210
06E51AFCE2FC08EE180504170BFC1108
2108421084210842FDFF0711030B0B02
07F80707108421084210842108421084
FDF6EDF5FBF0FFECFB2902F105E30E0B
C6318C63EF0E06F3FFFA23EED0DCFEFD
18C6318C6318C6318C6318C6318C6318
1DE604F5EC1DFF07F51B140AFFEAF803
0CEAF106F6080CE6F60A0F0DD602FF20
84210842108421084210842108421084
EA15ED04F3E8050F020B090E21084210
F9161FEA07C010F7F7F60A1114F006E3
94A5294A5294A5294A5294A508F20916
11ECEE0E0BEF0709294A5294A5294A52
2DF22FECFC1103FBE7DF04FAE5F11220
6318C6398C6318C6F317E8080CFDC94C
FBFEF333318C6318C6318C6318C6318C
4A1302FFD71401070303FCEC0B0302FA
CE739CE7FB210DDA1D0AFB0BBA1C1804
39CE739CE741CE739CE739CE739CE741
FCF4FB21EF111AF50817F11CE40E1808
C81F06040AF5FE1127F611F621080121
084A1084210842108421084A10842108
FA0C04FBF1F6F109F9F7DCF342108425
F9F9EC25E30B01020C04F30103FCFA06
A5294A5294A5295A5294A529FFFBFC01
FBFB07070A0303024A5294A929525294
D7FF08F8F8FCF50C04EE0B10F30509FA
A5294A6294A5294AFF1C1CF6FA051AF7
07EBEB015294A52D4A5A94A5294A5294
ECF7F5010906FEF6F50BF3FDFFFA08FF
D6B5AD6BFD1B0BFAF60314F7C1EEFEF5
5AD6B5B16B62D6B5AD6B5AD6B5AD6B6A
050F06FEEFF511F8FAFD0FF21EFC0A13
F61201F3F5031DE9E3EDDBFDEFEBFBF7
8C6B18C6318C6318C6318C7318C6318C
FF0DFC020FF603FB0BFCF40E6318C635
05F71AE0C9F10BF8EFFB030EF21205FB
B5AD6B9AD6B5AD7B5AD6B5AD03F91E03
00F50D0D0CFB01046B5AD739AD735AD6
1FEBEA0AEFFDFCFFF7D4FFE9061103FA
E7B9CE039CE739CEFE0D08F002FBFCE9
F010ED1B739CE7BDCE7B9CE739EE73DE
250C0011E70000F90009F9ED00F4EAE5
DEF7BDEFEC1FD1F90000F0FD000A01F5
7BDEF001EF03DEF7BC0F7800F03DEF03
06FFF3ECFB0B09DB01EDFC0704FFFC11
FE05FA08F7F3EE0614EBFE0FF8FDEB0B
00000000000000000000000000000000
290A03FEFF04F6ECF401F90100000000
030315F11C1103FB14FF03EEF6F3F1F7
842208421084410842108421F7040C0E
071502F513FE0EEF0842108421084210
0C0EED07EAF5FAF5F9F4FDFB1907250B
2188621084210842010DFBF4F1FD0AD6
F9E70208108421084210842108431084
03FA0329F0F10EF2EC090B0CFA011001
C6318C6403FE0BFDFB0615F3E5FFF3FA
18C6318C6318C6318C6418C6320C8318
0DF7F1E1150319F6F9FD04F5F10101E6
08EEF113F706FDF3091A1507E60404FC
84210842108521084290A42108421085
0AF9F207F1140CFBF4FA071021084210
04051DE7E61FFDF7FDEF05E5F6FB02F3
94A6294A5314C5294A5294A6FD1F18F6
01FBF1F308100E15294A5294A5294A52
E1ED280611F4081502140D06F506F906
6398E6318C6318C70122F6030B080AE0
0811F701318C6318C6318C7318E8318C
2A0E0AFBFD03FB24130316040E0611FC
CE739CE811F4EC0316F9F90E1E2AFFF7
39CE73A4E739CE839D0939CE741D0739
1718F628F40FF6050801FCE5141011F6
12FB2DF7020AFD0EEAFDF70C15FBF80A
08421094212A421284A1284A10842109
0B080EFF01F0F605F909F1E542108429
02FDF7190E0512F309FF01F103070205
A56B4A54952549525294A52A02D4F2F3
F7010A0BF7F6F1F24A5294AD294A52A4
F40F06F9F2F8F8E6FBDEF9010D140B06
A5A96A5A94A5A94B070616FEFFFE2EEC
07E3EFF95294A5314A5294B5298C5296
F7F6070B13FB08E50E0A14F00407FCFB
D6B62D6CF7F30D02FF0706EAEFF2FFEF
62D6B5B56B5AD6C5ADAD5AD8B62D8B62
EB0508FF0EFD05F0F71706F60AEF0A04
05FF09F0F6FC0307E70BE4FA0DF6FEF4
8C6318D631CE631AC6B1AC6B18C6B18D
08FFF704FC0E01010BE1EEFF6B18C639
FDEA0AE5DAFE07FFFDFD00EFF50201F9
B40F6B5CD735CD735AD735AEF3E21903
0E02040CFAE6171B735AD73DAD6B9AE6
EBEFDF05F2FE0000EEFCECE4DD01FB0E
E7B9EF7B9CE7B9CFF80213F3070004E1
001809007B9CE781CE73DCF73800739E
0707000007FA00FB000000000005FEFD
DEF03DE00012D5F80000D9F61700DF00
03DEF001EF781E07BC007BC0F0000003
0708E5E1FC01ED0B02F6F4FAF61F03F0
0DE306FB04EAF3F302E8FC02FDF1ED04
00000000000000000000000000000000
FCEF2B080118F5F403D7041D00000000
040D08F8FEFAED19030E09F810DF01F3
84210842108421084210842104D00303
F6FDFB08EF160FB70842108421084210
11FDD008B701F8142DF60104E7F60CFA
21084218842108420A24EA0DF4F6FB04
0FC7FA0A108421084210C42108421084
FFFAFF0BE4E8EAF7131513F7FCF41913
C6318C6307FA12FCFF0A10E70B1CD6F7
18C6318C631906318C6318C6318C6320
2ADFDCE0E414FBFCFEFEC2F4E42704EA
0AE2ED0514F5FD29F8072104CA02F63F
84214842108421084210842908421084
10020CEB08FB02210ED90912210C4210
FA12FB050BFBEDF4F60504F9EBEF07F5
94A5294A5294A5314A5294A502160412
FCF90A1820E0F208314E5294A5298A52
011F0A072F05FAE8DBEC071D110AFEF1
6318C7398C6318C624F708FC010808E7
2118011339906318C631CC631CC6318C
0C0404F60E010912F5EDFAF404F60FF5
CE739CE7F7DB020616150B030B02FFF0
41D2739CE73A0E83A0E739CE739CE841
F00AE7051819180807F81537FDD51F0D
06FD0802FBF6EAE70E01F30920F4F239
08425094250842508421094A50842108
F60CEBF7FA060606050FFC024A148421
02EFF913FDEF16F4FEF2F2FCFCF8F906
A929529294A52A5292952529F7D8FCF1
F80D1B14FEDDFDF1525694A5294A92A4
03FBE3F3F7FFF617FD040CE317181CF7
A5294B5AD4A5A96AFEDC0F02EFFC16EC
02D1F5025AD8A5294A52D4B52D4A5AD4
EC030B16F610F8CC081D06F909FE04F0
16B62D8BFA030A01FF02F1EC09FC01F7
631CB5AD6B5B56C5B16B6316B5AD6C63
F609ECE80E0B07F1FBFF07100ADBFBFF
FEFA09F3FCFAEEF606F8F0FC1403F5F9
8C6398D6358C6B58D6318D6B58C6B1AC
10F503EF09FD0B09F6D6090D6B5EC631
F6F7F4EAFA16FBFEEE03FAFBFFF5FFEA
B9AD739AE6B5CE7B9AD735CDFEEE00FE
00EF041916DEF7047380E6B5AD6BDAE6
0500E3F6DBFE0311EDDDF21409DF0001
F73C0F03DCE7B9EE11E800F0060501EA
001100237BC0F739CE701CF73DCE7BDC
0E00E81700001600E40000000000DBF2
1EF03C0F00000000FAEBE914DE000E00
000007BDEF781E0781EF001E07800000
F3FB07FEE803130F0412F7DFF902FE3B
FA0EEB04F9FFEAF60618FCFC0FFFF30A
00000000000000000000000000100000
FDF9F209032CFD28EA0708F900000000
F6021B09EE1B10E313FFEF0C41FAF711
84210842108421084220842111E806EA
E80B0807F7FFF9D50842108421084210
D2EA05FAF9FD06F72904060709FFFE07
2108421084310842EA03FF24F8FF04FA
02FFFAF0108421084210842108421084
F1FBFB0AFC0901EDF2FAF80905E6EF09
C6418C63ECF803DFFFF6150204DB0CF9
18C6318C6318C6318C6320C6318C6318
02F2FEEBF90EF510F6170D0A120CFD1C
15FE09F7FCFE0319E4090C04F9FAFD1D
84210842108429084210842108521084
E008F80804FCFEFFF5080E1721084210
FFF7FD1FF8F3FFF20601F50CECF30503
94A5318A5294A5294A6294A501010603
F9F10FF102021417294A5294A5294A52
58F00DFCFE02FC1927E7FDE80EEF16FA
6318C6318C7318C60C1E2119F8FC08FB
FBEFFDFD318C6318C6318C6318C639CC
E8FE07020BF0FBFF23F40AFAEC07F01D
CE839CE7E7FAFE06070BE83F4003FC1E
39CE739CE739CE739CE7420E739CE741
F40804E6E8F60EEEFBDE09FDEDF7D5EF
C6E8F905030102FAF5D9FEF1FF0D0AF4
0842108421084A508421084A10942108
FBEAF3FE01EFFE06FB03E6F842108421
FA01070A240805050101FC0CF1EDF508
A529529294A5295252A4A5290EFDFC21
07FDFA080B01F90C525294A5294A5294
F6FD06F601FD02061B0F040101F2071B
A5294A5A94B5294A0E0806F202050F04
0C03FBED5A94B5294A5294A5294A5AD4
F006FB0CFBFF04F0F7F4F30803FFFFF4
D6C5AD6BEA0507FDF8F90FD9F3EB07ED
62D6C5AD6B5AD6B5AD6B6356B5B16B62
0206FDF7F5F0F6FCFFF2E5FAEDF30106
0B06F2E4F90A261401EE05F5ED01F203
8C6318C6318C7398C6358C6B18D6318C
01F9FD03FFFDF4070206EC146B18D631
02FA13F8EAF502F5FDFA08FD160701FD
B5AD7BDAD6B9AD735AE6B5ADEDFFFEE9
F00112FCF8041708735AE6B5AD6B5AD6
D4E9EEFDFFFAFAFA000004EDF419F705
E73DCE7B9EF739CEF0EE090FF8F706F7
1AE9E4F57BDCF7B9CE739CE739CE001C
FAEEFDFC00000008FD00F3F800F50000
C007BDEF0000FE000009010CF0DD1F1C
001E003DEF7BDEF7BDEF0000F781EF03
FE01F9ECF2F901BDF9F4FFFEFAF5FE2F
F6FDFA05F7FDE816130CEC1104FFF205
00000000000000000000000000008000
24F4E3ED0603F8FE01E8FC0600000000
FEF80A0308F80B0D0A07F7012AF1F009
842108421084210842110421F7E6FCFF
F9FCF404FDF9FEF40842108422084210
F40D02F207F903E00CF5FB0606020710
2108421084218842E4071106FB01FFE9
04FCFCEE108421084310843108421084
E40205FEFE010DF216F20F040602F203
C632906301EDFFF601FB08EAE909F40C
18C6318C6418C6418C6318C6318C6318
1D090204EC09F3F5FA0109FBEE04EA14
0C050A04F0FCF0FDF60C06F2FC08FC2E
85210852108421084210842108431484
06F7F20B0201F5F50E0DF9FC210A4210
F9F50E08E2FFF6141401F220091C0317
98A5294A5294A5294A5398A5F92E0906
0101F4FE06110CEB294C5294C6294A62
17020A2FE6FA02E922F003F3F6EB0907
6318C6318C641CC6FA1321F301FCE803
F80A090C318E6318E7318C731CE6318C
ECFA02FB21F0F507F90BF40AF70C0602
CE84A0E70D0BFFE30F0310FA1F0302ED
39D073A10839CE83A10739CE739CE739
140715FC03DCFD05FCF8F5FF020FE4EE
FC04030A02010B08EEFCFC0CECFBFADE
29421094252842108421084210952508
F6F3F9FDFBE9FA17F9F6E8F442128425
F9020C0308FC03FCFEFBFB07F107FB04
A9494A52A4A5294A52B5A929F7DE0310
FBFEF2F5F2EFEF084A5494A94A4A52A4
F3F2FEF5FC01FE1317FE02F10EF6FD04
B5294A5294C62D4AFEE803FBF8FAFCF4
060402FA5296A52D6B5294B52D6A5296
FBF9F4FD1B02FAF5FE12E905FFFAFA07
D6D6B16BFDD2EAE9F7F90FF3F8ED03FC
5AD8B5B18C5AD6C5B18B5AD8C5AD6B5A
FB0209FF04F20D0F050AE405FFE5E1E9
E602F3F0F7FB07F20202F7F7F601FFE7
CD6358D635AC631AD6318C6318E7358C
16FA0505030EFEEE12F40313631AC635
FD02F6FDF202FEEFFCF802FAF10708FF
B9CD6B5CE6B5AD6B5AF7B9ADFCECFBE4
FC0EFC0000ED04086B5CD6B9EE6B9AE6
E3FBF70BFDF50614F4EFF7F906EF05F9
F739CE739C003DCEEE0209FAFBFF00F4
00000BEB739EE73C0F73DCF73DEE739E
F60000130D110000CCF61903F9180D00
DE0001EFFB0700F3020000000C000100
7BC0F78000781E07800F7BC007BDEF7B
0BFCE004EEFFEFFCF9FBFEFE043CFC1A
0AF9FC0104E7EF10F8FEDD07FDEFEB15
00000000000000000000000000000000
FCF2F110011509F20D060C0D00000000
0B0E0D04EFF408031104080809FCFDF3
842108421084210842108421FFF6F8F9
F2F3FAFF02F409F90842108421084210
03FB0901F6F604EDF6F307E7070520F6
210842108421084209FFF604FB010AF0
0AE2F5F9108621084210842108421084
ECFDF9E3FD0BFFE51EFF0FED010A0F0D
C6318C63FFD023F9FAF9F7F3F704F3F7
18C8318C6318C6318C6318C6318C6318
21F6DCFBDE0FEBDEF9F0E2F00311FF1E
04F40617F6EFF6E604082207F1FDFD23
84210842108421084210842108421084
10FB21FC010E03F3FCC7E0EC210A4210
F1FBEAEE0AF9F5ED0702FAEFFF1C07F8
94A5294A5294A6294A5294A5ECFFFCDF
09FCFD02090EEDF8294C6294A5294A52
EF0D170D0EFB04DFDBE60BEA12F0FC08
6318C7318C6318C6F00F2C0AFF10241B
FE27EE09318E7318C6318C6318C6318C
E40406FB27061318F1FBE7FEFA0A0CFE
CE739CE71810EAFB0F03F4F0E7FA190D
39D0839CE739CE739CE739CE739CE839
F8EE09E5FCE1FDFFEB14FE06E7F7D0F1
DA030F08FF0A0E0704FCF8F7E10101DC
084A1084210842108421094210842108
FAE5F103FAF1FCF9FF28F30942129421
04F2FDF701F30204FEF1F9FF0D17F7FE
A529525294A52A4A5294A52905E701F7
FAF8F9EBF80102F44A54A52529525294
FCE1FDF901FD030E0815FAFC19071901
A5294B5294A5A94AF8DCEFFEFF0103FF
FFE309F85296B5A94A5A94A5294A5A94
EC0B05FC0907FADD0EF707F1FCFBFD04
D6B62D6BFCE1E0F7F903EDF9FB04F7FD
5AD8C62D6B62D6B5AD6B62D6B5AD6C5A
F512FEFCFFF4F6F70601F1F5FAFAFAF0
ECFFE6EAF7FEF7070902E404FFFEFC02
AC6B18C6358C6B18C6318D6318C7318C
10F7FFF00409080C01DDF214631AD6B1
FDEE07FEEDFDF5FBFCFCF6E80603F8EF
B9AD735AD6B5AE6B5AD7B5ADF702FDF8
FAFAF3F100E3F505739CE735CD7B5AD6
00FCF1FEEFEC02E9F2F7E8FA0FF9FDE0
E739CF739CE039CE0300100BEA0508FE
0021F4FE781EF7B9EE039CE73DCE7B9C
0800FEFF00DD15F2ECFC0600FCFFF712
DEF03DEF0000000000FF00EF000B0CF4
0000003C0F03DEF781EF03DEF7BDE07B
0EEF0AFFE802111405160C0BF804F732
F209E304FF01EBFE041D01F90FFDF7FC
00000000000000000000000000000000
F6F0D7F5F622FE1042F5E3E800000000
FCFAEE0B1512F1DBF7F6EA13251EEFFF
84210842108421084210842124DCFAEE
1B210B212F0906E20842108421084210
F4021CE8F80BFC01E3120AEADC2B06ED
21084210842108422F0CF9A9FDE50FD4
E90BED04108421084210842108421084
07F7FCF4FEF8FEDEF6E5F905FBD7EC12
C6320C63E6FF0BEDFA02170E0ED9F0F8
18C6318C6318C6318C6318C6318C6318
06E5FBE5FE36FD1A0516EEF3010D0722
130903FBFCF70CFFFF1304F0F4EEEFFC
8421084210A429084210842108429084
DCFDFFFF08F1F802F910F50B210A4210
F7FB260E0EDE09EBF3F805F3E0FFFB14
94C5314A5294A5294A5314A504F72502
F9EE02FBF4FF2120294C5298A5294A52
0D23F70E0A0DFB11FE02FD0C1F130809
6318C6318C6398C626F9E9240BFEE605
110725F8318E631CC6318C6318E6398C
F90C05F2FEEE02FE1411F707F3CA04F4
CE741D07FA0EFB6BF4FC1119C5E5D905
39D073A0E739CE741D0741CE739CE739
04FE050DEC5E0EF904F2FA01EF0DF2F0
E41C0CD704F8FAF5F5EE09F2FE0DF805
08421084A1284A1084210A421084A128
FAD909EAF7EE090406F607F742128425
F903F9ED030C090412FBFC02060CF603
2949525294A94B4A529525490BFEFC21
03F8F6FF0F1CFAFC4A5494A9294A5295
09E8FFF1FAFD05FD1AEB0E07F216FFF1
A52D6C5294A5A96A040FF1E6FE0D1A01
F70C010C5296A52D4A5294A5AD6A5A94
F8F3EE0FEE0909FFF313FBFB08F6EF03
D6B62D8B110EEBCC03FE02F306EDF9FD
5AD8B5B16B5AD6B6318B6AD6B5B18D5A
03FAF90FF5FB0EFD06F505040BFBFDFE
DFF0EEF6E808231106DB0FF6FCFB09F9
8C6318C6B9AC7318C635AE6318C6B1AC
030F08F903FEED04070A040A631AC635
05F312FC01F60DE6F916F606EEE609F2
3DCD7B5AD6B9CF6B5AD735CD0BF8ECD6
04F5F50708031C216B5CD6B9AD6B5AD7
EFE70DFFEC00FDF9000AFEF4EFFEEC00
E73DE0739CE7B9EEE50F07D2FEF6FFED
00F300F2739EE73DCE739CE781EE039C
000000020009FC0E28000000F8EE15F8
DEF03C0F16010011FD00E9FCDD1CFD01
7BC0F781EF7BDEF0000F03DEF780007B
13F3F1F2FFF90CD1FCFE0412F6E6F520
FCF80621FBF8E60A0A1EFB0D0902F806
00000000040000000000000000000000
11F6E8F8FD0802FD1504ECF500000000
0805F808FBF101FFFD050508F805F207
882108421084210842108421FFDBE807
050B0E2018E109F70842108421084210
0B140AE4FDF5F7FCDBFCFE1010FF0DFC
2108421084210842DAF9EF0FE8F50E0C
01F4F1FE10842108421084210C421084
030A0102020705EDF6F7070AF8FEEC0D
C6319063EB07E2F70105F9F80603F0ED
18C6318C6318C631906318C6320C6318
1AFA050DFA0A0E100A04080BFE161107
1706F7EDF70BF71506031117F3F70805
84210842148421085290842908421484
11E1030D030BEA0B1205120921084210
F6F81BF4031808E0FEFCF70B190B010D
98A5294A6394A5314A5298A5E708E1EB
FFF0FA08FA1B07EE294A5294A5294A52
FB12031E0DFA040FFDF212F61F140613
7418C6398C631CC6060903F6F9FA13F9
03FB05FB318C6318C6318C631CC631CC
02FE010AEC15070FF621182E0EFAF3F3
CE73A0E7F30A132BFFF60DFDF8EED506
39CE739CE739CE73A0E73A0E849CE741
FA140F080CFF20F1F601F4E50DFD1612
06ECF802F20802FF071908E913FA0210
0842108425084250A521084A10842508
FAF5F20507E80AFC0210EB0742108421
F7F604FBF9F9010EF5FBF8FAFAF6F7F9
A9294A92B5A529525294A929FDF30518
09F6F60A19FA0A014A5294A5294A5294
0802F5EC09FDFDFA0502FE0A08F90D08
C6294A5A96A52D4AF3F3EDEFFA0119F6
0EFCF0095294A5294A5294A52D4A52D4
F8EF0110FCF4FCF413FF0BF8FF0701FB
D8B5B16BFBFCE1E203FEFC0B0AF0F7F7
5AD6B5AD6B5AD6B5B16B5B16D6AD6B62
08FEFDF6040D14030811F60E12DE05E6
DFECF6EEF3FA04F407010AECFAFFF6FB
AC6B18C6358C6358E7318C6B1AC6358C
F3E11802FF09FE070C06FF076358C631
01FDF8F5FA0A01FAFFF8F80601080302
B9CD6B9AF7B5AD735CD6B9ADFE11DDE3
FA080BFC0BF201126B9AD6B5CD735AD6
FEFCFDF3FFFDFBF70A0F040000FB09F8
0039CE7B9EE73DCEE903D4E3FBFBE4FC
010015F773DCE739EE7B9CE73DEE73DC
F90000FBF800EA0000EEFFF800E60006
C0F781EF060032F801EA000100E0F51A
781EF7BC0F03DEF7800F781E003DEF03
1503DAF9E1DAFCFCEFF9F7FCFB1BEE2C
F8011F1DF8DDF3FFF30F04020EF3EA10
00000000000000000000000000000000
FAF2F20CFB19070E2803E2F700000000
020301FF0EF6E30A0406F71BFEF9FBEB
84210842108421084210842104F9F9E9
FFF9061904E706050842110421084210
1BF5FFFEF109FB27D8FDF01407FDFEEB
210842108421084221E21DF2F8FD0DEF
05D6ABF7108421884210842108421084
F7F5FDDCF3DF07E517EE1FECFB09FD19
C6318C63EEF7DCE9F90706FC07FB06F2
18C6320C6318C6318C6318C6318C6318
1EFBD917F01711E603F9F8FDF8FEF10B
12E521FBFDECE80205F41515F1FBFF13
84214842108421084210842108421084
0FEE08F70607101E1DE6FFEC21084290
0A17FB0F050CEFEE070D0B03DFF10CDF
14A5294A5294A5298A5294A50CF8D0EC
F8FE05EC0D28E805294A5314A5298A53
FB1104FF0D0605E90DF402DDF412F61A
6318C731CC6318C6E3FE1415F1151E02
1A0C22FA318C6398C631CC6398C6318C
0D04FD05E3F227FD111613FC0BFD050E
0E739CE72DF3E4F0040A230B22F2E4F8
39CE741CE73A0E741CE739CE739CE83A
DAF4DF0524221F050DEC0B2E02E51FE2
1BE6E2EBF4F315FE07E7F9F6FC0A0342
08425084A10842108421094250842108
EFF2F0FCFE08FAFBF307FE09421084A1
F6EE04060602F40505F8F6F70E08FEFE
2529525294A52A4A9294A52902F11909
0503F5190BE6FF164A5295252A4A9295
08020DF8F0F6020F0B060DF81B0327F5
A5294B52D4A5294ADFFBEDF50907FBFC
10EEF30A5294A5A94C52D4A5A96A5A94
FC04FBF81801F1EDF711F4E7FA030AFD
56B62D6BFD0ADDF9F006F90C0903E902
5AD6B62D6D5B16B6AD8B62D6B5AD6C5B
FA0803FAF6EF1DF0FD04051008ECE40C
CD14FC05FFFEF6FA020616FE07F3FDF5
8E6358C731AC6B18C6318D6398C6B18C
10F80BF90BE8FAFFF9E4FD106318C6B1
FBF8F5EB01F3F5041504FDEE0E06F3FB
B5CD739AD6B5AE6BDAD735AD09EFDCEC
F000FFFB18DBF90C6B5AD735AF6B9AD7
0BFBF0FE00FAF4E6E4E9E9F104FE0110
E739CF781CE7B9CEEF06DAF2FFF6F000
000C09E0739CE7B9C073DCE039EE7BDC
0006000300001DE100E0EA000000FB18
1EF03DEF1305FF0200F20200F900F2D6
7BDEF03DE0781EF03C0F001EF03DE000
0000000000000000000000000000D409
00000000000000000000000000000000
00000000000000000000000000000000
00000000000000000000DB0F00000000
00000000000000000000000000000000
00000000000000000000002100000000
00000000000017B90000000000000000
00000000000000000000000000000000
00000000000000420000000000000000
0000D407000000000000000000000000
00000000000000000000000000000000
00000063000000000000000000000000
00000000000000000000000000000000
0000000000000000000000000000E118
00000000000000000000000000000000
00000000000000000000000000000084
0000000000000000000035FB00000000
00000000000000000000000000000000
0000000000000000000000A500000000
000000000000E0110000000000000000
00000000000000000000000000000000
00000000000000C60000000000000000
0000E2F8000000000000000000000000
00000000000000000000000000000000
000000E7000000000000000000000000
00000000000000000000000000000000
00000000000000000000000000001AC6
00000000000000000000000000000000
00000000000000000000000000000108
00000000000000000000F12800000000
00000000000000000000000000000000
00000000000000000000012900000000
000000000000C3180000000000000000
00000000000000000000000000000000
000000000000014A0000000000000000
00001FD9000000000000000000000000
00000000000000000000000000000000
0000016B000000000000000000000000
00000000000000000000000000000000
0000000000000000000000000000BF02
00000000000000000000000000000000
0000000000000000000000000000018C
00000000000000000000021000000000
00000000000000000000000000000000
0000000000000000000001AD00000000
000000000000E62E0000000000000000
00000000000000000000000000000000
00000000000001CE0000000000000000
0000D11A000000000000000000000000
00000000000000000000000000000000
000001EF000000000000000000000000
00000000000000000000000000000000
0000000000000000000000000000EF2F
00000000000000000000000000000000
00000000000000000000000000000210
00000000000000000000E3DA00000000
00000000000000000000000000000000
00000000000000000000023200000000
0000000000000D170000000000000000
00000000000000000000000000000000
00000000000002530000000000000000
0000DFD2000000000000000000000000
00000000000000000000000000000000
00000274000000000000000000000000
00000000000000000000000000000000
00000000000000000000000000001AF6
00000000000000000000000000000000
00000000000000000000000000000295
0000000000000000000037EE00000000
00000000000000000000000000000000
0000000000000000000002B600000000
0000000000003BE90000000000000000
00000000000000000000000000000000
00000000000002D70000000000000000
000029DA000000000000000000000000
00000000000000000000000000000000
000002F8000000000000000000000000
00000000000000000000000000000000
00000000000000000000000000004720
00000000000000000000000000000000
00000000000000000000000000000319
00000000000000000000D62100000000
00000000000000000000000000000000
00000000000000000000033A00000000
000000000000CBFE0000000000000000
00000000000000000000000000000000
000000000000035B0000000000000000
000013D2000000000000000000000000
00000000000000000000000000000000
0000037C000000000000000000000000
00000000000000000000000000000000
00000000000000000000000000004AE6
00000000000000000000000000000000
0000000000000000000000000000039D
00000000000000000000270F00000000
00000000000000000000000000000000
0000000000000000000003BE00000000
000000000000E5510000000000000000
00000000000000000000000000000000
00000000000003DF0000000000000000
0000FB00000000000000000000000000
00000000000000000000000000000000
000003E0000000000000000000000000
00000000000000000000000000000000
0000000000000000000000000101FFFF
00000000000000000000000000000000
00000000000000000000000000000000
00000000000000000202010200000000
00000000000000000000000000000000
00000000000000000000842100000000
00000000FFFF01010000000000000000
00000000000000000000000000000000
00000000000108420000000000000000
0101FFFF000000000000000000000000
00000000000000000000000000000000
00018C63000000000000000000000000
00000000000000000000000000000000
000000000000000000000000FC01F904
00000000000000000000000000000000
000000000000000000000000000290C5
0000000000000000FA0105FE00000000
00000000000000000000000000000000
0000000000000000000314E700000000
00000000FB01FFFE0000000000000000
00000000000000000000000000000000
00000000000399080000000000000000
05F3FEFF000000000000000000000000
00000000000000000000000000000000
00041D29000000000000000000000000
00000000000000000000000000000000
0000000000000000000000000202FF01
00000000000000000000000000000000
0000000000000000000000000005214B
0000000000000000FE0101FF00000000
00000000000000000000000000000000
00000000000000000005A56C00000000
0000000001020AFF0000000000000000
00000000000000000000000000000000
00000000000629AD0000000000000000
0FFF01FF000000000000000000000000
00000000000000000000000000000000
0006ADF0000000000000000000000000
00000000000000000000000000000000
0000000000000000000000000101FF19
00000000000000000000000000000000
0000000000000000000000000007B211
0000000000000000010119FA00000000
00000000000000000000000000000000
00000000000000000008363200000000
00000000F901F0FA0000000000000000
00000000000000000000000000000000
000000000008C2530000000000000000
FA09FEFF000000000000000000000000
00000000000000000000000000000000
00094676000000000000000000000000
00000000000000000000000000000000
00000000000000000000000003110101
00000000000000000000000000000000
0000000000000000000000000009CA97
0000000000000000FFFFFFFF00000000
00000000000000000000000000000000
0000000000000000000A4EB800000000
0000000001FFFDFB0000000000000000
00000000000000000000000000000000
00000000000AD2DA0000000000000000
010101EC000000000000000000000000
00000000000000000000000000000000
000B5AFB000000000000000000000000
00000000000000000000000000000000
000000000000000000000000FFFFFF01
00000000000000000000000000000000
000000000000000000000000000BDF1C
00000000000000000101010100000000
00000000000000000000000000000000
0000000000000000000C633D00000000
000000000303F4010000000000000000
00000000000000000000000000000000
00000000000CE75E0000000000000000
EFEE0C04000000000000000000000000
00000000000000000000000000000000
000D6B7F000000000000000000000000
00000000000000000000000000000000
00000000000000000000000014F90100
00000000000000000000000000000000
000000000000000000000000000DEF80
0000000000000000FFFF010000000000
00000000000000000000000000000000
0000000000000000000EF7A000000000
00000000FF06FD000000000000000000
00000000000000000000000000000000
00000000000F7FE00000000000000000
02000000000000000000000000000000
00000000000000000000000000000000
000F8000000000000000000000000000
00000000000000000000000000000000
