05370514035802AC0821025A040AF83F05B603E8112B0E85045A0514FFD90F51FFAE00B9FF98000A0408041C000005630A690000F09127E5035CFF940445FFB0
03F9062D0538039CE7582E99EE5B047103B8FFE705DCFFB7032CFFC80597056B0397000003FCFF1F040203D40000036C027710AF03BE056CFFC8057305940278
0794050B01590000011A0B0209810769050E0B4E058003EF000007E6FC340F6DFE49FB6F08300172F1DDFCE3117F0A8A00A40113F6320BBF070616AB08E1F162
11390EFF06B4F85A085108EE1114047D031CF172FF8F067A0B08F8E9FE2000E900F402A20A530BB204E91DF7047F0F650D95087207B1046B00EEFEC3FDB3084F
00000000089400000000093F08110AED09660845000000000000000008620D92000000000D1A0A34076809820A260C990000093D000000000000000000000BD9
0000075906670000000000000000F6890B3806BD065F0000000007650844000000000D9B077A09760608000000000C2D0DA6000007610000085A000000000000
0B0208AA0000000016FB18060D4400000B5E136011ED0000000000000A5400000BDB000012AE00000000F771085012BB0F210000F7E8000016A400000000EB46
000016C1086CE091ED5F000000000000265BF5AA0000000000000000F466000000000FCD146B00000000000014E92874106000000D4F0000103B000000000000
00000000000000000745FB9B02CC069B00000461000000000000023AF8C60436FCAB00000000FA3C0000000000000000025FF7DC0000021C0506000000000000
0251000000000000FC2702990000FD39FCA6FC67044206C6000005810625020A0000F8F002B400000000FDCEFCF603CA0000035AFD4C00000000000000000000
000000000000E90800000CC00DD6032200000818000006F50D7607C0090A0000000005C5000000000000000000000A180DD80000000007FCF57AFC89033D05E3
0000086F0000000000000E7504B800000000FDD40000000000000C3B0000FD3A000000000000034500000A0E0000055209190308070000000000050D02CF03EC
FC5AFDEE05D9FF99FDFC03C701D6004E01EF0186015F0071FD3D00240097004D0965FEC9F9200068FF82FFAE01A40110014500D30430017302550116003EFF34
FF38FFE0FF6A030AFE0800E900A50070041D00E90063FF7F037D02A50098FEDD00E0FFE900E9FFF0FFFBFF1E0029FFC1FCCA031E00D00010009FFEF8FD23FEE7
FFFC00A10106013C00530026FF7EFC990000FCF3FFEFFF6C020EFC60FD7E007BFF89FE35042F014EFE4907AFFA730318FEEAFEF9FE65008A0108021F005DFD8D
023803B2026B010608AD0114020E006BFE4AFE32FF53FFDEFEF304230175026100890400036AFA4B0202007A00BF0014FF690120008D0070FE87FF1CFE09FFBE
019B000000000000031702D2000001ACFDC1FD1F000000000000000002110000000000000000000000000141000000000000059D000004A30205000000000000
000000000000013C00000000029C0373025303DF0357000001EAFDDA02FD0233000000000174FD610000000002CF0804000003280000FCC0029A01740000041B
01E607E9FCB301F70000000001A30000000001500000017301A80000028E00000000028D00000000000002DE01CF0000000000000175000000000000FEA3FB0F
019900000000017E000001CA0000000000000000FCEB017B000004D50313024802B60000FAA1013C0255019E02EB00000579016B029F000004C3000000000747
F8620000060600000000000005340436058406E3000000000000FB970786FC370454000000000593FB6000001234083E0000000000000000000014110000F902
00000000000000000000000004E1FB6B000009590587068A00000305000000000000065B000003750438F0CA047C03B1000000000BA51395000000000434F935
F8540A3605600000000003AC0000FA3F0000F21C00000000FC33079E00000000032EFAC800000000FC090551FA82FC2F0532FC1CF3A705BD00000000FCF80000
FC3C000000000000062A00000A4E0566FC3EFC720000000000000000000003D103EB0000000009EE0000FBBC06E7036800000A13000000000000000000000000
0000000003C80000FD73000000000000000003CD00000000026A000003420000FD34FA11000001A300000298FAF10000000003DA00000000021EFD0B0000017D
FAC60000000002E90000FA8300000000000000000000FE57FD00000002FA0183FE9801F302990000FDE002DC00000000FD1100000000FEAE000000000000FD41
0000000003210000015DF89FFB810238FD9C0000013202BFFD8EFBCE01DB01D2000000000000FE77F845021B000000000000F4F40000095C014000000000FB96
FD17000002190000015E061400000000000000000000000000000000FEA5013501C500000000FED80000FCDFF5350000021303100000FA1903C00B380000FEE1
073F000000000381FB450000FAA7FBE800000000FC3F05B9FCF9000000000000F598000000000000051B0000FB470000000002C0FD37034FFBBB00000000FC3B
FBE8FB67F7D600000000000000000BC4FBF400000000039D00000000FC970A7C00000F1800000000FCCB04D4000000000266F8C6FC30FD9302F5F4E8FB970000
0309000002C70000040405C600000000EA3B0000000000000000FD2303F10000000002ACF7AF000012B40000FA830000067B00000FBCF8A60000000000000000
FA890000FCE10656F673FB7F0000000000000000FC19037000000000029D04E70000FD72FCBDEF4402F7038B0000000003670000000000000000000010180000
FEF2FE25FFC6FFCCFF76FFA60172F9E901B20000032EFF0CFCCBFF73FED8FF870095FEE5000FFE570092FFE5FDB200C5003601C1003CFE4D01F9017FFFEAFF47
FEE5FE25003FFFD8FE5F004A00660085FF00FFFE0143FFC7FE500075FF2E013A023A025F0038007EFFF00087FF2CFEE3010500BEFE00FE120006FF15FF17011D
FF56FF410010FDDFFF11FEF301890032005FFFBDFF39FF96FFF4FFD6FE3000ADFEE7FE68001F00EEFFE800E7010C00D3FF75FFD50007FFDFFF73FE8B0000FFBE
00DEFE740095FDE0014301090036FE60FFA7FF2B03D7031C0137FF7B0071FFE9FE99017EFCA2012EFE7B0175FF4801630374001B0163FF3AFE9BFFF8FEDB0060
001FFFC3FEDAFF17FF31FF570043FFAFFFF4004B04650179004CFF560138FEFE000001AEFEA3002500D8FE4B0006FF9D007F021DFF82FF9E00660000FFEE0061
FF3800F9FF23FDF3FD580035011EFF0C013000C2FED1FFB200C1FFDDFDB902D3002EFF32FEB60000FF9C0041FCE40161FEB300C2FF28FF3D038702C6FEBE0198
005CFFB101A20067FF150141FE4F0138FE86FEB0FF8F007C004A0262FF5100A90056FF68000002030129018FFEFCFE99FF37007B04E800A8FF3BFE78FFFB005B
01B600B9FF49FFACFF0C0116FCDFFF73FE1EFD7A006AFEC50050FFE6FFBA00E0FFFEFF7FFF110001FE14002AFECEFEC50159FF59FF28FE9DFCEC00F0FFC60065
000000000000021E00000000022000000000029D00000394000003A80000FDBC02F102F5FB98061C000003DC02AB000002CD0000FE1F00000000000001F70000
02F100000000FCF8000001FFFCA70000040F000002D10000FCE103A4000000000000000000000379000002A600000257020702D3000001EF0000FD46000001D9
01C5F72B051D000004C10228FD510000046C02CC000002F10000055C01FF000000000000021E000000000331029200000000062F025200000000034500000000
0000000000000000000004100253000000000000FDA602B50000048A02DD000000000000000000000336000000000000000000000000024DFD9D000000000000
00000000041E00000000000002A60000000000000000000002A1042C00000000026D03DB00000000000005190219000000000000FC8A027E000000000000FC7D
FD930000000002AB02140000FDDA021C0000000000000000000000000000000000000000035101FA01EE056A033CFC5802F2000000000275000003B100000000
0000036E0000000000000000000002C00000000000000000000000000000FBE100000340000002C20000000001EF0000030C0000000000000000000000000000
00000000000001FB01DD00000000043F00000000000000000000044C02C80000FC8A0000000000000220045202A7030A03360256038E0000FB0C000000000000
000000000000041300000000000000000000000000000000FAE60000FA6DFB7C0000FC6B00000000050F000000000000000000000000FB8505DF00000000FC14
FA4300000421000000000504048D00000000000004F904E8FBF500000000000004EF056E0723000006CA0000F9230000000000000000037900000000FBC10000
FC00000000000000000003F5057B000005DD00000000F91E00000000F82A00000000000000000A86FBBC0000052A03D205A5057705E000000000000000000395
000000000455FA6A000000000000F8640000FC1E0B45058B000000000856000000000000049B0000000004290000000000000000000003890000000000000000
0000000000000000FB790000000003BB00000000043303BA000000000000038B000005A7000000000AED00000000000000000000000000000000000000000000
04310917000007AEFC1D07A600000000000000000000000005310000F9DE00000000081B000000000000FC3F0FF703EA00000000000000000000000000000576
0402045A0000000000000000000003B00000000006A5000000000000F9E8000006EC00000000000000000000000000000425092900000000000005CA0486F82D
03FC0000FC18FB5000000000FBF400000000000000000000000003C0038405B800000000000006940000000000000000054805A60477000000000000FC1804A0
000000000000000000000000FAD4FC3A0000000002D900000000000001B5000002940000000001C4031400000000FCF100000308000001BF0000000001CE0000
00000000000000000000000000000000FAD2000000000000000000000000000002700000000000000000F92B00000000000000000000FE15FB34FBA800000000
0000000002740000000000000000FD0900000000FC68FE370000FCF900000000FCDCFCDB022A00000000FD0D000002F6027C0000000000000000000000000000
000001F6000000000000000002100000000000000000000000000000000000000000FC5FFD78000000000231000001C40327000002C702CCFB7400000000022D
0000036EFDFE00000000FB710259000002AA03B5000001FC000002F60000028E0000FCCD000000000000FBEF0000000000000000FBE30000000000000000FDCA
F9FDFCA6000003AD01C8FC9A00000000FD6C00000338FC380000FE3B0000FC0E021E00000000FE3A0000000000000000000000000000FC55FB220000FCF6FD08
000000000000000000000000000000000000000000000000000000000000FD4A0211000000000000FE4002AF000000000000000002660000FD4E030DFE3C0000
FBAF0000000003BF0000FE02FE29000000000346022DFB6F000000000000000000000000FCDD0000000000000000000002CFFB91FD4A0291FCC5000008F90000
FD58FDC20000023EFCDE00000000000000000CBE000000000000000000000000000000000000054F0000034D0000000000000000000000000000000000000000
00000753000000000517FDAD00000000FDD800000000000000000000079900000000FC5F000000000000FD91FCFB00000000000000000000000000000BA60000
FD180000000007190000FD17000000000000000000000BC500000000000000000000FD67000000000000000000000237026E00000000FDA1000000000D250000
000002780000000000000000FBC0000004F1FD39FD070000FBF4000000000000FCF30000000000000000000000000000FD650000FBCD00000000FD4400000000
0000025306450000000000000000FD11FD2700000000FD510000FD3D000000000FBA000006EB0000FDBC000000000BDDFD66FC6500000000000013AE00000000
0381023D08B508910000FAFC000000000000084805A0FD8A00000000FC8C0000000003F500000B6E04F702820D35000000000000000003E2FCAD000000000000
0000000000000000000000000000FD22000000000000000000000000000000000000000000000000000000000000059CFC8A0000FC540000000002DF00000000
0000000000000000000000000000047000000000028C0000000000000000000000000000FDCD000005CD03D3000000000000EBA80000000002D800000C7F0000
FF4DFFCEFD5DFE66FDAD00A6FE02FF59FED6FEB8FDDAFF20FEB5FCA3FF10FE47FED0FCEDFF6DFD430028FEE70161FE49FE64004DFE34FE35FE57FFDE0078FFCA
FE1AFCA5FEE8FEAEFE3400B8FE5AFE750024FDACFD84FF7AFDD3FF15FE72FDC3FE98FF36FE6DFE46FECDFE6BFFA6FE4500EEFE85FDE3FF0BFD9AFE25007FFE7F
FDD000A10006FD8FFDCA00C5FE06FDD1FEDEFE94FE6AFCEAFE6CFFF1FE95FE98FEC9FD8EFF17FDFDFDF8FEBEFDDDFF7BFDEEFD82FF94FE4AFFA8FFA6FFA002C5
FE65FD0CFE52FF33FD9EFF51FE52FEDEFE6E001EFE39FD44FED1FDFEFE4CFEA8FDE5FDEF010CFDC6FE68FF3EFF5C0019FEC8FE0FFE57FDBBFCC6FDC7FE87FF7F
FD7EFF58FD74FFEFFF41FE40FDE6020000AC002FFE64FECBFEC7009CFE1AFD8EFE3C0026FEC2FDE0FDFFFDE6FDAFFEF3FEAFFE02FE04FEB0FEF4FE5AFF85FEDE
FFDAFE06FF2001B7FDC8FE7F010FFF40FF8CFED3FF2DFF52FED0FF92FEE2FDEAFF0DFE11FDFEFEACFEE5FE85FEB300FBFFF3FDAEFE77008DFDCDFF5DFF29FD0C
FDEBFEAFFDEEFEB5FDD7FDBE0077FF07FE6BFF0CFF66FE5CFF86FE780151FD03FF0AFDB100A30059FE3FFDAFFF63FE46FF39FEA3FFA000B0FFB5FDD5FE37FFD2
005900BEFE05FFC9FEB4FE55FE05FEA20123FFD2FF3BFE87FE7BFE11FF3AFFBFFF4EFF14FF36FF52FEEFFE3BFCBDFEAD003CFE5FFE25FE57FCE9FE8BFE3AFF79
FD27FE75FF5900230029FE2FFFCAFE0FFE66007DFF38FEA5FFD50224FE54FEE5FF0CFEC5FF1EFDF4FED7FD6CFE5E0018FE2CFDE4FEF2FFC5FD64FFBAFEE9FEF3
FDB3FE62FDF70084FE9CFE62FDFFFD6EFF1EFECCFFFFFE5BFDFEFF15FFA8FE3EFFF8FEDAFEA5FD91FFC1FF15FD630430FEA4FD52FF3601BAFF0EFE40FEDEFF59
FE73008EFE92004BFED9FF52FFC3FDD000A4002DFF3CFE720065FF6FFDE3FED40232FE0FFEBFFF43FE91FDC4FE7DFE4CFDA5FF8DFE18FE3BFE72FE2DFE38FD6E
FDCBFEC801B1FD21FD90FF81FC67FF53FD08FDD400DBFF4AFE45FF0EFE19FEAAFFE7FE59FE3BFEC8FF57002EFD76FEEEFD70FFE0FE2FFE1AFF11FE10FDBDFF1A
FF0DFF0AFD6FFE33FD86FF23FE33FE92FD77FDCFFFE9FFA9FE42FF35FF5CFEFDFE9DFFD7FEF0FF11FF73FFC5FE4B0034FED7FF12FD3EFD1EFDA80042FF70FE25
FF88FD5DFEB1FD30FD30FF28FEEEFDF0FFC9FE2BFE80FD88FE7CFEA1FFC0002301B1FE410187FFABFD3BFDD1FD71FECAFD74FF89FDD1FE2EFF0BFE5CFD96FE94
FF970052FF13FF7EFF06FFA9FDC2008EFE7CFDCEFEB400C4FF12FD3CFFFDFDFCFE37FF70FF9AFE3BFDC8FE4AFD8BFEBAFF97FE72FF96FF4DFE6F003FFF64FF5E
FDD0FE8EFD88FEA7FE3000B0FE8AFEAAFF2C000AFF72FE8EF9B5FEA3FFA2FE54FF2CFED2FD58FE2DFEF1FD37FE4DFF1FFDC4FF92FF9FFEA8FBC6FE32FE56FF40
00000000000001F8FD7D00000000000001D20000000002C900000000000000000000FC6700000000FE610000000002BA00000000FDA500000000000002E9FE10
00000000FDCC000000000000FE3C000000000000000000000000FE4B00000000000000000000000002E30000FDD0000000000000000000000000FD3D00000000
FDF6000002870192028C000005B400000000FE28FC8501C30000FE1A000000000000000000000000000001FE0000000000000000000000000000000000000000
00000000FCB5000002760000FE3B0000000000000000019F000000000000000000000264036F0000FE470000FC4DFCE4000002AD000001AD0000FE4800000000
0000000000000000FE430000000000000000000000000000FE3800000000000000000000000002230000FD9B0000FE270000FDA0000000000000000000000000
00000000FD7A000000000000000000000000FD050000000000000000000000000225000000000000000000000000000000000000FDEBFE3700000000000002F1
0000000000000000FC9D000000000000FD67000000000000000000000000FE4D0000FE5AFE430000000000000000000000000000000000000000000000000000
0000000002D900000000030700000000000000000000000000000000000000000000000000000000000000000000FE1201F30000FE5500000000000000000000
000000000000FE1B023E000000000000000000000000000000000000FE30000000000000000001C2FA9E0000025F0000000000000000FCD1000001E502210000
01B8FD4F00000000000001930000021701C9FDE600000000000000000000FCAE00000208000000000000FE1700000000025801D2FC2B01ED000000000000FDF0
02D600000000FE530000000003E700000000000000000000000000000000FBCB000000000000FDF90000000000000000FDD10000000001F10000FD170000FDC5
000000000000FE5C00000000000000000000000000000000FD170000000000000000040A000001C70000FE3F000001DA0000000000000000000000000000FDE3
0000FCDF000000000000FE300000000000000000FE19000000000000000000000000000000000000FD9F0000FE3B02FE000000000000FC010000000000000000
000000000000FE2400000000000000000000FE2A000000000000000000000000029001BA00000000000000000000FD84000000000000000001BF000002980000
000000000000000000000000FE620000FDC700000000000000000000000000000000FD410000000000000000000000000000000000000000FD1A000000000000
000002280000000001E3FC050000FE3A00000000FE33000000000000FE3801B7020A00000000000000000000000000000000000000000000020AFE2302000000
000000000000000000000564000000000000000003E60000000000000405000000000000044D00000000046000000000000000000410FB7F00000000063C0715
0000EEA700000000000000000000000004E40414000000000000000000000462047C00000000000000000000000000000000FB44000000000000000000000000
0000000000000000F78A09ED000000000000046C043700000000000003DB044E00000000000000000000000000000000000000000000000000000000044A0000
00000000000000000000000005400000000000000000000004D5000000000000000000000BC700000000000000000000000003CF000000000000000000000000
000005A3043F056E04AE0000056100000000000000000000000000000000000003DD051205ACFB0F00000000073D046500000000000000000000000000000000
0000000000000000FB650468000004A00000042C04E700000000000000000000040900000415043E0000000000000000000000000000000000000000058C0000
00000000049D0000000000000000000000000000000000000000FB55000000000000000007890000082F00000826047A000000000000086A0645000000000000
0541043300000000000000000000000000000419000000000000000004540000060A000005A1000004D400000000000004A00000000000000000000000000000
0000000000000E1108FD000007080000045E00000000000000000000000003F10000000000000000000000000000000000000000000000000000000000000000
00000000000005D60431000000000000000000000698000005A6000005B70000053F00000000000003F30000000011F90000F7DD000000000BF8000000000000
000000000000000005410000000006B4053B00000000000000000000FB4700000000000000000000000005CB04A900000000000000000000FAC2000000000000
0000000000000000000004150000000000000000000000000000000000000000000004420000055F064600000000000000000000000003C60000000000000000
000000000000000000000000045204BD00000000047C00000000000005C30000060C000000000611061C055400000A820000000000000000000005DE03DE0000
00000000000000000000040304BA0000000000000000065A09EB045C0000080D00000464044100000000000000000000FBC5000005B400000540000000000000
050900000000000003E700000000072300000000000000000000000000000000000005F700000000000004520000000004750000000000000555000000000000
000004050000000000000000000000000000045900000000DD97000000000000000004F5050B00000539053C000000000000046700000000F92D000004020000
00000000017C00000000000000000000011E0145000000000000014D0000000000000000014C0000000000000000000000000000010600000000000000000000
016A00000193000000000107011A011A00000000000000000206013D016400000000012A00000000013800000000000000000104000001130135000000000000
00000000000000000129000000000000016B0000014E0000000001550122014A0000012B0000000000000116000000000000011C000001930000000001590000
000001500000000001CC012F0132012F0191000001490000000001380000000000000000013B00000000000000000000011E000001BB0000016A014900000000
0000000000000000000000000121000001790000000000000000000001AD000000000000000001BA00000000000000000000013A016D000001080000014D0000
000000000150017000000000012B000000000000000001310000015C00000000000000000000000000000000000001BA00000000000000000000000000000000
0000019E010E011B0000000000000000011C0000000000000000000000000000015C000001220000018D0000011400000000014C000000000126000000000000
0000013C000000000000000001210000000000000000012E00000125000000000000000001930000010F01690145000000000000000001220000000000000117
00000000000000000000014A000000000111000000000110000000000000011B0000000000000000000000000000018A00000000000000000000000000000110
0000000000000000000000000000000000000133000000000167000000000000011A0000000001280000010A0000000000000000000000000149000000000000
0000000000000000011F000000000000000000000000013D026000000000013C0000000001220192011300000000000000000000000000000000000000000000
00000000010100000000000000000000000000000000000000000000013100000105000000000000000000000146000000000000000000000000012400000000
013D00000000010B0000000000000000014900000000012D000000000119010C0000010A012800000132015700000000016C012D000000000103000000000000
000001210000000000000000017E00000000000000000000000000000000000000000170000000000000012E00000132000000000000015901B6000001460000
015E0000000001BB000001070000000000000000010A012E01440000015800000119000001110000000001250000000000000157013200000000011800000000
00000000000000000154015100000000000001150000000000000146000000000000000000000127000000000000012F00000000000001210000000001160117
0000000000000000019D0000012F0000000000000179000000000000014B000000000000000000000000014A000001C100000000000001460000000000000000
000002B0012E016C000001D00000000001D400000000000000000186013A00000000000000000000000001880000000000000144000000000000000000000000
000000000000013D00000000000000000000000000000000014B000000000000016E013200000000000000000000000000000000015400000195013800000000
000000000147000000000000000000000000018F0000000000000000000000000000016C00000000016C0000000000000000014A000001A00000000001D50000
000000000000000001750000000001B500000000000001370000000000000000000000000287000001720000014B0000014201D4000000000175000000000000
0151000000000000000000000000000000000000000000000000000000000000000000000000000001CF00000000000000000000000000000000000000000000
000000000161000000000000000000000180000000000000000000000000000001A40000000000000000000000000000000000000000013F0000000000000000
014B00000000000000000000000000000196000000000000000000000000000000000160000000000000015C00000000000001E7000001470000000000000139
0000000000000000016B00000000000000000000000001D20000000000000000000001DC00000000000001880000000001C10000000000000000000000000000
0000000002EE0000000000000145000001BC0000000001B8021B00000000000000000000000000000000017900000000000000000000000000000000000001B4
000000000000000002190000000000000000000000000151016E01A200000000017000000000014E000000000000015B00000000000000000000015D01610000
000000000170000000000000000000000000000000000000013001F30000000001550000000000000000000000000000013900000000000000000000013A016D
000001620000021B00000000000001390000014A01E501B60000024800000000015B0000000001A7000000000188000000000000000000000000000000000000
00000167013A0194000001650000015C00000000016400000000019D0000000000000195017E00000000000000000000000001BD000000000000000000000000
00000000013700000000000000000000000000000000000000000000000000000000000000000000000000000000018E00000207000000000000000000000000
0000000002D60000014700000000000002680000000001B90000000000000000000000000000000000000000000000000138000001590142013B012E000001CD
0001FFFEFFF70001000300040007FFFC0004FFF400030001FFF80005FFFDFFFF00000002FFFCFFF800010000FFF5FFFDFFFDFFF900030003FFF5FFFAFFFDFFFA
FFF40001FFF8000F00060002000100070004FFFF0000000DFFF3FFFF00000001FFFB000AFFFE0005FFF0FFFDFFFFFFFFFFFAFFFEFFFDFFF70000FFFDFFF90003
FFFFFFF8FFF80003FFFDFFFD0000FFF8FFF80006FFFCFFFBFFF7FFFF0001FFF8FFFF00040009FFF70003FFFEFFFB00040001FFFDFFFD00050000000200090002
0002FFF8FFFC000FFFF9FFF80000FFFF0002FFFFFFF9FFF6FFFA0005FFF600020005FFF600010008FFFEFFF9FFF40006FFF30000FFFEFFF4FFFCFFF5FFF2FFFB
0004FFFDFFF800020002FFFEFFFE00040006FFFAFFFBFFF6FFFCFFFEFFF7FFF20007000200010002FFFD0001FFFFFFFE000000000003FFF80001FFF5FFFEFFF5
FFFDFFFD000500060000FFFA00050003FFF50006FFFA0006000500060004FFFDFFFF00000001FFFEFFF80001FFF90003FFFA0000FFFE0002000300080001FFFF
0001FFFCFFF900010003FFFF0002FFF800090004FFFB000A0001FFFAFFFD00080005FFF900050004000600070000000A0002FFFEFFFE0005FFFE000100030007
FFFAFFF6FFF70002FFFDFFFF00050001FFFBFFFE00040006FFF8FFFBFFFE000900080006FFFC000AFFFE000400000010FFFDFFFE0005FFFD000D0003FFFEFFFE
0005FFF60001FFF7FFFD000000050002000600020004FFFC000200050009000000030003FFFDFFFFFFFF00050002FFFFFFFFFFFEFFFEFFFF0001FFFA00060006
FFF6FFFA0000FFF8FFF700020007000DFFFF0000FFF8FFFC00060000FFFDFFFE0001FFFEFFFB0007FFFF00030001FFFAFFFEFFFEFFFD0000FFFF0004FFFF0004
FFFDFFF9FFFBFFFBFFFC0002FFFCFFF7FFFBFFFBFFFBFFFEFFFDFFF9FFF70002FFF80002FFF5FFFE00000003FFFD00030001FFFD0000FFFB0002FFFEFFFBFFFE
0000FFFA0001FFFFFFFF0001FFFEFFF4FFF9FFFD0000FFFDFFF8FFFBFFFC0000FFFF0004FFFAFFF8FFFE0003FFFF0001FFFD0004FFFDFFFCFFF7FFF6FFFDFFFC
0004FFFF000200080005FFFC0006FFFA000A0000FFFCFFFDFFFE00060004FFFAFFF9FFFDFFFAFFFBFFFCFFF3FFF8FFF900030006FFF5FFFBFFF70000FFF8FFFE
FFFF000900090001FFFB000200000003FFFB0003FFF20007000200040000FFFCFFFE0001FFFBFFFDFFFFFFFF000300040003FFF40000FFF400120001FFFE0004
00090003FFF9FFF2FFF4FFFCFFFCFFFAFFFD0004FFF80003FFF7FFF8FFFF000500080000FFFF00070006000200070002FFFC0008000DFFF60000FFF40002FFFA
0008FFFE00020001FFFE000500010003FFFFFFFD00050000FFFA00050003FFFE0006FFFD000A0000FFEFFFFC000A00070011FFFBFFFB0008FFFF000600080006
000000060002FFFD000A0009FFF6FFFFFFFEFFFE0001FFFCFFFB000D0009FFFE00040005FFF5FFF7000F00040008FFF9000900020003FFFB0002FFF8FFFE0004
00020000FFFD0003FFF9FFF9FFFFFFF90002FFFEFFFFFFF7FFFCFFF2FFFFFFFC0006FFFB0004FFFF00070002000900030005FFFA0000000BFFFDFFF600000001
FFFEFFFE0004FFF4FFF9FFFA00050007FFFF0003FFFEFFFFFFF9FFF80002FFFD0005FFFC0001FFFD000000000004000200010009FFFC0003FFFA0002FFFAFFF7
FFFF00010000FFFDFFFF00060004000E0001FFFBFFFDFFFD0002FFFB000200100000FFFDFFFCFFFF0004FFFC0005FFFFFFFFFFFBFFF9FFF5FFFD000900010007
0004FFF80004FFFCFFFF0005000200070006FFFD000300030005FFFA00000003000800090004FFFF00030002FFFE0004FFFE0008FFFF0003FFFF0000FFF90001
0003FFFCFFFD0002FFF6000E00010004FFFDFFFAFFFE0008FFF9FFF6FFF8FFFEFFFFFFFBFFFFFFFC000A00090012FFFDFFF7000A00070001FFFDFFFE0005FFFC
FFFE00030011FFFB00060000FFFA0005FFFBFFF9FFFE0000FFF7000AFFFD0003FFFB000D000C0000FFF5FFFD00020002000BFFFCFFFDFFFEFFFA0001000AFFFE
0003FFF800000007FFFE0007000F000200080001FFFEFFFFFFFE0008FFFCFFF900030004FFF40001FFFA0002FFFF00020011FFFF0004FFFBFFF7FFFA0006FFFF
001300070005FFF9FFFD00050003FFFD0001FFEE0005FFF9FFFEFFF9FFFF000800010005FFFB0004FFF80001FFFE000200060006FFFDFFF80003FFFE00080000
000000040001000E00020005000C000500060000FFFDFFF8FFFA00060000FFF20008FFFBFFFBFFFBFFFC0003000DFFFEFFFBFFFE0004FFFEFFFDFFFE0000FFF8
FFF7FFFAFFFF0006FFF90006FFF7FFF50004FFFFFFF900010008FFFBFFFC000AFFFBFFFC000F0001FFF80004000BFFFDFFFE000D000D0003FFFB0009FFFEFFF8
0000000500000011FFF6FFFCFFFA0001FFFB0003000D0006FFFE0007000300020009FFFFFFFE0002FFF8FFFC00060002FFFDFFF80003000C0001FFFD00020009
FFFE0002FFFBFFFC0005000B0003000100050000FFFD0007FFFCFFFA0006000700130000FFFFFFFF000500050007000F00060005000200000000000400000007
0005FFFEFFFEFFF8FFF9FFF9000200070005000A0002000200040005000600010000FFFEFFFF0000000400060001000800040000FFFE00030003FFFE0007FFFD
0003FFFBFFFF0002000CFFFE000A00080001FFFFFFFD0001000C000A0015000B00180003000D0004000100090001000900040001FFFB0003000400030005FFFB
00000000000000000000000000000000000000000000000000000000000000000000000000000000000000000000000000030007FFFD0006FFFEFFF7FFF7FFFC
