FBA012530AD0FE5B0143050205D5F464029607E1F9BFEF880769F2BEFDF60B8BF9A7FA22F9D5FAC7FB45F094F2B10B9707F3066BFA6204400AECFA42F6E50E83
F9E6FD411037F1EE0FDDF729ECFBF5EEFCD0FA7FEC261104F5A1ED87F0BFFA77F1C6F9EA058308DF0FCFFDBBFB3208E106C9F9D9FCD10329F409FCBC0173FA81
FFE305F000C1009304AE006401A104250550013BFE4500E701F6047C031D03E4041F04DF003CFAE1022203D3FBD504BA00FC0256017202B203C5FF88062200FF
05990209054F01260460009E040A00D0047706A5011500B0FCAAFEE8FAFB01D20224017601F301980384FFC4FFC400B9021403D5021800E80041018404D3FCDA
0367004E02E805E2002203A40167FED1043701170101FF9B07B9038000DB04CB051401F3038D054202350893FBB106AA0A9101CA00B206BC0A9604AF06D20361
02290BE1FF9B0360015E00DC0115084D079B036EFD2A05D406C5052705FAFFE5046C0AFF0A960698055705EE07E2013701B101170A52041A0E91022D06940649
0307059A02B3061D003D0D62017E05640172005204BC008902BF04BA006000660209032A062401DF0724012905EF010D03F306B002DC0612FD17FEC70474089E
0028FDB605FE031FFDD504A904ED05060810068206CA093EFE4201EF010E050609CAFF22FFEB05DC0CCB03DC0187036602400444005C0878031607FD03B7FECB
E1C60213EB820F4EF055014FFA6211EDFEA60864074A004A19B10E8113AF1A31F68DF955F981F7591F300C230BF10E6C06FCF9B4065EEF62F25EFE610BC9FA97
0FCC05B309B62F6703121EC7D851101F10D7F63CFBECEA06F14C023B14BDED0C036B0BCE0C3A083DEDB70E3FDB76F00AF88CEE82D96611580CA1F7120090FEDD
0199FF9C06690214FED400C9FF83026F06610363018E01AC013A026F030BFFF2028503AB0197052F05410166FED9FDBB0828FFA8001801330172033AFD800252
02BD016F04CC048D0222007D01530059069302B10135012E00E7002B00E6FFF7010A0065021504DA025701F8FF91FF4B04CB001502AA0163FFB8061C0041FDAD
02B008630AFF0BD5FAA409A4F920F907043305120A5A00D908DB0AA2FFA602700C63047404F60259077901D005A6F76BFE61F6D0FDBEFFEAFC7E06FAFC990371
03D3071308480466052C0381016202FC06BB004E038203FF0250F8440CACFD6B08800707042A00880C600575012406A803850A21FD7A046F042FFE020AE60558
FEEF046201A903BFFF84FF08006DFDF00208FC47FC85FD34066602D5027100F20215F85E0407FCFCFB5FFC66037B008CF4C4F8340029FF7D056A042EFC0F010F
02630D12FFDE0005FB7AFD28F807FE39FDA101280021FEF9FF520056FA24024E0034FF8100F3FD18066306ABFD68FB94FF0CFA29005CFE53FA1EFD3CFAD0F6D1
0147FF470111FEC6FA4601CEFCCEFB22F837000201B7010D008F0212006B0047FEE40071FF3BFAC1FFCFFE2BFDE5FD68FBFEFB4F0042004A037C045EFD35FE04
01CE0042F99CFB7B0258005900CB0036FA7200BBFCB900FC02440341002BFF01023DF7CD01B3004D01EE00FCFABBFB5A02B6015401C400AF03B40112027DFB6A
F956FAD0F4F6055CFEF2FD4D024503B40617FDE9FEA901A10F740900FAD1FC7FF74504BF07D6FF64FBAB00EEFD28FD3900A40A580387FF48094704790213F67F
0085039802F9FF2F012D069CF86C004EFFCBFF79FCDE0654032D060B062F07E4FDF70309030B00F6FD82FF0BFDD4037EF9D4FAB80642FF23FD38FF0CFC0EFAE2
0022FFC904520598FDA402DD053C07F5FE0D012A095901B00531FF1E0637F43303150671004306A1022702CBF577FCB40347FA030594FCFB052604C7038FFE93
0503FD54024B02A2092102AEFF270324F6E6031C006E03B1F9CD03E6078800A7F258FB1102A80290FFEF034BFFF7FE1203380A6D017DF400FEBB004004EB01F1
01CDFF4500D2FAF10069000A039D017BFE3302000697033200E0050D002600C3061A07FE060D01AE00D200E8FB5C032C03ED0295FEDA031B05AD019302F9039C
0350028703CD02B3FE3705C5011D02EF026903A401A3FF0B07C6053E0214003D00390132FE33FCE102FF05BF045201CC04AC017302BB03B0FF4904BE03C20604
FE17FCF502BF02F0043B013C0604FE590321FF7B0225FA24FD2B0364F9D3022C05DEFEFF002100D604C7048CFED00037FE32031E029B00720230FE5B019F01C2
0532049E069701B4014C0125FEA705B30224FF3E0034046B02190880FD65FD8D071800E3FF4900D703600163040C05E70026FCD007D0070F06130284024A0752
FFAB0136FE4BFF04FF1F03A1FFB70166FF9C018FFFECFF35FEA7FE80FF27FF95004B00D4FFA90168FF07FF3EFF7F0064FEEEFF8100690071FF88006FFFDE0054
FFE6FEF200D8FEF6FFD8FFD3FF930188001000A4FFEB0176008C00D8FE20FF6F001AFF9DFE62FFBE007AFF950046FE590023FEF9FCF4FFCD0094FE8C003A0043
FFD8FF8400FEFFC500B0FF9B009C018EFF68FF95FCFEFE1AFE850078008B00AC0171FF82FFF8FFF8001EFFCB0018008AFF2CFFBAFF5CFDF6001D007700ACFF4F
FFFD0001FF0B00EFFE3F006400400020FF22FEE9FFFA000E01600003FE93FF71FF3B0093FF8B00050085FF7EFEFD0068FFC100300080FF74FFA80030FEAE0005
FB4BFD7D02A8011C05FC02B10429011DFE7AFE50FFD70045FE58FF82FE65008400C500E604C8FBE6FFCCFB95004100E0FFA0FC7600C5FFEA01F401F3FFAA04F3
01B3024FFF710146FB7DFEB400F3FFC8016B01B2F6B7FCA901B1FA3DFF2A038E0489FFC0010208D80217002E0016FEE302A7FF11002EFD6BFBB50295FEA9F875
02A1FE79FFD3FE2003F9F947FD7DF6FEFAF1EFB9FDE6FF6C004B0268FF1B01B103E4003503A6F67EF8ACFFD6F729FC3201E00081FE6E00EB03F0FB63FE9D0025
038D022FFDE7F594FF39009F026002DCFF2D033DFD5701AC00F3FAC1FF38FA25FED1F996FBCB02C3080002C5FD3400BA0353FED90003FBAC01E10312003408D5
FE3C02A00142052901E6FD92FBDEFE3EFF1700D10196FF5BFF8E0810FEFF03ECF9B8FBD6FB950014FF4AFF54F8CCFE7D0064FBA101B1FD93FC5302DAFC32FE73
FE0AFE2C002AFD6FFE37FC490331FB7F0181FEB9023BFFCD0077FC4CFE6E0669FF6AFE4AFF9DFED0FF0BFF35FED3FE54FFE80A84FD7BFCE700BBFCA0FDAAFC59
04FF035EFE44FFD601DF0064FE09FF83FFE0FD1905ED020EFEA9FCFDFF03FF47FF8001A8FA45048EFE9F0178FCBBFE09FFBCFF8BFA57FD880358FE2DFF1C078C
FC74FCA3FEF1FE09FB79FB5EFF99FCFD0116FE2505E2FDE3FE5DF5BDFEE5FFB900B2008DFFFFFF05FA1C0487FC9EFFE80593FEB3FD1CFC360053FEF20030FB5A
00B7FC23FDA203B003D1010EF996015E01DAFDA404CF036FFDE90312010F02EE024503D604B7FF040253FF0A022F03D8FF80015A0380006C0407060A048300F7
0487FD6803F0FB010483FC2FF836FE4D029DFF40FF24033800DC0829FC5D0059FD43FE64010DFE54053601B2084C0268FE9A003B057E013302BC037703A1FBEE
0333FDED0440FAA506DE0380FDB2FE38FCDC06F002E707080060FC73FC54005DFE18FD3E064302BD06BFFFCA00760261FEF104AB0031FDEC0522FFB7FC11FEF6
02EC044E088AFDE0051C057904CD054E025B0145059DFEC7053202830273F9BF011204B8FB8D0A2C0022002F02EE022CF9AD0328052DFE3A071601E700EC0342
FDA3009501800131031800F00248FD97039B03B6FDECFF26FD4F00950A32FFDF065903600379FDC3057B031E02B7FF1BFE8E003102CEFF3B053D0472FDA203A5
0066FF3D012601580135F7DE02E6041DFE83005804E10538000BFFE301B2FE2102AAFE7D032D02F9FFA001AE0314FC01F9ED021F012601B9F9EEFE6B0454FB23
FDA8FFAD003500D8021BFDB2F58AFED4FE5BFCA00076025D0109FD1C036101F2FC9F051304510152FAC5038C071E00B5FFF10237FEFD07FFFDFB027FFB0D01CA
0572FF470233048A020CFCB8038BFDB1FEAE07EB01C7F9A700C60061FB64FEF80069FAB4F92C0304040200A4FF7E00600280001E015806C4059AFD89053EFCA6
03CD0296016EFF6E031B0201027600A902CA03CD01130067019E00310131FEF4FD8D04010080001D00B801D603A002D70393031C00BB001104FFFB13008C009D
FFC202A7023D02280040000300AFFF92020202B7084DFF3E07CC01CC01400214017700DC0037FEAC005F001600EE026D00F00097FFB400DC022FFEFC001D0117
02A7FFB7016301E303D4022DFF1CFE70FEB504A5FEF4025F04BA02E30124034B03E30594FE1E025C03FE00A50096022F052701B9FE01012C04BB044002B3030E
022F02A40109FFAE00E703DF005603260025045A066403E903F000BC00F90017FAE4017E016500110374FED0FFC600DA00F9012C01E201EC04C3FE60FFDE036C
024201D6029202BC037502D402B2FFFB02AA0363FF70025B0148042E025F028100A6017AFF5C03ACFE1501FE018B02B2FD550194002D0410FF9D027DFEEA0382
02B9002E020F010B037B0236044E01A3FC7C00A7002D02D00208031DFC1F06EA005D0152FC2001A802AF04B70161032502890386009F02620297024BFE3C0146
FFE9004202C4FFD602B804340173064201910274033D0337005603ACFD440159010F044B041D00C4020E01A604220397FFCA009A01CE04CD02CB051203F001E8
01E103B70370025A01CE00F1FE9B01B30216FFCB02F901140077031C026402F0035701DD0363FB3100E90293FDF302EEFE30016404D801D500100344FDBD0333
FE23003A00B9FFACFEEE00520051FF96FF29001AFE9BFF7DFF4FFEF80070FF170038FF5BFF13FF37FE65FF60001D0026FFD4002F0000000B0051FF3FFF7C0003
FF58FF3BFE0EFF750035FEE7FFAEFF9F00720060FDE8FFABFCD9FFAA004FFFF8FE59001A00C2FF1A003CFF55FEEAFF9FFFADFFC8FF2A000B0098FFCC0053FDBE
00700034000CFEEFFF5A0035003AFF2AFED0FF5F00B10070FF1A0106FF6AFF6F014EFE03FF29FEF9FFA40072001301630000FFE400F2FF79005FFCBAFFFAFF94
00000166FF6FFFB7FEAD00F6FE64FF36FF44FDA9FF9EFFACFE8DFD7300CAFF540378FFA00078FE28FF6BFE59FF97FF65FFFDFFA9FFA50083FFAA0020FF79FF5A
0030FE39FE62FFB2FFC4FFF7007AFE1800780034FEF500A4FFEAFF65FFF4000CFF1CFEA5FEBFFE45FEA300E600510025FF8AFE36FFE7FFE50038FF94FE5200A1
FFF0FE74001BFEB8001AFF900150FFB4FDADFF4EFFD5008900820054FCFBFF8BFFF5FEFCFF6B0109FED8008DFE55FF73FF1AFDF40011FF93008BFFBC0037FFFD
FF99005EFF89FF9EFFC60078FF3DFF4700340106FE700085FF2AFFB20109FF89FFB4FEFB0093FF490112FFF9FE9C00ADFF32FF41FFADFFB0FFD8FFEDFF61FDBD
FCC3FFF200DCFD94FF7AFFDEFFB9FFFDFF7FFEB4FEDD0037FFE90000FF86002F0007014C012BFEDBFF2DFF910004FEB00017FF08FFB5FDBDFFB60077FF62004B
FDFCF7C2074201A40180FDEFFCB800A302C2027CFEBF028A031D040BFF0C02E1FCFB011801C3011600F70112FFC90224027101E300F6FFF000AE044C0022FAF4
022AFCF2024E02B5023A0973FE67FD13020601660198F48303230004FD2F027D04B8014502A604A902660572FDA8006E0180FDDD00C200BB03E200F8FE76FD6C
088D052304370053018F019F091D008DFE75004505DB08C50110026104BDFF9800DDFB10FFD6FE0D0543FD77022C07DB010CFD8A03DB007F02ABFF4000E60122
02DD0203030EFF78043101D8059BFB4E04400446FD090005FEF402920065000B05510497FAD7015BFAC6029F08CD0413023FFFB707C6031900F8048201730171
023B00E00252FDB2FF85019BFF03013B00FA033C022FFAD703CD0069040DFFBCFEF4002007DE03EEFD21052E0591067306390010FEFF02F604010017F78203B9
00B6026A020700A6FD4104B20014FD1E099001E7FBEB01B9FE1E028801530329017100A804CA01FE049507BB01EFF97F0162030E01B6035EFF3A02DBFBA2014C
00E1FBED0185FF1FFADA048204B4FBFE01A1FFF3FDF7FDD303DEF918034A01B0024502AA03A403FC0219FA7A03C4FE8003E705B600BE0450021B00530483034F
0166FC02034305CA043000C101B304F5F448022A00350719FF11032F045A007301DA0314087C04C60053033103B202BEFFC60622031C046900FC01DA023202AB
FC32FCA601BFFDCD03FA01400218037C06E308EDFF7BF8F9076E094EFEAFFF150415FD4FF80D0456F2FEFE460159028E00C50703F9BB07D101110084034B0217
0386FEB6FB9800CE01710652FFC50D6905C6FFB8F4AD046002E806D0FDD5FF40FFE707D9FF880EBE068F04A405C801FD018DFF53109702C1F94705F2FE74F6E8
025305DEFF1A051303CF052B00F7F84D0129FA3DFA0C020204D60EE5FA0A098800D00077EE210281FFAEFEAE0050035501F2006E01BD080B031A0219FDF0FF99
0286FD1409ED0292012DFFDB1046063E024707841D370831F9BEFED0FC91FE29E88601D101D7F5E402AAFFB80276FB9A066D0054FB2B032BF97E008801EE012C
FBE9062AFAD4003A0629FE96042903BF041BFF45FF71F64D026F000B018108D40C77F88E0B7B08E8FE41076EFE850454FEB3F9990356042B05D7011C01D3FB11
02420685FCCAFE4B055EFA510226FE100479FBF5FEFD06C102CEFDE803F2F7F8011DFEDFF5D4004E0887FEFBF9B601A6FDB8069F07B4FE4806E2FEDF0B1BFFDB
07BD01190234FA7BFF490190033D1FCEFD7104D500EDFC7F0141FD6EF9760192FCAD0453FC3B02D107C1001C00D9F877FB3302E100070298FF6A01BA04CAFAA5
08BEEBF702390295FD8D02D0F91AFE0C05E8F70BFEDBFD2EF686FEF302D703D90094F996FF940F5E0378059CF70B0697076A05ED02C3F0A30698F7EBEFA106BC
030E0A130508F6BF0DC2FC5703B6F709F6660277081C093611D1F04B060AF9FAFAA5FC67110B0002F24DFE8B05A7FFCB074B018F059809720FB006902355094B
F445F83CF322165CFA1403C9FE44041CFC90106B0A46FE091E0F01830A4E0E25FFC70293099CFD0A21E4FFD210C107A0045B0726FC350741FB1AF43AE73605B6
159E118DFE69FF0B0C320C0503B6FBB317C4FCD1FC940D47FE8DEDE005BF022D052C055EF3C606AF057809790FFA008810EC0B840CBC0054FEA60AA20E94F79C
F0A707B40629F5E8FD5F0FAEFDD608A7FC741D6404B308F401AA04D9FEDE055C03330BC4FE9606C504D7061EFFB707F5122DFD3F03F20E73058F104704B723A7
16EF087302DDF4D10A200E1C0E1A04D2F61AFFC21CC510790376F85214FBFE851370F26A0A5C0C2AF494F04CEB60FBE5FECB04850A03F160043CF8BFEF6B06EC
0D2BFBDF086AF302F8B20A5EEF300396FA20E8A9F9D81AA907450339EDDB1671FC0201C0067501D6002502C0081FFFE30163F7B4073A05D7FF8914A7FC1DF564
01071BF10857FAF106B604F40256015B115808E8FE780DFA0B80FC69EF64039EF67EFC90FF32EA9F04BA079202D10F1004BB0A8105F405C102CEF3EB0F63F532
0EA6024A015B0637F9550C2F0EBB00C002A50D880A2D0812048FFD37FE9909E50BD7FE2A03C6F561094BFD5FF56FF5590D0F023907FE1188FE6F0A09F2AD013F
03480DECFEA5FACB097007230018F3310EA4066E031809D3012C0999FA62FF6912EA0FFB00160BE50A0627B80C070696FBAA05E00E840B05104DEB7C0BF40CD9
0A92040109F2039C0B7006730846F516FB7B0A3B151E023A0A6EFB92FDFA0FECF804FD9901E7FDE9F9C9F8F10065082AEE3207BDE97BFC3D0781F1B501D4FE11
FA5CFC97F816FD5C06C611EB0256096F0EC30537FF35F62A0E9A09AA059903F60E8D0661076A104905C2FE4E05AA123A042D065707C20B2A03560641F9E10895
0756F80904510E6FF93CFF9C1B44F762FFD3F9CC065106E3FAF109870078095A021B049EFDA701D2081B0091071E0D1B16A210B21543033204E012EDF040FCC4
007B095E0B5E05520BEC054217CA0053FAFF02CC0705EF26068912500D3D0A250CF1FF6A00580706FFF90159031810CBF3F008E410EB01E00DC6FDC4FF680133
FC0CFB57F9E0147F04920E740B5FF949EF7C0FE507CEF5F20A8FFFEBFBB4065410D504C10B73028C020314CF0701F7B4FDC3FA4C0A03016B0571FDA2074D18E8
FDC8FE5403AB0034185300B80CC001F0F7BAFA900D37FC22FB200A9CEF9706750143026408DB068D0C96005F0E30EF9CF9F1F3AA0848E3EC0B9109DE004DF88A
052A04F50630FFB30DBC16CB0BD11809F8D92D6A12F8E3FA0657FB65FE29089CEBA203FBFB4505B0FCE906B2017E11F8FBFDFD2F06560DF1058012B4F33513D1
FAC9FDB2FF5302C00805021501E0FE3504710448FD840855013A0388095802B10B480573F6C809DE065BFC73044EFB42064C04AA0326016205C10C16052905D6
060705EF06900EB30446031DFAD1049A082EF734039901BF062104E905FB047700A9051103BE02F6FFF101C401EC07330501FAB0039405B7FE58036AFF1503FF
044CFEEA0284FB11FEC2FFB807F8037C0025FE630291091D09E1077E0AE4029D099F089EFDD8072A0AEC0762FD3D0522036601200EB907830815FD85077E057F
FCA90632FD0106DE015C059FFD5EF88CFE3A0B01045BFC8903FDE8ED0179044F05C1031B084A09EB0473FE51FB8204D7FBFAFE91044506CC08D3FE8800C8062F
058F005002160AFA076BFECB08550512026F0160FCEF055303EE0115000700AA04F503C0078500D902A6FDB6FCEA06DC03250464FFA400AC01CC06BD077B0607
FC710606FF1C02DE049302E105360015025D0883FC99064600390308125A07B0001AFDDAFA3B019104E6095703F60826070804B30A2303F10471FE46FE2E0561
FBAC0D5305260170FB9C09600794FEAD02FB01070963FD54065F05BB061AFFD3020AFED400150B5804410465E888009F051D0497FF9C033F062203FF002105D1
0264093F02B703770591072703D702000A0CFB60062106570202FF9404AF07670177025F01C501F700C502E0015C114409E00289FC130588FFD10B2109E50354
02C8F8BB07E60065FF900582031FFDB5021D057F087100A20244055D0A83FD540868FEC0FCFBFF4A0AC708B8005303BBFE2102EA02B604080751FF8F08020319
FFB006A20288FF84059A0297FF7A064806EDFFD50253065FFF3E0E7601C0068009940C3103F901EA02C20235015603650BC900D4FEED053BFDB7049D01B303A7
03AD087AF8D7081E05B905600614FF8904C70425FC02FBC30BF7FF94FAC403ED06BF0380018A089609A609290AF9038B06E004DA097307FBFEF30534051BFFA4
00FA025508060894F71C04B006A802A2036E0AB0FC82FE21082606E9034500F301160240021DFF0504F60CCD086A06EE0C7402A702E101DEFFA1064B02F800F9
096FFCBBFAA009C503E6085108E5064001DCFF190BC1033D047E07020E58FFCCFE770392FD02FC6CFBD305E9046C0ACF05C807AA022D0013043AFF9C060302C9
058106D70694029C07280499008908470232057E096004DA098DFCE50B7609D90A0D04C706DB0049005F01C4FD2F061A040F0277040E012FFED206F7F842064E
0693FE8A00620474FEF1F964062E026F0464016400A706900755014CFE4E006607370C20FF20FF3D043C020A066F0205FD3102780062001F155EFE86FE0CFB82
040D053A058E064702CFFD10022002A30131FED404C805BCFA400659045CFFA700C90345018BFF58FC6503E0044006CB007001660238FAF60815FCF504770389
00A5FE8E0076004AFEA9008AFE8BFFABFEDEFFDFFECDFF3DFF940054FF29FE0EFF61FF740077FF00FFC7FD63015AFF0AFF63FCBFFE96FED8FECD00E100D5000D
001CFF03FEC7FF2FFF11FDF9005E00BAFD33FDA0FE26FE58FDBDFEBBFF30FF08FE49FE21FF63FF6C00F4FE2DFF2EFF19FED9FD51FF2D0060FEE4FF58FEF8FEF7
001FFEBAFEBAFFC5FF2000CCFEF1FE54FEE3FD7EFECAFFBDFFA0FFC3FECBFEC60032FF38FE0C006FFF9E0021FCED00F50064FF70FF09FE7DFF62FED0FFF8FD13
FFB8FE64FD3BFE41FF07FEBDFEFFFEC100F4FF64FEDDFE74FEF0FF9BFE15FD97FFBBFCD4FECDFEB4009AFEB2FE3CFE7DFD3CFE05FFF1FFE0FEA3FF18FFF9FFF5
FEA7FDA7FF1CFFBF0158FE5D00B7FDA8FFB2FFE4FDEFFF1FFFB8FF9AFE2AFE60FFB6FF26FE13FE18FEE6FE91FEB000C6FE0DFF46FC68FD81FF4FFF8AFE0D00BA
FF3BFF110003FE03FF58FF13FDF1FEA0FE7EFF18FFE00132FE30FD75FEA8FF84FF9BFECAFE06FFBFFEC9FF67012200A5FFD6FF5BFFAAFE05FDF2002AFE75005B
FE90012FFEE5FDAFFE04FF1DFEE0FFAEFE2AFE28FEB9FE3FFF73FFBCFF9AFF4200B4FEE8FEA9FF33FE91FD90FEE5FF96FE82FFBCFEFBFDF8FDC0FC71FE7EFDFC
FEE0FF5DFF32FDB4FDDDFE7FFF5AFEAFFF7BFF8BFEA500BFFD55FED0FF30FD7FFEC5FD8BFDADFE65FE4EFEBEFDFBFEF4FF83FEECFF3DFEF1FF08FF38FEE0FF81
FDA2FF4BFF950010FE7A0023FE7DFEEFFF6EFFDAFF93FEA8FEF4FE68FC81FDD3FEEBFE6CFF29FFB2FEB9FF60FFC7FE44FDCE00490044FF5200C1010EFF8FFE96
006FFF4AFD99FDBDFB45FE91FEBAFFDB0022FE85FDEBFE3FFF87FFDFFFB2001DFFC6FFEE000EFF4FFE58FFC90094004DFF9CFF3FFF56FFBEFF26FF2FFDFDFF7B
FEA300A000100092FEAAFF5FFF4AFF35FF31FF84FE30FCB900EDFD16FDB1FE42FE58FF17FE50FF900026002DFF1AFE5B00A90064FE16FEB6FCAB0012FFCFFF07
FF04FF55FF29FFF4FFB4FF3EFE76FF00FE7FFF6700F2FF92FE2FFFE80091000FFF8AFE9AFFDCFF560102FFA8FF81FE40FFFBFDC9FF54FE14FEFAFFD101DCFC80
00E5FC97FF68FF15FF0AFD58FFABFF4700A1FF28FF1DFE8AFFE6FFB0FDEAFE48FF31FF3CFFAFFF1AFFF6FFA3FFABFEC5FF44FDC2FEAEFF92FEB7FED0FFCBFFE5
0188FD69FD8D010AFE61FFDFFDA2FF19FF5F003B0008FEA8FE56FDFEFE2AFDB4FF460021FEEAFF2D0047FFBE009CFF4F001BFF2AFDEDFF5DFF4BFECAFE9EFFB1
FEACFDEFFD4B00ABFF33FF9EFFA3FE57FD41FF3FFEC9FFE20066FFACFF07FF93FEE6FFE7FEE5FFBCFEBAFFC8FF93FEADFF47FF54FEEFFE74FEADFE4FFEC7FDC0
FDF5FF2EFE6200BEFFEAFD09FF08FE45FDC901300058FE4A0003FEDE003800D9FE03FDD2FF5AFDBCFEB4FF6AFEE3FFFBFFFDFE81FF37FF72FE1700F1FE000028
01DD00710321018BFFD900F5FF0B01C3FE57019802D6FDF2042F0331FC78FF81023B044A0174024700000681010D000A0451FC6800DC022F037A01EE00410182
FD9CFAE4054E02ADFDC7FF58002CFECA0305FE29FE36FDEC000DFB6BFDE7046CFEFA026C005D04D701EFFF98031603F5FFA5FCDDFFDCFDEE00D8022905570278
FB5A0035008B09B2FE38072FFE410074FFECFD96020D048AFD7B040906FD0291020202A3024EFF8B0547025B038D0278049E0344FF32030000BE01D1024601EB
02110112FD1A041A02A502E402BA03BDFEC1068C0180FECB00DC00A3022EFFDB00EE0248FEE1013F03A60288008B0075017BFE7D0479FF840453FE040653FB3F
049A0415FDC8FEE4FFF0FE4D023A037FFCC8FE9A0372FEC902C00176042A01ADFEDA0392FFEA0224011D06BBFEB501E0016AFF9D0211027C003602A7FC650423
FF7D02B402DC0011FF29FEF402280117FF51FD9A000A0038050F02D50117025D01B9022D03C603B4037206B0058003B4020B0031FD35FB930379FC6FFFD401AB
FFE104A402A2041A00EBFE92005804C10251FF96FE51FE8E030503C2008002080160031604A702A1FCDCFF5702CFFCB7FEDE02D80222035E000B019602E30214
05A003DCFC00048E0371FE430247007801C1037303840054016F0065064502A9FB68013A0147063302E0055D03EFFDCB009C039C0099FE5F0029FB8E068FFF33
036BFC1C002A04DD05CA03CE0362039A01A1036BFE560199072F029F01E6FDEE039EFE1C03BD01C30293041EFE7100A303680236015802920358FCE10612FEBF
00D90D670067FCB8FC7F00710000FDFDFFBA0288FE4D0259015202CDFE0A00630305047B0192FF95014E00D402BAFEE9044C001C02A60434013D047B0243042D
02B602BDFCE502A001D60191FF8DFE67036DEC8C00770123FE57FE9604580350F98303290150022F0238006B01AEFE7B0293022B0361FE640119036203030471
02AA05E3028000DD02390546FF66020DFE9FFED40208FDA00451022C0337000401D203BFFDE304F4036D02B4030EFFFA026601680057001AFE8EFE2704CA0293
0122FD66FFCC0075004BFC7C035205AE0202FC3601CB01120168FFE4FEAA04EE0396FEE1006B013EFC7900BE019303410134FDF902990650014003FE00DE01E5
00D7031701F7045301B60067FFC302C503F80174011301770478031103DD03B5012F027AFFE403890386FF860148013EFFBE00D2017001B703D0FF0F02FFFF0D
0009008400140451006402EFFFC0FF1F000A00DF014104AFFDD4049602ECFD51FFBF01920479004A050105B20047059602E5FD7302FA02AEFF21FF9E0442028F
055E045C045C02A60226014602810295FE15018A00B600C0004A0200FEB20045FE71FBD300AD02F302BB0711FFDA03C8FF0D01BEFF0906440181FFF804F80227
0474026A01F7017803C1044E0465025104F1037B02EB062F04430321022504F3021900FE018D05F9016B024C04DA044BFFC1016505FC033403CF04E0011B02DB
03F00360FF0807D0FE1B015602320340041202C90717052A0449009E052202110773035D04BC03BE083302FE02EB02AC01A100D90615050502C305B0029F06E4
01B1FFB4047E04E20322050B045F05A105BF046006400229050302E603A8019702EB049C0419031602C2055402090646032C058C03030448036E05F0020102CC
04A4027402710294046104A5009907AE03C603F2058EFE490287045C04B403CD04B803BE02D103FC034100F0005403A403E50431023502A9038B041F051303B6
027A0323053203ED03A80334032CFCCE0467042C04EE00D9023701990264042204EA03A902E40347049A05340599024001B2023F053B0237074903EC02B604A9
036101E0023C032604D0052A04DC021C007F04EB02660239054E053702CF005302AE02B502ED02CD05B4056AFB5203980283030102B7028F0257048C067903FB
032A03BB017500A4011504060447048600ED042802290359017D00BC04C40233042F00DF02850284009B022603D7033A06C5029B04B203D10483009603FE02CE
02C1050B03A201A20233003A05BE02230297041E03EA01C6012603B801DD043005AE01CE03B300E803E50459FFBE0190042A00B7022005810422018D03D702AD
0346038002BA04780264056C019A04C20036048E01F10437018F0242035A04BA02060127051AFCFA0401044A02C901FF029F072303430502FFC0054101FBFFC2
0465068403F2042A02C3FF32042B016402BB02FF01C701B00433022302F1048F05B902BC063E0369016001C701C7016B01B2038401E9010E0377024506DD0386
01DD056DFFC503DC022A024203ED036A0381047C022902DA0568036BFED9024D043103180530044B011E03C6032002850403021A057B00DD03AE002C013505C1
02D102E9039C02850290044604C404A601BA00A9032F030B04B7042C0128032F043200E300E0FFE6FDF704710369FF440579038A02CD0490047004EC04A6020B
02AB036603580500041306E703A605E5044602C1041F021F02B301080285046E04180447052C027B019E0399024902A704DF04CC022704E2040C01BE02DA0288
015A007A0425052F03D205750390046A02C7038F038A0043057003E7044904F803900105024204370322052B022105800406011705CA02C302400322031702A7
02FF04660127037703F9060A062904C205B8064C03BC01F607930368FDD601C405CA04930410034F03B8011C065E03BC054B02B40326025F01C000CE04400330
03F701C5042603A1054301B0045D0356FF20032A030405BCFE7E032F01F8022D024C048A026F006505D1025C03E602BC014F01D3044707CB039B035402A50352
11C221EB1E23175B1CF92E571243107E108B1C9F22551B992A77249F2E1E0D7322B0247805A3115A2128127622CB24BA24F519CE19310D182F3923A212DA28AF
1BEE1A2207B91BA91D9711222264189027BC00CF1B762B3D298C10051798F9FB1C8D23AF12EA167F1CB92EAF1B87237A294513CA15CE156F1A0C166512EC217A
15671FC01AFC1A550A84170512841F1D1C571FF2295C1A21152C140C21732060179A19F91D721015179C196216761A0208B71488143F1517303A1CB1116C1567
18E618100B491C1919E8237418F6085F0D2E168C1CF71D202C281225383719480A8122C711D72EAA243C1B381C5B10592DF323D01F0B28431BE6161221E91A4B
00DFFF55004CFED1FF0800D000CC01B1FF89002701CC00290026006200E30258009A009403290118001F017F00FA002F00E80136014C018E0316FFA6047405B3
FED9FF6D0025FF8200A3FFEDFF21FEC0017600560028FFB20063FF2EFF6B00BF003600380019FFDBFF9FFFE8009A007FFF370030FFDFFF65FFFC00E4000200ED
00300002FFF1FF9EFF65FEFEFF7AFFC0FF92FF90FF2BFF69FFEFFF00FFA8FFA4007AFFA600E20118FF23FF7BFE7FFFD30027FF24000AFFA3FFCFFF97FFB5FF4B
FFA1FFB1FFEBFEEBFF2C0081FFADFFD7FF55FF49FF3FFF53FFA0FF91FFE7FF83FFDBFEF9FFBBFF25FF2C004F001CFFC4FF9AFEBC00D5FF2FFF46FFFEFEECFFFF
0000000000000000000000000000000000000000FFB0FF6CFF27FF36FF7CFF6DFFA3FF0DFF9D0042FEE6FEC5FF88FF33FFC6FF30FF24FF5DFF07FF51FF22FFCD
