E30F0402F508EC11EF07FBFD18E9FCE0
0000000017FD15030AEC1A1624F5D7FF
00000000000000000000000000000000
18030E0FF2FDF61316EDF6E600000000
15F7150808EC0F0EF104EAFDF40D09F5
84210842108421084210842100000000
F701F9F413F0F9ED0000008421084210
05EB090CEB08F2FCF109090BFF060311
2108421084210842000000000EFD1107
0AFCE6E6000001084210842108421084
05F8F815F4ED020AFFEDF217E70E1AFB
000000000000000010FC11F5FBF31507
00000000000000000000000000000000
03ED08E919E90F17ECFA180E0CFFF1ED
0000000010F811F5F8F30D05FD05FB10
21084210842108421084210842108821
01ED0713F1F917F00800F8F300000084
0C010CF5F8F40702FD08FD12FFF20807
08421084210842108421004200000000
E918EDFEFD120CED0000010842108421
F1FC15EEE8F71B180505FE0EF4EEEB03
00000000000000000000000003FE1207
FD101AF4000000000000000000000000
0C040D0E120501EC0EEB0B06ECFBEF11
421104210000000003FB1204EEFB0BF2
00000084210842108421084210842108
0B040106FAF106FDF0F5F3F5000B21FA
0000000000040C01F1FD08F50B050A12
42108421084210842108421084200842
00000000000000000000000000000008
00000000000000000000000000000000
00000000000000000000000000000000
00000000000000000000000000000000
00000000000000000000000000000000
00000000000000000000000000000000
00000000000000000000000000000000
00000000000000000000000000000000
00000000000000000000000000000000
00000000000000000000000000000000
FE170407EB12EE1509F7F4FCECE41A01
000000000FFBF8EF0824061923F1E2E5
00000000000000000000000000000000
0C1312100C0AF012EBEC0EFD00000000
11F6F9F20A200111F003EFE805160BF4
84210842108421088210842100000000
0D00F3F2EDEF0DFE0000008421084210
081C000FED09F4EBFE130C0BF4140B13
2108421004210842000000000FFBF9F4
D7FEE203000001084210802108421084
FEF704FE0DD8020FF505EB0205041F02
0000000000000000FDF6FE0C1E20FF02
00000000000000000000000000000008
13D609E70E050AFE06FB1D13DC05E6FF
0000000003F4000D1E1BFC02FF0602FB
01084210842108421084211042108421
F70605FE00FE1DF3DF05E80000000084
04FD000C1B18FC01040B04FD0BE00906
08421084210842008421084000000000
F80FEAFCF91AEB090000010802108421
030C02E7E0F11E150612FE11F2EEEAEC
000000000000000000000000F1F60106
FB19F903000000000000000000000800
0D030F0CFE1102E80BEE0CEEFCFAEE0E
4210842100000000F6F40301FE0600ED
00000084211040108821104210842108
00130203F7EE0AECFCF5F1F0FD14FC06
00000000F7FF0200000600F211000D0D
40008021004200842108421084210842
00000000000000000000000000000108
00000000000000000000000000000000
00000000000000000000000000000000
00000000000000000000000000000000
00000000000000000000000000000000
00000000000000000000000000000000
00000000000000000000000000000000
00000000000000000000000000000000
00000000000000000000000000000000
00000000000000000000000000000000
110B0304FB0DEAFD1BE2FAF702E91D18
00000000FB05F0F5E1F3E0171DEEEFEA
00000000000000000000000000000000
170D0FF51BFBF710FFF1080F00000000
FD01F0F6EAF3EB11F305F6F80C0907F2
88210842108421084210842100000000
1509F7F700F5010E0000008421084210
EBF4F10EF200F6FB0305070BFD0D0AF9
2108421084200842000000000104F5F7
13FF1419000001084210842100421084
F6FB07EC03E7040CFE12E7EC0E0413FC
4000000000000000E5FEF01CFEECEAF8
00000004000000000000000200000000
F8E605E9121408E80F0A121012040A11
00000000EB05F21F03F1F7F8FF0A05F0
21084210842110441084210882108421
F91105EC09000FF41404021000000088
F000F61E02F3FDF8050E05F200EB0008
08420080210842100421084200000000
050AF6FD0F10F8140000010042108421
07F9EFE8E2F91D07F60EFA0DF8FCECEF
000000000000000000000000E7FCECEE
0B0DFC0B000000000000000000000000
0F070F02F60FFCED0CFE0FF405FDF912
8210842100000000EDFBEFE907FCFAED
00000084210842108421084210842108
F00FFC06F6F80FFA0000F8F50D0BF60B
00000000F004F2EB0300FFF313080D00
42100421084010842108420004210842
00000000000000000000000000000108
00000000000000000000000000000000
00000000000000000000000000000000
00000000000000000000000000000000
00000000000000000000000000000000
00000000000000000000000000000000
00000000000000000000000000000000
00000000000000000000000000000000
00000000000000000000000000000000
00000000000000000000000000000000
102904F30202FEE7060DFEFCFE14FB07
020EFFFD0102F204FBEC0B2310EDF9FC
00000000000000000000000040000000
F80507FAF8FF05FBF9FDF9F000000000
FBFE0403FF0604F1F5F1FC0208F0FDF5
8421084210842110821104210803FFFA
FF01FBF207FDFADF0842108421084210
050815F5F5F50DF403E60C0706FEFA05
21084220C4318842F90CFC05F8E906EF
ED07FB0910842108421086210C421084
0AF6F7F70AFD01F005060CFCFFFDFBFD
06420C6306FBFAF81802ED0BFDF00307
18C6418C6318C831906318C6320C6329
03FAEA05F6F60209FEF804FF0EFE0304
0202F7FF0BFD03FAEF0108FAFF03F7FF
85290A421884210A4290843148629084
030CFBFEF00301FF09FDF2F521085210
FA040C01010C0D05ED05F004FCF80403
9CA5294C5394A5398A7314C506FD0606
F6F401010101FDFA294A6294A6314C52
FE0A0BF8F70DFDF9FEF4FEFD08FF01FE
6418C641CC8398E605F60506FC01FF01
01FB01F4318C7318C7398E6320C6318E
ECEB02FA04E004F7F3FA030CFCF5F7F9
0E941D0803E7050EF609F307FA0BFEEF
39CE839CE841D073A4E739D0749CE74A
05F9F3F8FF03020DF806FE03EA0A1FFD
07FA09F3150AFB0903F5100313FDFDF7
094A1284290842128521085250A4A129
01E502FE020B04F3090BFEEF42129421
0D100DFEF8F3070714F2F1070B10F4FA
AD294A5495A5295A94B5254A11FF01FD
FD0303FDF0F21A014A54A4A52A525494
FF0D03FAF1F70401FEE50501FD05FDFA
A6294A62D6C5A96B0809FFF3E9F50802
0DFFF5FB5296B5294B5A96A5314A5A96
0C01ED04FD07F9FCF4EE0407FBFCFDFA
18E62D8C07FE03EF010CFE02FEF309FF
5AD8C5AD8C62D8B5B56B62D8B72D6B6B
04FEF706F803F9FB04FB03F70706F3F7
FF08FC050EFAFD08F9FB0404FCF7FD02
AD6B1AC6398C6B1AC7B18C735AF6B1AE
FDFCF71104F70DFA07FD0408631AD631
03FB0A02F509FE04FBF6FEF907FDF9FD
BDAD735CD835AD7B9D0735CFFCFFFFFD
EE0207080101060E6B5CF6B5CE739CD6
02F005FBFA05F00D09E4FD0AF3080203
E8B9CE83DF17B9F004FCFCF70C0BFE02
0306FD22739F0739EF7BDEE741CE7B9E
0FFFFAFC0309F8F502F90D010C05F8FE
21283E11FDF5FCF50A020608FEFC0304
7BE117BE308420F7C5EF83E0F93DEF8C
11E7E9F80305FE0AFDF405FDFCF40A01
06F905FCEC0B011102F6F5F3F0F5FAFC
518C63084A108C2309C210946338C232
FBF9F7FFFA0201FDFCFBD3EA84232842
021604FAFCFDFC1107FDF81B041F0103
CE3194651A46319CA549467303FD0210
FEF70605060604FB946538C67294A518
F2090CFEFC10F3FD0CFEF8FD09F0FE04
2ACA52A4E759CA940B05FB01FF011CF9
FFEFFFED9CA7494A93A4E72952529CA9
E606FBFE0AE7040BF50812FCEDF704F3
296A52B50BF6020C0B0FF0FAFF0908F3
A4E959CEB4AD2B39D673A4EB3B4E73AD
FCEA0809F907FA10FE04FFFC06010601
FEFF01FD0DFFE50C02FE1505FEE5FC10
D5B56D4A5AB4AD2D4BD294B56B7AD6D6
F5FE0706F709FAF4050DF9F8AD2B6A52
08FDFA08FFF20CF805F9FAF204EEFDF0
DED5B56F5C56B5BDAD8B5AF707FCFAFF
050AFCFCFFFC0603B56D8AD6F6BDAF5A
F80502FD0DF8F8F404FFFCF3EC040EF5
6D5AD6C5EF9BDF180AFD03F708FAFB0C
06FBFF06BDAF9B5F17C5F16B62F6BDB1
F7F8F5F103F102EE0603FAFD01040803
73AC633902FC01EEF4ED0109FCFC09F4
C5F1BBE739CE337BE717C5F37DDEF7CE
0505F9FB00011301FD05F8FEF607FF0A
0AFCFE0011060A06F6F10E0104FD0402
5AD6758C6B38CE35806318D6B5BCE75A
00FF05FD06F7F500FD050311D6320C6B
0700F5F7FCF3F3030BFAFB070B13FDFA
EF5AD677906739DEF60D6B7BFBFFFB00
00000000F7020000DEB40C837BDEB79C
00010004F8000311FC1000FA000201F4
A06B5B00000DEC0000020200FF000000
0000000006F60D000006C1AD037BDE81
F9000000000B000D0003FA0000000000
0000000000000000F900000000000001
00000D80000001BD800006C1B06F6000
0C2001FFFB02F9F6FF01FCFCFD0605F9
FE16F90108FE04FEFAFD0C160A010904
00000000000000001000000000000000
FEFD01FC02150201FEFAF90A00000000
FFEA120AFDFF05FDF805FEFEFC0402FD
8421084220882108421084410603FD01
FBE9F7F6EAFDFFFF0842108421084210
FDF3FCFCFC0509F5F7F706FEFC01F0FA
310C421084210862FA04030803FB0303
0303F10110C421084310C42108421084
0B05FBEB09FDFFFCFAFA04FEFAF9FBF5
C6318C83F901F6FF13FEF7FF02FD0C05
19063190641906318C8318C641906318
04FBFF0BF60A0301FB01FE01F505F901
FEF5FF0701FA0303010504F6FEF9EEFF
8521484210A4210852948421084210C6
FC05EFFD03F80F100BFA010C21484214
F2020902030406FBFCF9FB03FEF6EAFF
94C5294A6318A6294A5294E702F7FD02
FD020302090206F8298A5298A6318A52
FDFC0AF9FAF9FCF4FBFD05FC06FE060E
739CC7318C63190803EF02FFF80CFAFA
07FFF80131CC631CC739CC6398E6318C
02F301FCF1F3FA06FFFB0A0CFAFAF9FA
CE739D29FDFDFEFEF90CF6FD01F8FDFB
3A0E73A0E8424E741D0739CE8420E839
08F9FD06FCF0E803F6F007FF0203F9FD
F30106070F07FDF909010204F00FFA01
094A90852128421094A509421084214A
01050AF9F50602F9F20AF5FF42508425
05F60603FDF50E0805F0FBFE0E060403
A5494A54A5292A4A5494A58BFFFC0805
FF11FE0204F2FFFC4A9494A92A52D2A5
FDFCFFF60201FDFAF0F90BFCFEF30103
B5AD4B5296A529AE03FFFDF7F60609FC
FC04FC0552D6A52D4B5B14B6296A5296
F8F4F8020103F401FD080B03FC0203FB
D8B5ADCF0403FF010107050108FF0203
5B18B5B96C6356C6AD8B5AD8C6316D5A
FDFCF801FAF9FEFFFC020101040407F8
FDFFFDF404FDFCFE02090EFDF9F8FD04
8D7398D731AC631AF6B58E631AC63230
F106FCFBF8F30E0207FFF901635AC641
010B01FBFE02050104FFF4F9FDFCECFD
B5CD6B5D0739EF6B9CD6B651FDF6FFFE
0104021109F6EBFF6B9CD6C5CE7BDAE7
08F60805FD0501FF05FDFCFBFAF71309
17BE1073DEE73A720A06FB08ED070703
FF0601FF73DEE74DEF841CF839EE739F
04FDFCFB0D03FF03FB0909F9ED19F7FF
20F7BE93FDFAFAFF01FBFDFF0C0F04FA
7C20F7D2108C5F08BE0F7BE128423184
F5F0DF12EDFF0105F8FE01FE03F202F8
03FE0AFCF3FF0101FFF8F906FAFAF5FE
3194A1194230842338C6528C630842B4
01F7FDFCFB06FC0901FF070284630856
F9F3FCF8010C05FAF7FBFE1314F9FC01
C6518C65494A7394A518C6D50204FEF9
01F605FDFB06FC038CA518DA529CE329
FB10FEFDFFF9FEFF02FEEF0AFEFFED08
59CE949CE7394AF602FEFC0502EB0AFC
EFFDFD0594E7295E73A5253A4A7294A7
030AFC03FEF6EE04F5050C02FBF60708
2949CF1706F2160B08070B03FFF90709
9D2939E296AD674AD2949CE96A52B5A5
04F10C0204F8FDFBF30EF802FBF60301
0706F503FAEEF908FFF60DFE040406F1
B7B5A95B56B5A52B7AD6D6AD6B5A5339
FC010801FCFFFAF5080202FEA56B4A66
0C02ED0404ED0203F7EE04E6F8FF03FD
DAD6AD6D8B5EF7B5AD6AD75AF70BF905
F70D05FFFC06F808ADAD5AEAD8C5EB6B
040505F602FAF9F3010A0601F902F7FD
9BE318BDEF7B5B7BF9FCFC010D00FCFA
FFFE0000B5EF6B02FACE2D7C5EF7B5AF
FE04F401FAFBF701F5FEF7FD01FD0908
318BDC00FDF2FAFE0100F2F9F9F50103
BE317B831BD66F9CE318BDF1AC6739C6
0BFB06FC060607FFFE080DFF06FF0000
F70AFE08FD00080001F702FBF9050901
20DEB1AD6739C633BCEF5ACE739C6000
F70004FCF908FF05FD040000CE738C03
03000800000104FAF4F9F9FE020F0400
EB5ACE740D037BD6B5ACE40001040101
00F5EE00FCFD0000D6B59C834006F3BD
0000100000F9FE06010CFA00FB000000
0D800006F60D6C00FEFDED060200F100
FE000000DEF7AD03600034006F7BD6B6
00000000060400000000000000000000
000D8000000000EDEB0000000000FF00
0001BD80000036000000DEC000000000
0110FA0604FF0105FFF3FFF9F50A0301
E801FC0110F808F508FA08FA010202FB
00000000000000001000010000000000
02F902FBFC1AF9F3F8F2070800000004
FB0A050CFFF909FFF80F020DF50315FD
042108422084220842108421F6FA01F2
03EDDFFFF5FAFF070842208821084211
F2F4FB060CF30B04FCF910F70202F701
4108441084210842EF0101070409F10C
FE0A04031884310C4210842188421084
04FB02F203FCF1FD0305F8FDFFF90CF6
C6318C63FE0BFA0C16F801FA04FD0AFB
28C641946318C6320C6318C6518C6518
FFFFFF09FAFDF4FFF902F802FB04EB01
03FA03FEFA0507FD01FC01F904FE0204
84210842908421086210A62108421084
F8010B0707F705EB0BE2040431085218
EC0D0BFFFE040E0301F6F6FEFFFAFAFF
18A5294A7294E7294A5294A505FF04FF
FD010DFB0104FAFD394A629CA5294A53
05060AFAFEF0F8F8FE07FB05FA06FB0C
831908318C6318C6EEF8FC05FA16FCF7
0D0501FE418C8320C6318C639CC6318C
0AFF02FFF4F0F8FFFDFAF602FCFD0B09
CE739CE7F1F9F706F7F9F3F9FE0202FA
49CE93A4E739CE7420E739CE939D2939
08F5E504070305FFF6EA0403010302FF
F4FE0F020CFF03FFFC02020308F904FE
08421084A5084210A4214A4210942108
06ED0103F70202FCF5F1DF025210B429
FD0308FD01F80909FE050CFB05FB0D03
29294A52B4A56B4A52A52929FF05FAFB
FE0AF4FFF4FFFC055A52C4AD294A5295
FAFD01080CFD0105EAFF1EF904FB0605
C5298C5294B6354AFBF503F9FDFE0907
FEF0EF056294D5316A5294A5AD4A5294
01FE0906FD010A05FFF20308FD0FFDF8
16C6B96B0305FB0E0101FBFEFCF901FC
6AD6E5B58B5AD6B6316B5AD6D5ADAD5B
FCFFF5FDFB05E7FCFC050AFEFEFFF902
FC0AFE03FEF5FEF80B050E07FCFFF303
AC6318C6B58C6318E6B1CE6358D73D8C
02FAF706FBFF04F104F302FF7318F639
040906FF050706FC050403FDFDFAF904
39AD6B5B0735F06B9AE7C1ADFA04FF04
010616FDFBFAFD017B5B06BDCD6B5AD7
030608F90405F3F604FDDCFDFC07F8FA
17BA3173DCF845EE0CF409FDEAFD06F7
09FF0101839D1741EE739CE7BDCE739D
020106020FFE0105FCF90306FC2106F8
1F08CA0F0604FDFEFCFB03FF050205FE
8BDF37C6107BDEF841EF7BDF283E527C
F703F908FF02FDFAEDFE0A08FBF60101
FEFCF6F5F80D13F90CFCFDFC0105FC04
31842308C610842148C2738461194E30
02FFF80202091A0A10E9F9FE9421484E
F4EE02F3120F0AFDFDFCF4FD1CF7E008
4A318C635946948CA329D251FD040A09
FC03FEFF0B0FF8039C6358D2528C6719
03FE030306FE0802FFFDFC0A05FCF808
69CAB594E53A5672F307FF07F6130603
FE08FCFDA4A569D6739CAB39CE5294A5
09FEF902FDF7FC0501FFF70203F8FD04
274ADA93F3F2040BF5020306FF030712
AD277A5A94A4ED4A52739CE77A4ED69D
0AF3F9FA070406060106FFFBFAFD01FB
ED02130D0802FFFDFF0807FC07FCFBFE
B5AD2F5AD694A5298AD2F7A56B6B5EB4
FC08FBFEF8FF02FBF9F20B04B5698ADE
0B09F70304FC02040DF80801F9FD04FD
5AB5AD6B9B5B18ADAD7BE2D7F707F403
FC0F02EB03130702BDAB9B62D6B5716B
03FC08FB020A08EFFD0DFC07FCFBFAFC
ABDF39B5EF8C66F8FBFDF305FDEBFBFB
FAFDFE01C5EDABE6F7BDB37BDED6B5AD
0D010107F90906F5F603FAF8F7FC1209
319CEB19F8F2ECF5FAFCFCFC06FB1101
CE2FBC6B18C5F58C62F7BDEFBC635BBE
0901F50009FD010002FA09FCF60801FF
F50EFA0004F2FB020406FF06FD05F6FC
39CE379CE718C6300CE760C673AD6F3A
04FC0000FF0AFF03FD00FB06D6700D6F
F60001FA010100FFFCF907F8F60E1400
6B3ACE720D6800CEB5BD835B04FA0200
FDEE01000000F900DEB20D837AD681AD
FE0400F0F3F9FBFA01050900F8100000
0DEC00D6F6000360000A0500000000F8
0000000006F400001BDEC1BDEF5BD6B4
0000FC00FE05F1000000000000000000
000000000000FD000000000000000000
00360000000000000360DEF600000000
11FE04EC0602F7EAFFFB010B0405F7F6
08F807010614FA13FFF404FAFB070504
00100000000000000004001000000000
F4FE10F7FCFB160308F4FFE800000000
F701F10502FEFAF5F1FBF0FE06F4FEFA
8421084210882118421084210CECFD0B
030201FE07F6FCE10842108421188210
01ED020302FD06F2F9FE0705FA05F602
210C422084218842FB0603F309FB05EE
FA05FAFC108421884220C42108421084
0AF7F2FA04F80AF0070508F7FCF7EE08
C6320C630DFEFE0107FDEC02E904FEF8
18C6320C63290A318C8318C631946328
FE02FD070301FD0301FC03FD03FB0203
0505FAFAF601FEFFFFFD01F8FDFAFBFD
84394C4210A421084218843108431084
ECFD0E02F1FCFDF7FAF9F7EF21084290
01EA0101FD09FBFBF8FDFFFBF606FC07
98C5294A529CA6394A5394C502FB0301
F805F2FB0101FA05294C5314A5499062
F604F80DF9FAFDF901F305FFFC01FA02
73A0C7418E64190707F5FFFDF4FA0202
F0FD14ED318E6398C651D2731CE631CC
FFFB0EEEFFFCFAFC0804FB0101FAF402
D0749D28FBFA06FE0FF3FBF7FCF7FC04
39D0741CE7621483A1073A0E8424E849
FFFB11FCF9FF05FC04FFF805060B02F9
010E07090EFFED02F902F6F90AFBEEF7
096A5A942528425094A9095212852149
F0F606F9020215FFFCF810F8421284A1
F7FDFD06F304FE05FCFBFEFB02FCF603
A9494A92A52D2A5A9495A56A11F7FCF8
FDFFFF04FBF3F7F94A5495294A729CA4
FFFFFEF9F8FDE9F9F9FCFBFC01020404
B5B14B62D6A6298BFDED01FEFF05F501
03F7F4FB5296A5AD6C7ADEB52D6A52D4
02FAFAFBF8FFFF05FDFA01FD01FBFEFC
18B6ADAC09FB01F70801FF07F9FAFEFE
5AD8B6318D8320C5B18B5B16C6356C6B
020101FFFC07F60605FC02FE030404EE
0505F8E803FFF90AFFFEF604FAFEFF03
AE8B62D639AC6358D6B98D735AD731CE
EDFDFC0101FFFCFC07FFFBFC631CC6B5
07F4F807FBF1FCF4FEFDFFF902F9FE0E
BDCD6B9AE73DAE7B9CE7B5EFFDFDFD08
F8FDFD0101F901126B9ED739CF93A4E6
F3F5FFFDFC02FD02FE0307F5FE0107FB
F7C1CF83DEF83A100401F30A0706F20A
FEFC091D73E0E7BDF0A3E6F741EE73DC
0904F6FD08F606FEF2FB0209040508FD
2108BE3102FE0E04F8020612FE12F807
7C22F84211AC2907C60F7C1F0845F08C
FC11FDFBF4FAFDFEFBFCF4FFFBF7FCEC
05FBFB0508FDFAFCFDF50102EFF9F8F7
32B46D184A30846118CA119C63194253
FB0806FBFE01FF0104F7D7FE846708C6
FD0101FAFEFAFBFA03FAED1703FD02FB
CE518CA3294E33A4A529C67402FF0307
F7FD05FFFFFD05F38CE9194A53BCAF28
F6F602F5FCF501FA05F9040EF205F80A
3A5254ACE73A4A950110FDF80801FE01
01FBFEFE952B29CE74C4F13952729CE5
F50204FDFBFB03100B030EFF030104FF
294ACEB70C14F40C09F5F807F9F2F6FF
9D6D3A5295CD3349D693A5274ADE75B5
05F50BED07FBFFFC0303FA0606EEFAFF
03FEFDFE07FDF601FB0BF60905FA03FA
B6D5755A5AB4AD695B6296BD6B5B52D8
FAFFFFFF06F8F211FD0501F4A5AF4AD6
0508F101FFF5F801FBF8FDF402F006F1
DED5B5AB6BE6B7C5AD6BD6F916EFFD0A
02030C060307050DB5F15B5AD7DDB76A
000800FAFFFCF7F605F1FFF2F6020804
7C6AD8CDEF7C5B1A03F10104F401F8FE
F9FBFF0ABE736BDEF805C17B62F6C5ED
F601F7F9010402FC0CFF0AEDFE03F3F2
318CDF3B07FFFA020CF5FEFC00FD00FF
C6B57C631906018BE737CE318CEEF9D6
09FDF5FEFD0005FEFDFBFB03F9F90200
05F6FFFEFB07FC0100F600FE040300FF
3A06419C6818D6739D031ADE739D6340
050003EA00FBEE07FB070000CEF78CE7
FD0DFBFE00010002FBFF00010008FBFB
EC1906B5AD833B06B7ADE4000C0000F8
000300FA00FE0000D0019D6B5B0681AC
00F800F4F60000FE000AF5060000FD00
B0034006C1B06800FA000005F706FD00
00F00000D801ADEF6006C1BD001A06F7
FE000005000000000000FD0000000000
00006C00000000F20000000000000000
0001B0000000000D801B000000036000
05F903FF04FC04FBFFF90103040102FE
F7FBF502020810F903FF01FB030A06FE
00080000000000000004001000000000
F9FAE9FCFB0A0E04FCF6F5FD00400000
FDEA04FFFA01F705F702F4F8FF02FE06
84210842108841184210844104FBF501
FFFEFCF3F9FB01F80882108421108220
FEF6FDF3F8FF03FDF904FBF8F50102FF
210C622084210862FC0404FA08FAFE03
0304F2FF10C421084218C43108421084
FA0108F0FEFA0C020509FEFC07F10509
C6318C830303FDF805FFF1F90502FBF7
1906318C632106418C6318C631908328
FF01FEFDF205F8FDF7010201FF0201FF
FFF3FE04FFFBFF01FB020305FCFBFBFC
842988521084210A4294A439084210A4
FC06FF02F9F90205F5F9FFFD214A5210
F7F9FDFE01FDF9FB0605F705FA05030D
94A5294C5318C5414A5294C504FFF9FA
FF02FC02FE01FC04298E6298A531CA62
03FD030601F8FFFAFB06FCFE0402FDFE
639CE6498C6318E6040C0DF1FFED0101
07FEF00831D0731CC63A0C7318C6398E
01EFFB02FE030CF203FD040404F7F3F8
CE741D27F913FE01FD04FCF5FEFEFD10
3A1283A0E7424E839CE841D074210751
F7FCF9FF03140C0CFEF4FB01FB0A02F6
F6F9FB0308F7FB0204FDF9F7FF030AF7
084A90942109521284A5285A1294A148
F8FEF7FAFF031201FBFBFAF242549425
FFFAF6F9FAFDFD03F6FBF5F7FDFEFE09
A52A5A5495294A6254A5256AFF04FFFF
FF08FD0103F9F5F94A96A4AD2952D2A4
FFF7FEF5F603FBFCFC07FF03020503FF
A5AD6B6A96B5A98BFBFEFFFBFE020A02
F5FDFD0252D8B5B14A5B14B5294B6A96
FDFCF804F5FEFDFEFF07FBFF05FAFC04
18C62DAC0301FF02FF03FBFA07FD02FE
5B1AC6B56B6356C5AD6C72D8B6318C73
05FCFE01FBFE01FDF9FCFCFEFC04FFFE
01F609FEF9F7F3FF020403FDFFFBF3FE
CC6B98D6318D7B1AC6B5AD835AD6B1CD
F5FF0C0501F8010C07FFF9FA639CD739
F6FEF9FF04FDFE01FCFDFDFEF6020902
B5AE835CD739CE8B9CE7B5EEF9FEFC01
01FE0706FAF307EF6BDEE83DED7BDAE6
09FFFDFB0204FC0709070604FD020501
E7C1EF93E0F83A3008FBF0FFF7FAF7FD
FFF8F4FB7420F8C22E841CF7B9CF8B9E
FB0302F5FF020303F0FD030501FFF703
2318C251FDFB04FF04FFFB010DFEFB02
7C6309464F8C5F083DF093E0F846109C
FBFA06FFFD041EF303F8FB02FCFCEFFE
05FCFF0305FA02FAF7F7FF0103F6FA0D
70A4A118C2119C2308CA31A465294672
FC01FCFFFA03FEFCEFFFFF0484A519CA
0103FEFD0202FFF6FA04F5FAFE01FBF7
4632A465194E53ACA739CA930102FFFA
03F9FF0303FEFEF894E72A4E91ACE329
F80301FF04F9F502FEFFF202FF05F90D
29D274B4E94ACED40AF70A0302F608FA
FBF1FA019D293AD2B2B52539CA53ACA7
07FB0208FE03FF13F702FCFF04FD0203
2B5BD2F60519F705030203FBFE01F911
A56B4B56D3BD674A4E74BCE93A5A95C5
030209FF0109FEFDFC01FD0B0108FDFA
F907F7FF02FDF2FD05F9FC02F8F908F6
14C5A95AD295C52B5ADEB6D56D6C5717
04FDFDFC01FA1009FE0208FDADAD5C5B
FEF407FC04FFFD03F9FC0CF9F7FD01FB
5AB6CD6D6B62F7DDAF7CDB380AFCF2F8
0006F90AFDFA04FFB5EF6CDF35CDEB6B
02FDFC06F4FE05F8FFF707FFFD03FCFF
7BE71805F18D5F5901F402FDFE08FFFC
F7FB0003BE317D6356D62D7BDED7DDAF
FC02F90200FB0504FB04F0F000FBFD09
33ADE01A07F70105F6FCFF0301FFF9FA
C6738DE777DE6F8C62F805F18C6B3906
00FBF4010DFA05FE000401F100FE000A
FF03FF020001000100FB02F9FB05F403
1806B19CE73906739CEF5A0675B0641B
09000CFC0001F20000FC0000CEB5A06C
000000F800FFF5FFFDF9FEFC00FCFB04
6B5A06B5AD037B06B6006800FFEBF4F5
0002000000ED0000D6F7B0001906F3AD
0000FCFAFE00F60300FCFCFAFA000000
BD800006C0006C00FA000000000000FB
00000000D80000001A0035BD837B06F7
00000000000000000000000000000000
0000000000000000000000FE00000000
000000001B0000000000000000000000
03F5FE060F02FAF503F309FCF80102FF
EDF8F90205020FF4FBF8FEFB0205FAED
00000000000000000000000000100000
02FBF704FE1AF803EFEF020400020000
FD1CFA0406FB06F90311FB09F9FB0906
842108821084210842208421FA0601FE
FB04EC0A02FEFEF80844108421084210
F5FCFE0401FD050FF9FD03FDFCFCFB04
2108421084310842FDF8FFEC09010809
0B0A02FE1086210862108421084210C4
01FC05F60604FD050B04F0FD03ED0BFF
C6418C64F8F604FD050607F402F9F8FA
18C8318C8318C6418C631906318C6318
FD0203F9FC08FCFDFD01F9F20202EC06
FFFEFDF4FAFBF7F80501010307FE0303
A521085290842148421084210A521085
F5FFF50308FCF1FB01E404FF210C4210
F20502F8FA0102FA0204FCF9F70AFE01
14A5298C5294A5294E6294A6FBFFFB08
FE0308FEF3010402294E5294C6294A63
040707F7FDF6FAFC02FDF705FA01FF04
6318C731907318C703FF0AFBFFF7FEF6
FC04F7FB31906318E7318C7398C639CE
0EF2050C0AF0EEF401040609FCFCF502
D4839CEA030BF9F901F6F601FAFE0C03
39D2741D083A0E841CE74210739CE841
FDF8050208010F0201EAFF07100C02FC
F6FAFDFEEFFCF8FEF7FDF50401FB0DFE
29425094A1084A528421094A1694210B
0D12F1FE0403FE070DF8D501421484A5
FF0D0502FCFC0202FE0504FEF1071208
2529529494A52A5258A4A52CF2FFFCF7
060EFE08E6F801FE4A5695294A4A92A5
F8FD0AFC030AF8FEFEFFFF0DFFF90902
A5294F6A9AB5294DF70AFD04FBF905FC
05FBE3045298A5AD6B52D4B5A94A5AD6
FFFE0103FEFFED050308F7030BFF09FA
DCC5AD6EFD05FFF3FEFB02F2FEFE0101
5ADAB6318C5B16C62D6B6358B5AD7072
FD03F9FC0507060203010DFFF201F902
FF070F17FD0201FC0C0404FC0402F704
AD6398D6B18C6B9AC631927B1ED6318F
01FF0403F8FFFDF7F9FDFBFF631CC6B5
F90BFBF406FE02040403FFF8F601F203
35AE73DCD6B5B48360E6B5B0FE02FAFC
08FD1C01FFF004FE6B5ED739CE6BDAE7
04FEFDFE04030403050A010605FDF507
0739D58BA2F739D103F0F512FBFCF9F7
0FFDFDFD73A0E83DEF741CF7B9CF7C1F
FE0B03F9F409FCFE05FFFBFE03FFFDFE
E507BDF3F9F008F8FD02FCF40206F8FB
7BE2F8C2107C5F083DF0846117BE1693
04010204F7FD0FFF0104F405E5F9FDFD
0409030501FF01F00FFB07FF09FDFCF7
5184A118C2118CA32842379C27184214
09FDFC0206FC040A05FC08FE84270946
F3FE04F210FEF901FD070103FCFDF901
46529CE538C658A46928CA3503F70D09
FA04FAFCFCFAEF028C6919CA728CE329
03FE05070EFBFB0804FBFC03FF06FDF8
494A99ACEB394E56FD01F7F6FC13F702
11EC01FE94EB2A4E93952539CA73A527
0EFB0A0208FB02090802FF0204050B02
2D49D277FEE9F205FDFA040503FC0109
9D2D3AD2B49DA74A5294AD6959CEBAB5
02FAFD0AFEFFFBFAFEFFF907190E01FD
FC12F401020B09FFFBFCFDF802020AF9
D5A5E95AD6B6B5AB6A52DBBD6F5A5699
0304F70005F3050DF5080303A56F4B56
FB0602FD0503FFFCFCFF03FD0501F80D
5AD7C5ED7AD6E0C5B16ADABBF305FDF6
FF0AF901F8F70500ADF15BDAF6AE2B6B
FC03FAF7FD0BFFFF010103FF0B080100
9B5B00CDF37B5EC0F6F5FFF4FE01F5FD
EEF50800B6336C5F17B66D7BDEF8CE2F
07FF01FE02F5F608FDFEF300FFFCFCEF
358BE2E0F6FA01F9030D14F904FFFD03
BE757CE338BEAF8C6319DE71ABDF20D6
00FAFCF70BFCFD0001FF04070805FC00
FCF7FA0FFDF907F806FC03F6F704F0FC
79C6F19CE73A06B3BCE340DE779C6700
14090700000600FFFDF9FC00C6B78D67
04FB00F60100020208FCFFF300FFFC00
6B5B06F60D67600681ACEB20FDED0006
00FA00FDFBF7F800CEC19DE81AC835AD
080003FBF8FAF00000000000FB010000
0DE80006C1BD6F40F50000FC00F100F3
F700F900D001A06C1BD037BDEF600000
0000000000000000000E000000000000
000D8360040000FA00000000F9000000
D801B00000D8000000000000006C0000
1AF603F406FD03D912FCFDF60306FAF3
07F50403FF0BF30AFAF6F0F4FD06FE05
00000000000000000000000000000000
F9FA0EF4FF0601F5FAFCFAF908000000
F90BF405F6FDFC08EDFFFEFB07FDFBFD
842108421084211042108821FAF7FC04
05FE0F070209FBDF1042108421084210
FCECFEFB07FE01FAFA02F608FA06EEF8
2108421884210C420B0703F30A090CF5
07F9FDF0188421084210842108421084
FCFEFFF905F502EE080808F203F8F3DE
C63190630301030A07FEEC06EEF7FBED
20C6318C6328C631906318C6318C6320
FE04F406070605FEFCFA02F5FDF80903
070BFAF8040C02F90503FFFFF801F5F9
A4310842188421084210842908421484
F2FEFE04FF06F3FAF504FCF329084210
F8EA050103F20103FBF602F0F80B040C
9CA5294A5294A5314A5298C50605FB02
F20504F5FA030803314A5294C6394A52
FF06F7F7FAFBFDF9FC01050207FDF304
6318C6398C631CE6FEF7FCFB04090701
0308F711398E6318E7418C6320C6318C
FE07FCFEF8F7F40D0109FF01FEFCFB04
0E74210701030AF8F5F6F7FFFD0FF905
41D0739D0849CE73A4E739CE739CE842
FBF609F11203FD0304F7FBFBFAFB21ED
0F060A0805F20DFCF6FBF9FEFC060BFF
29521084290842108421094A5084A528
FC0BFEF40901FDE8F3FE09FE4A128421
110AFF03011CF0FCED09FDFEF6FA04FA
AD294A5294A52A52929529490308FCF5
02FF06FCFEF71A09525494A54A5A5294
FD0BFB08F4FEFFF9F501F905F3F40706
A5294B5AD4A5AD6A07FC0205FC01FEFD
F005F7FF5A96A5296B6294A5314A5294
FAFEF2FCFBFCFAFE0201FC01FE0501F0
16B6318B04FFF4F10408FE04FA0C01FB
62DCB5AD8C6AD6B5B56B5AD6B5AD6C63
FFFF1209FCFE07F8040705F9F601F6FC
FFFD03E7FE06FA04F1FAFCF9F8FEF903
AD7318C6398C6B18C6318D6B98C6B5AC
FDF9FAFD0303FDFBF8F603FE6B1EC6B1
0BFF0302FDFDF4FEFC0302FCF9FE05FF
BDAD735AD6B5AE73DAE739CD0304F009
0502F0FC04FAF8ED7360D735CE7B5AD6
FBE606FEF7FD0EEB07090B06F501F7FC
E739CF7C1CF7BDEE0211FC1502F6FE07
EDF901FE7BA2E7B9EF839CE741CE7B9C
0205FC03F70104F50403FD12F8FFEFF5
5F08420F01F90403FBF8FF09FCFAFCF6
8428F83E108BDEF7C5EF83DEF7BDF084
FCF0FB0BFBFD02F406FEE20CF8F30419
0302FF010602050DF81FF007F1F60AF8
319421084E108C210842118CA318C630
FCF8FE02050402F2FBFC071E8C6B08C2
06F101FD02F9F4020CFAFF03FE0607F6
D2319C6318C63294E5294A51FD020304
FD0302FDFCFFD70594AD19C6529C6318
F2FD01FDF804F3FFF60708FDFC0401F8
294E539D273A4E720908FCF1060B10FC
04F3FEE89CEF2A4A93A4A5295652A4E5
FF0507F8F71103070503FCF7FFFAFD08
694AD2930718FE11FB01F6FCFFEBF9F8
A5313ACEB4ACE739DA73AD2739D274A5
03EF020AFF04F609FAF503F40A0E05F1
04030201FAF6EF07FEE5F90401FF0CED
D5BD295A5E94B5694A5695ADAB5B56B4
100404FF0201FDD4FB05FB07AD734B52
F70AEB07FA1FEDF1F3FE05FDF8EE03F2
E6B5BDAB5ADAB6BDED6BDAD50CEEFFFC
0A0905E6F6FB0BFFB5B55BD6F6C56B6A
FC11F6FAF102FD06FFF0FBF40BF70208
6B5ED7C62F7C62F6FCF5FE0204070705
020FFE03BDF76C5B17CDED7B6AD6C5ED
ECFDFC01020404FDFFFA10061401EAF0
718CE7170B1100F7F91FF9FDF9FDF3FE
C6017CDF38D62F8BEEF7CE2F7BE2F8CE
FD070BFAFF0FF3F505FB0509FE0CFB04
FEF40006F9F7FD03010BFCFB020004F4
59DE719C0318D6718C6719D6B39D6B38
140307FD080402FBFEF6FEF6CE418D63
FB07FFFC000DEB060300F81A03FC09FD
8339DEB39CEB3ADEF5ADEF590A0700FD
0000F4050000FB0BD6819DE77A06B3AC
00DAF1F9F400F4FF000C05F9031203E4
AD6F5B0037B0037AFBEC0004000300F4
00000004DEC1A0681B06F5BD037A06F5
070000010000FAF90100F70000000000
0000001B000000FA00F5000000000000
0001B06C0000000D801B0037BD836000
07F6040207FC08EC0AFB08F7030401FD
F401FAF7FC06F5FF04FAF2020102FDF5
00000000000000000000000000000000
FCFEF7F6FF05FDFBEEFCF9FB00000000
F5F8F0FE03F8F807FAFDFCF0FF03FE07
8421084210842108421084210402F2F3
F90304F1FF01F6010842108421084210
FA01FEFEF4FBFC02FC02DCF8F00DF1FE
2108421084210842FAEF04F60CFB0802
06070105108421084210843108421084
F803FFFD03FDFCF4051109F807F303E1
C8318C63FE0706F003FCFC06FE0BF8FC
20C6318C6318C6418C6318C631906318
FF02F7FA070202F8FEFEEEFE0201F5FF
0607FAFDFA03FDFC03050303F8FFFEFA
8421085210842108421484210A421084
F704F1FE0601FE0DE8F3FBFD290A4290
FF02FF01FEF403F902FC03F8F8030C0F
98A5294A5298A6294C5294A50405FA09
FEFAFDFCFA03FA04314E5314A5294A62
0102FBFDFEF4FDFBFE09FFFD030AF8FF
631CC731D06318E6FC0314FDFC0205FD
07FF030939906398C6318C831CC6318C
FD03F70DF6F9F7F4FBFBFA05F2FDFE09
12739D07FE0C01FB02FB07FD010701FC
41D2741CE739CE93A0E739CE73A0E83A
02F704FC021908FBF7FD04FA1203FFF8
01FEFDFFFEFC05070103F3FC02010E0A
084210A4250842108425094254842128
04FE02EF020204F5080808FF4A1494A1
FEF8FFF6060BF8F7F10606FFF506FE0A
A9294A52A4A92A4A9694A549FE02FFFE
09FEFFFCE6FDF3FE5258A525294A52B4
FDFD02F6F70A01F3F70605FDFE0FF3FD
B52D4B52D8A5298A040A03F1FC0CFDFE
02FDFEFA5A9AB5A96A5294C52D4A5294
F901FB01FDFDFB0505060402FFFDF9F8
1AB5ADAB01030803F903FDF9010605F6
62DCC62D8B5AD6D5B16C5AD6C5B16C5B
FFFD1808FFFB04F7FFFDEBFCF705F903
FCFA0108FC05FFFE06F8FD02FBFCF9FE
AC6318E6358D6318E6B58D6B5CC631EC
FCFE04030203FCFFF6FF04FF6B1EE6B1
F601F5FAFFFAFCF9FEF801F8FCFD0A01
B9AE6B5AF739AE739ED6B60D08FCF9FF
02FBFB15F5F006FF7360F735ED6B5AF6
FBFA0206FDFF0504F7070C030204F5FE
07BDCF7BE0E73A2EFF090A0504FAFE01
09FEFDFB7BA317BA0E739D073DCF739D
03FCFFF105FCFFF9F8010207F602EAFF
22F7BE4F07FDFFF6F2F2FD0104F9FEF6
83E5283E2F7BDF17C1F07BDF1841F084
FC06FE0E0AFCFBED03FB0413E7F4F1FB
040E0C05F609FEF8FDFEF9FCFBFF03FA
508421284611842138C6118C65184270
FF0A14FF04FFFDF8FCFBFDF68C2938C2
03EA08FD0DF90201F6FF06FF05FC0C05
CA338C63494A3294A728C691FF080209
FB01EEF802010603946B4946718C6338
FEFC06F8F3F3FC02F9FF01FD01FDF804
59CE75A4E9394AB30AF5F9FD050208FB
F40303F39CAF59CA9294A5494E549CA5
0CF70107FD09F4FBFEFBF4FBFC041106
2B49CED40708FFF5FFFD0DFE01F8F003
A4F16A4EB39CE759D275A4E76AD297AD
FF0DFC050506FDF0FCFF0902FEF60108
FFFE02F702FAFCFDFAEEFCFD0E021901
D4A5296A5696AD297B56B9BD6D5A52F5
FCFF04FC05F109D6090FFD05AD337AD2
02FCF7040114F006FC010CF9FCFBFD05
DAB7BD6B8BDADAC5AF6AD716010A0410
0B03EEFC04010102B5758B56F5AD6B7A
FE02F5FCFA02FDFAFCF8F5010107FDF6
9C5EFBCDF17B5B77FA02FB04FAF8FE05
F80300FDBDB79BDB16B5AD8B5ED8CDAD
F6F6FE0BFA01FE0108FBF60002FF0B0A
338BDC1802040001040FF304FF01F8FF
C5C1ACDF37BDEF9BE2F9D62FACE300D6
05FF0AF90907FB0008030606FFFC0007
F70D00F4FB12FC0204FD01FFFB0802FB
58C631AC671ADE71BD6720DE759C6019
F906010000FBFC0403080001CE01BD67
0AFCFCFDFD0BF0FEFFFBF1F700FA0600
EB3B06B20DEB4006B7ACE41AFBEE0000
000700FB080A000ADE400DEB79CE73BC
0109F7000102FE0000FC030000FE0800
006F6006C1BD681B00090000000300F8
FAF500000680006C1AD6B40D6F4006F4
FE00ED00000001000000000000000000
000DEC0000FA0000000000F703F00500
06C000001BDEF60D8360003600000000
FDFA03020AFCFEFC0BEC09F6020301FC
F7FA06FAFDF7FEF506F9F20B04F9F8FE
00080000000000000000000000000000
0401F3FFF614EEF1E8F8FB0500000000
FBFEFAFFF6F9FFF7030A02F4FC06FD10
842110421084211042108421F702FEF2
080DF4FEFB05FC020842108421104210
070306FFFF04F71203F4E6FFF4020406
2108421884210842FEE7FEE50F07FF0F
10110505108421084218842108421884
0901050DFDFF01FF07FAFDFFFCEE07DE
C6318C63FEEFFEF8FE070202050BF608
18C6318C6320C6318C6320C8318C6320
F90408F30410FEFC03FDEEFD0303EFFE
FF0405ECFB0303FFF60603FFFB010401
842908421084290A421084290A421084
FDFDF603FE0BF9F5F6E6040321084214
F4FEFE0205FD0301050402FCFE0FF90A
94A5318C5294A5314C5294A5FB06FB0C
F9010AF7F601FF05294A5298A5314A52
FB0303F701F5FCFFFE08F90201FDFEFE
6318C63990631CE70603030602F60CFA
F7030104318E639CC6398E6318C639D0
F8F7030A01F103F1F504FCFEF5FC0509
D273A10802FA0301FE0310FCF309ECF6
39D08420E741D0739CE74212739CE741
F80501FFFFF7100405F1F1F21305EF01
F3E8F9F9EDFE0207F805FAFC0D020A01
0852128421084A548421084A14842529
0915F5FD04FA08FF1BF903FD421294A5
040EFAFCFE06040CFA0E0F05FB0B02FF
A529529694A529525694A94BFAFEFBFE
FF0FFEFEDEFFED014A54A529295A5494
0AFF04F7010EFFF1FF02FF12FCFFFFF6
A5294A5A98B52D6CF612FEE8F7FDFD01
0103F5025296B5AD4A6296A5294A5AD8
FD090108FE0505050611FC0104FDFDF0
DAC5B18DFE08FF17FA0104FC0804FE02
5AD8C6316B6AD8B5AD6B631AB5AD6C62
FE020802080503F904FBEB0106FFFF08
010402FFFDFCFFF201FCFCF8FD051001
8C731AC6318C6B5CD6318D6B1CD635CE
04FB01FF03FE04EFFBEAFAFC631AD6B5
F70EFCFC05FA04FD0AFDFFFCF8030103
B5AD739EE6B5AE739EE6B9EF01010A15
05FAEEF701FDFBFF6B5CE739AD7B5CD6
0902FC0506011004060103FE0AF8F601
F739CF7BE0F73E100102FFEE01FC04FF
0EF402FC739EF7BDCE839EE739CE7BE0
0403FC02F50715FC030102FEFAF7F8F5
2307C231FAEDFD03F8FCF5FA1402FF0A
7BE10849EF8BE0F7BDEF842307BDF084
FE0B02FEFFFEEFFD08FC090CE6F4FB03
0312070BFB1505F901FE0602FCFC02F6
1094231842108C652842118C65184652
07F5FEFF07FBF6FE0CFF0201842318CE
FE0E04FE0401070601050FFD020304FE
C63194A738C63394A728CA730A0F01F4
FD07FAF20BFD01F98C692952319C6528
F5FCF906FA060709FC02F9090409FF01
494A549CE9394E94FCF8FA08F3FB02F7
10EB090494AB39D652A4E73952529D29
1003FB0AFAFFF90707FC0308FC0D0901
2B49D2B5FB01FB03FD04090307F1FEFD
9CED4A5A73AD2949D673A56B69CE75A5
04FFFC0C04F6F802FAF509FFFF1205FD
F5ECF8F7FEFDFF040209F0FB09070F08
94B56B5A5E94ADAD7B5296AD6D5A56D6
F90509FF01ECF7D006070301A52F5ADE
020114020507F50204FD080201070305
E2B5B5EF8BD6B7B5AF6ADAF7F40604EE
0101F5F3F7FBFC04AD716B62B5BDAD6A
01FFFDFC010AFBFEFE02F9FE05F90202
9C5AD8BDF17BDF18F8EFF9FCFA0407FA
0AF6FF02B5B37BE6D6C5EF7B66D6C631
0502F8FA06FD0507FF04F8FB07FEFDE9
738C6339FE050614FAFA01FF0606FF01
BDF58C6B17CE318BEB37CEB3ACDEF9C6
0103FCFE0BF7FD0204FF050B0712FA01
FCFBFA0AFCFE02060905F7FD05FB0505
38D6739C6F58D6F5BD631ACEB59CE75A
FD07FDFB04FD03F6040A0201C6379D6F
0E00FEFA020AF9FEFE00F3FA04000800
8379D8360DE73BD6F7AD6B7BF9F300F9
06000009FAFE0000CE41AD8359DEB5AC
00F306020E0000FC000000000004FA00
006B40D801BDEC00F8FA00FC0000F6F8
00000000D681B0037A06F7BD001A0000
FA0000EE0000000000FFFA0000000000
0000000009050000000000F300000000
DEC000001B00000D801B0000006F6000
0AFA08FEF501FEF9FEF30FFE04EF0C02
00000000000000000000000000000000
00000000000000000000000040000000
F203FC050E0317F6F1FD1A0100000000
00000000000000000000000001FBE205
00000842108421088210842100000000
07FBF401FF13FE0A0000000000000000
0000000000000000FDFA02FB02FFFCFE
21084210C42108430000000000000000
0FF9010B000000000000000000001084
00000000FEFB04FEF9FF040AE80B07FE
06318C64000000000000000000000000
0000000000000000000018C6318C6319
09FBFEFEFE11FDF6FFFEF7FF0B01FB07
00000000000000000000000000000000
00000000000021084210842148521086
FCFBFAFEF90605FFF5FAEFFC00000000
0000000000000000000000000108F808
0000294A5294A529CA6294C700000000
06F901F2FF05E8020000000000000000
0000000000000000FC02FCFF05F60301
6318C7320C7318E80000000000000000
02F9FFF100000000000000000000318C
0000000005F6FC02070803F50603E9FF
4E939D09000000000000000000000000
0000000000000000000049CE739CE83A
0D0308F8F7FF07F6F5F9010307F703FB
00000000000000000000000000000000
00000000000062108421094290A4212A
032AF9FAFC09F8030A040C0200000000
000000000000000000000000FF0CFA09
00006A5294A52A4AD2B4A54B00000000
14FA17FFEAF9021E0000000000000000
000000000000000001FFEDFFFEFCFCFE
A5296B5314D5296C0000000000000000
FFFDF606000000000000000000007294
0000000004FD0201011B03F9FAFAFBFA
56E5AD8D000000000000000000000000
000000000000000000008316B5AD8C5B
FC0504FFFEFB02FAFFF4FFFE09040301
00000000000000000000000000000000
0000000000008B58C6B1AD6398F631AE
FA03FDFBFAFF060106020A0100000000
0000000000000000000000000507FEFE
0000939AD735EE73DB06B5CF00000000
F80202FDF5F9FF040000000000000000
00000000000000000709030AF8FD0903
E7BA0F7C1D1739F00000000000000000
1AF90AFA000000000000000000009BDC
00000000FC0810030202F90210FA04F8
5F37BE31000000000000000000000000
00000000000000000000A41EF83E3084
FB1DF502FB0306F6FD0809F2F6F2FD09
00000000000000000000000000000000
000000000000AC6108C2518CA1484252
07FAFEFA03030305FDF8FEFA00000000
00000000000000000000000002FFFC0A
0000B4A319467294E358C67300000000
FEF7FD07090604010000000000000000
000000000000000001030A05FB11F9FB
29CA939D25694A940000000000000000
FC01FAFA00000000000000000000C4E5
00000000FA110202FBF212E9FCFFFBFF
6979CEB5000000000000000000000000
00000000000000000000CD273A4EB4A5
04F10B0408FA050406F8020901FBFF08
00000000000000000000000000000000
000000000000D5694AD2D5ADAD9A52D6
F303080FE8FF15FB13F6F90400000000
000000000000000000000000FDFD0301
0000DDAB5B56F6B5EFAAD6F800000000
02FCFC0911F9F2F50000000000000000
000000000000000000FEFE0401030109
6BDB17BE31BB5B190000000000000000
F1FB04010000000000000000000005ED
000000000007E5FFF8021003F8FBFB00
720BDF3A000000000000000000000000
00000000000000000000062F7C5F38C6
00FB0E0EF7FB0401FFFB050002FD03FF
00000000000000000000000000000000
00000000000006718CE359CEB40C635B
FF12F1F8FDFEFE00F7F8010000000000
00000000000000000000000000090103
000006B39D677AD6F60DE76000000000
F9000000000000000000000000000000
000000000000000000F7FF04000100F9
A0681BD8000000000000000000000000
000000000000000000000000000006F5
00000000000000FF00FA000000000000
00000000000000000000000000000000
000000000000000000000001B06C0000
03FAF5F9FA02FFFBF705080807F60403
00000000000000000000000000000000
00000000000000020000000000000000
F103FF07FEFC0D040508F30600000000
000000000000000000000000FCF3FE03
00000844108421084210842100000000
0402F1080406F6FE0000000000000000
0000000000000000FDF405F0050CFDFD
21084210842188420000000000000000
0AFC0805000000000000000000001086
00000000FEEFFEFDF8FAFA09F1FEFFF3
C6328C63000000000000000000000000
0000000000000000000018C8318C6318
0EFFF5F8F516FFFD0103FBFD04FDFA0B
00000000000000000000000000000000
000000000000210A4290842108439084
0101F3FBFA010AF80FFDFDFD00000000
000000000000000000000000FF060105
0000294C5314A5294A5414A500000000
02FCE901F3F6FA010000000000000000
0000000000000000FEFF050D0BF70203
6398C7318E649CC60000000000000000
04FAF2010000000000000000000031CE
00000000FDFA0C0CFE0302F50907FFF2
D07520E8000000000000000000000000
000000000000000000003A10741CE839
02F9FAFFFAFEFA07F6FFFBF3F7FC0AF6
00000000000000000000000000000000
000000000000425284A109421285A509
FF28FD02FA0A10FE0BFE04FA00000000
00000000000000000000000009FEFBFD
00004A9495252A4A5496292A00000000
0CFAFC0C01FDF7FD0000000000000000
000000000000000001FF030601FDFF09
A6296B5296A6AD4B0000000000000000
FE03FF190000000000000000000052D6
000000000401F7FEF41EFFF6FD06FFFF
D8B7316C000000000000000000000000
000000000000000000005B18B72D8C5A
0DFEFBFCF9FA03FDFEF901FFF9FFF906
00000000000000000000000000000000
000000000000635AC7B5AD631AC8358D
F3FCEEF7FD010301F8FD01FE00000000
0000000000000000000000000205F901
0000739CD839CE6B5CD8B9AE00000000
E9020AE804FCFB030000000000000000
000000000000000001050809F804FC05
E8BDEF739EE9BDCF0000000000000000
03F30C04000000000000000000007BDE
00000000051509FF07FC01FFFA0807FF
E0FA41F0000000000000000000000000
000000000000000000008460F946107B
FDFDF510F712FAF903FD0BEE08EBFF01
00000000000000000000000000000000
0000000000008CA309CA3184230AC611
FAF504FEF606FEE90802130800000000
00000000000000000000000008040104
000094E51A4E528C651B4A3200000000
03030103F901FFFE0000000000000000
0000000000000000FE0901F6FBFBF8FA
2AD27394A72BCE530000000000000000
FCFAEFFC00000000000000000000A527
00000000FCE801FCF3FFF2F1FCFE0BFD
E93C5274000000000000000000000000
00000000000000000000AD693B5694A4
FEF60DFDF80109070304FFF7F8F8FCFE
00000000000000000000000000000000
000000000000BDAB4BDAB5AD2B5CD695
F8FFFF07F2FC0201F7F9030500000000
00000000000000000000000002F10703
0000C5ED5C5ED6B56D7D5AD600000000
FE010517F2FFF5040000000000000000
0000000000000000FA04FF07FAFF0404
6CE2F7BDAF9DDEF80000000000000000
00FBFEFF00000000000000000000CE2F
0000000002F303FEFD04F802F8FFFE04
F1A06319000000000000000000000000
00000000000000000000D6717D6718C5
00FE05090A0304FEFFFFF60900FDFC08
00000000000000000000000000000000
00000000000006B38DEB39CE33B0673A
00FA04FAFFFF06000002030000000000
00000000000000000000000000FC05FD
000006F5906F5AD674006B4000000000
FFFCF600000103000000000000000000
00000000000000000000F5060000F7F9
A0037BDEB6006F600000000000000000
00000000000000000000000000000037
00000000000000F90000000000090000
C0000000000000000000000000000000
000000000000000000000001B0000006
05F906F8FA010511FCFC0503FEFD01FE
00000000000000000000000000000000
00000000000000000000010040000000
F006F7FAFE030F080F090D0600000000
000000000000000000000000FE0304F9
00000842108422088210842100000000
0AFCF50C080505FD0000000000000000
0000000000000000FD02FCF5030AFC0C
21084311042108420000000000000000
FBFD0A09000000000000000000001884
000000000AF603F1FAFC01FAF7FDFFF4
48318C63000000000000000000000000
0000000000000000000020C6318C8419
FE03FEF9FE1B010807FF07E90106F70B
00000000000000000000000000000000
00000000000029084210A5218A521484
F0F7FF010105FFFD0C0102F800000000
000000000000000000000000FE0AF305
0000314A5294C731CC6298A500000000
0903F2EF02F0FEF30000000000000000
0000000000000000FEFF080C01F401F6
6318E83A0E731CC60000000000000000
F8F7F80400000000000000000000398C
0000000004FFF6130803FF14F702FCF8
5083A0E8000000000000000000000000
0000000000000000000041D0739D0942
06FBFEF4FEFDFB06F7F8030208FF0505
00000000000000000000000000000000
0000000000004A1284212A4A92942509
F635060B150113030605F9FE00000000
000000000000000000000000FDFE08F5
0000525494A54B5314A4A92A00000000
05FE010104020BFA0000000000000000
0000000000000000FE0102FFF2FFFFF6
A5296C5B56B52D4B0000000000000000
FE03F307000000000000000000005A96
000000000B02FEFBFF22FFFEFEF907FD
98C5B16C000000000000000000000000
0000000000000000000062D8B5AD8D6B
FCFF0101FF0A04F9FC0806F707FFFFFE
00000000000000000000000000000000
0000000000006B1AC631AE73DAD6358D
FCF8EC0505F816E8FBF606FC00000000
00000000000000000000000003FFF80B
0000735CD6B5CF841CE6B9AE00000000
FD0505010F0102040000000000000000
0000000000000000FF0EFC09EFF9FD02
E739F08C5EF73DCF0000000000000000
F9F0FEFE000000000000000000007B9E
0000000006FF0CF8FF09F8F8040105F7
A107C210000000000000000000000000
0000000000000000000083E0F7BE1194
FB01FB0FEFFFFA01FFFC03EF05EC02FB
00000000000000000000000000000000
0000000000008C23084232ACE3184631
EFFA0503F405FF01FA03010500000000
0000000000000000000000000209030E
0000946518C653B56528CA5200000000
FF03FB0BFF02040E0000000000000000
0000000000000000FDFFFCFA041AF8FB
294A74BDA7394E730000000000000000
1503FAFB000000000000000000009CA7
00000000FF0DFFF9F702F70AFC010DFE
E949D294000000000000000000000000
00000000000000000000A4E939CE95C5
FE0D03F6F5FA020A04FCFFF90AF407FF
00000000000000000000000000000000
000000000000AD2B4A52B6CE2D5A56B5
FD01FE0B040507FEF9FB05FE00000000
00000000000000000000000001FC0704
0000B56D5AD6D7D66F6ADAD600000000
FA0211F50402FDFF0000000000000000
0000000000000000FCFC16F2FBFF0401
6B5AF8DEF37B5EF70000000000000000
FC0203FD00000000000000000000BDAF
00000000FEF9F1FFF2FBFCFE000008F1
358BE318000000000000000000000000
00000000000000000000CDF17BDF1B00
04FDFCFDF9FE08000000F81405FEFF01
00000000000000000000000000000000
000000000000DE738C632000379C6739
FD120100000000030C05FE0E00000000
00000000000000000000000000F903EE
000006B59CE7400001ACEB5A00000000
00000000F6FCF4010000000000000000
000000000000000000FBF705F9050200
AD6B6000000DEF7B0000000000000000
000000000000000000000000000006F7
00000000000000FF04FC000000000000
00000000000000000000000000000000
000000000000000000000001BDEC0000
05F701FA0A0101FA0A0605ECFCEA07FE
00000000000000000000000000000000
00000000000000000000000000000000
F7FDFF0A14F808FAFFFCFDFE00000000
00000000000000000000000004FEF71B
00000842108421084210842100000000
0905FEFCF615FFFD0000000000000000
0000000000000000FDF4FFFFFAFDF803
21084210842108420000000000000000
01F5070D000000000000000000001084
0000000003F6FBF8050404F8FBFDF8F9
C6318C64000000000000000000000000
0000000000000000000018C6318C6418
0BFEFDFCFCF2FF04FB0EFBFF03FFFA04
00000000000000000000000000000000
00000000000021084210852108421085
F806FAFEF301F304F3FBF10D00000000
00000000000000000000000002030705
0000294A5294A6294A5294A600000000
05FC01020407F8FA0000000000000000
0000000000000000FC0602F9FE0304FB
6318C7318C6318C70000000000000000
06F8FDFF00000000000000000000318C
00000000FDF0F7F7FC0701F2FE03090D
CE739CE8000000000000000000000000
0000000000000000000039CE73A0E839
06F60BF20AEA01EDFEFF01FAFBF304EE
00000000000000000000000000000000
00000000000042108425094210842109
06FE05030818F6FF0BFEEE0400000000
000000000000000000000000080902FD
00004A5294A92A4A5294A92A00000000
10FBFE02F4FCFF1D0000000000000000
0000000000000000FFFAF210F7EDF8FC
A52D4B5294B52D4C0000000000000000
FE05F807000000000000000000005294
0000000003FFFFFC01FAFEFA0119FE03
D6C5B16D000000000000000000000000
000000000000000000005AD6B5B16C62
0F01F3FAFBFCFFF602F302FFF901F702
00000000000000000000000000000000
0000000000006318C6358D6B1AD6358E
F904FD01FAFFED03FDF905FD00000000
000000000000000000000000FF010401
00006B5AD739AE735CE6B9AF00000000
FBF70304F8FAF7040000000000000000
00000000000000000206140309FA0101
E7BDCF7B9EF73DD00000000000000000
FFFAF6FD0000000000000000000073DC
00000000020806FEFEFEFFFF0409F909
E107C1F1000000000000000000000000
000000000000000000007C1EF841F083
0910FE0307030AF7F401F80B05FD0106
00000000000000000000000000000000
000000000000846108C6118C23184612
03F604FBFEFCFFFC0A02F6FC00000000
000000000000000000000000F8010107
00008CA3194A32946528CA3300000000
FA0BF8FF0102FC040000000000000000
0000000000000000080302FEFDFE06F8
29CE539CA7394E540000000000000000
F8FFFC020000000000000000000094E5
0000000007030F02FE01FFF4FAFAFEFF
E94A5276000000000000000000000000
000000000000000000009D274A5274A4
FCF816FA0AFCFC0B0DFFFE0118F4FF04
00000000000000000000000000000000
000000000000A5695AD697AD2B5AD697
01FE0D0302FEFFEC06F90F0100000000
00000000000000000000000002F6FAF4
0000ADAB6B5AB8B56D6B5AB800000000
100504F0FFFA0EF00000000000000000
000000000000000004FEF501FAFF07FD
7BDED9BDAF7BDED90000000000000000
FDFFFA0400000000000000000000B5ED
000000000105F6FF01FE04F4F8FFF5FC
318C62FA000000000000000000000000
00000000000000000000BE2F8C62FAC6
FF021207F7F804F90502FAFFFDF6F0FE
00000000000000000000000000000000
000000000000C6719CE71BCE73ACE71B
02F90600FFF8FF0208FCFC0000000000
000000000000000000000000FF0BFE01
0000CEB3AD6B20D6B7BD6B2000000000
F1040000FCFC01000000000000000000
000000000000000003F5F800FCFD0500
0DEF40DEC00DEF400000000000000000
0000F00000000000000000000000D6F4
00000000FE00FF000000FA0000000000
00000360000000000000000000000000
00000000000000000000D83600036000
04ECFB0302FFFCF90503FAFB03F50301
00000000000000000000000000000000
00000000000000000000000800000000
0105050305FB03F70B06F80100000000
00000000000000000000000001F3FE10
00000842108421104210842100000000
02FEFCFDFA05F8010000000000000000
0000000000000000FDEFF8EF0403FBF9
21884218C42188420000000000000000
FCFB040C000000000000000000001084
0000000001F10A040103F602FA06F7F3
06328C64000000000000000000000000
0000000000000000000018C6320C6321
1001F9FBF9F801FEF802FFFF01FBF9FE
00000000000000000000000000000000
00000000000021084290842948431085
FF01FBFD02FBF003F7FEF10800000000
00000000000000000000000001FE0808
0000294A5314A5318A5414A600000000
F7FFFD04F70101030000000000000000
0000000000000000FE040A04FE0102FE
6398C639CC6498C70000000000000000
09FA020200000000000000000000318C
00000000FEF0FDF50805FDFDF7FFFFFE
0E751CE8000000000000000000000000
0000000000000000000039CE741CE742
03F5F804FE07EFF5FC0F02F7F8F9FEF1
00000000000000000000000000000000
000000000000421284A1084A5085A109
02EF06F7080EF7FEFEF6F10100000000
0000000000000000000000000CF601FB
00004A5495252952D296252A00000000
FCF4F90DFFFFFEFD0000000000000000
000000000000000002FAFB0303FE0DFF
A5A94A5B14A6A94B0000000000000000
F3FAF919000000000000000000005296
0000000007FFE7FBFDF8010403FCFFFD
96B72D6C000000000000000000000000
000000000000000000005AD8B62D6B63
0F01FBF5FEF9FCF7FE09FB05F003FB0B
00000000000000000000000000000000
000000000000631AC7318C6BD8C7B18D
07F9FFF7F002FA0701FC06FE00000000
00000000000000000000000002F906FF
0000735CD7B5AD741AD835AF00000000
F704EFF4FAFFE5010000000000000000
000000000000000001F90206FBFEF5FD
E839CE7C5CE8B9D00000000000000000
FEFFFBFF000000000000000000007B9E
0000000006F50CFBFCFDFA010604FDFA
A0F93DF1000000000000000000000000
0000000000000000000083E0F8BDEF84
FC03020203FC0BF5F9F3F501FFF70104
00000000000000000000000000000000
0000000000008C230942108CE309C212
FEF6FFF8FA08FE06F3EEFCFE00000000
0000000000000000000000000B09EE0B
0000946519CA3195251A463300000000
FD02FE01FFFCFB020000000000000000
0000000000000000FEFF0CF4FB0201F5
2A4E539DA72B4A540000000000000000
0A03EB0300000000000000000000A4A7
00000000FE0303F90601F7EEFDFFFC0B
E94BCE76000000000000000000000000
00000000000000000000ACE93AD274A5
FE0502F903FCF7040AFFFF01F4FEF003
00000000000000000000000000000000
000000000000B52B4B5695AE2B5C5297
FBFFFF0404F4FFF0F3FA090100000000
000000000000000000000000FDEE07F7
0000BD6D5BDEB6B6AD6CD6B800000000
080102FFFDFE0CFD0000000000000000
0000000000000000FFEC0D0604FC0A09
6C62F7BEEF7D5AD90000000000000000
F9FF060D00000000000000000000C5B1
00000000FBF5F505F4FDFC01F600F0FD
318DDEFA000000000000000000000000
00000000000000000000CDF37CE718C0
01FEFB01FBFE01FDFE00F60C00FEF402
00000000000000000000000000000000
000000000000D6358DEB39C83390631B
0001FFF50200FA0800F9040000000000
000000000000000000000000FFF3F6F9
0000DE77906F5AD035B0672000000000
F800010000FD06000000000000000000
000000000000000000F900030000F5FE
A0037BD836006F400000000000000000
0000F700000000000000000000000681
0000000000FA00020000000000000000
00000360000000000000000000000000
0000000000000000000006C1B0000000
05F5020303FE02FCFA0103FB13F60206
00000000000000000000000000000000
00000000000000000000200000100000
0108FB0308010907F907FD0B00000000
00000000000000000000000001FC03F1
00001042108441084220842100000000
010303FB1307FA030000000000000000
00000000000000000203F9F70301F6F4
21886210C43188420000000000000000
FFFFFD06000000000000000000001884
000000000BFCF4FA03FFFFFCFBFDF701
46420C63000000000000000000000000
0000000000000000000020C6328C8319
FE02F7FE0203FFF90102F7EB06FEF40B
00000000000000000000000000000000
00000000000039084310A4218A529084
F9FF0304FCFEF604FD030AF400000000
0000000000000000000000000403FB07
0000414A6394C529CC6314A500000000
0201F9F1EAF6F9FC0000000000000000
000000000000000007F613F102FC0101
7418E6320E739CE60000000000000000
09FE04040000000000000000000049CC
00000000FFF60206FE01F9FFFC05FDF9
50842108000000000000000000000000
000000000000000000005A0E849D073A
0EFDF6FBFEFEFCF1FE04FFFBFBF8F4FB
00000000000000000000000000000000
000000000000625095212842D294A529
03040AF9FBFEFF07F9FE03FD00000000
000000000000000000000000FB02F4EB
00006A92A5A5494B14A5294A00000000
0EFB01FCFEFFEFF80000000000000000
000000000000000003FF0AFFFC03FD01
B6A96A5356B5AD6B0000000000000000
F9FFFD08000000000000000000007314
00000000FDFBF5F9FF08FF0101FCF402
98C6318C000000000000000000000000
000000000000000000007B56C72D8B5B
0506F80401FAF2F70306F8FF0FFC0502
00000000000000000000000000000000
0000000000008398D7B1CC63DAD735AD
03FEF9F7FFFFF6EB09F7FFF800000000
000000000000000000000000FEFB0107
00008BDAE835ED6C1CE7B9CE00000000
F4FA02F90106F3010000000000000000
000000000000000005040B01F6F708FD
F8BA0E745EF83DEF0000000000000000
F8F2F50100000000000000000000945C
00000000FC03F6FF02FFFAFDFAF401E7
E108C230000000000000000000000000
000000000000000000009C9F093E2F7C
010A150BFEFF01060704F2EFFBF4FD02
00000000000000000000000000000000
000000000000A4E119C2518523194652
01FEF9FDF2FFFC020EFE060B00000000
000000000000000000000000FE080BFA
0000AD232A4A728D6529CA7300000000
FCFFF909FB0409FC0000000000000000
0000000000000000FDF8F2FB0A09F5FA
3ACE9395A73A4E940000000000000000
F905080100000000000000000000B565
00000000FCF8FF0101FC04F0FF05F507
E94AD2B5000000000000000000000000
00000000000000000000BDA74B52B49D
01F601FD0502FF07FE0102F607F80901
00000000000000000000000000000000
000000000000C5E95BDAD5A62D5B56D6
03080E05080408F3FF0302FD00000000
000000000000000000000000FCFE06F6
0000CE2B6C5EF6AE6F6C5AF700000000
05F9F6F1F702FDFD0000000000000000
0000000000000000FFFCFBEE01FDFB0A
7CE317B6B17CDF180000000000000000
F604010200000000000000000000D66D
0000000001F50A04FF05080209FE03F7
F38D6339000000000000000000000000
00000000000000000000DEAF8D6738BE
00FAFFEDFAFAFAF5FE00FB0DFDF60118
00000000000000000000000000000000
00000000000006F19DEB59C0359DE75A
000002F50500FCFC0002F4FE00000000
0000000000000000000000000000F1FF
00000033A0037AC837A06B7B00000000
0900000400FC00000000000000000000
00000000000000000000010700000002
B0001BD001B06C000000000000000000
00000000000000000000000000000037
000000000000000000000000F5000000
00000000000000000000000000000000
000000000000000000000000000000D8
FCF6FF0F0A02FAFB100101F3FDF5FD02
00000000000000000000000000000000
00000000000008000000000000000000
FEFA030A15F7F5F706FBFE0100000000
0000000000000000000000000503FF18
00001042108421084210842100000000
050C08F7F213FCFD0000000000000000
000000000000000007FA0503F7FCFC04
21084210842108420000000000000000
01F60B06000000000000000000002084
0000000003F7F5F312010501FEFFFA02
C6318C63000000000000000000000000
0000000000000000000028C6318C6318
FBFD07FEF9E303FB050FFF02FCF8FA07
00000000000000000000000000000000
000000000000310A4210842108421484
0205FE05F809F303FE05030300000000
000000000000000000000000FC08FFFB
0000394C5314A5294A6298A500000000
05F9030F03FD02060000000000000000
0000000000000000020AF9FCFB0705FE
6398C7318C731CC60000000000000000
FEF107FD00000000000000000000418E
0000000004F60FEA090405F1FC030E01
CE83A0E7000000000000000000000000
0000000000000000000049D2741CE839
FBF7FAEEF701FEF9F6080504F30706FA
00000000000000000000000000000000
000000000000521484A1094210942508
FBD80501100F03FA1201090200000000
000000000000000000000000FF0C03ED
00005A5695252A4A52A4AD2900000000
0D17FD02FF01FD030000000000000000
00000000000000000E07F014F9DCFAFD
A5AD4B52D4B5314A0000000000000000
0701FC01000000000000000000006298
00000000FF01FEF301FB01FC07FA0405
16C5B56B000000000000000000000000
000000000000000000006ADAB6316C5B
02FC08FCFE02F7FBFDF909FCF4FAF512
00000000000000000000000000000000
000000000000731CC7358D6358D6398C
0B05F9FC04FB0307FFFD030300000000
000000000000000000000000FD06FCFD
00007B5ED7B9AE6B9AE6BDAD00000000
FB08EC0109F30EFF0000000000000000
0000000000000000070807F9F9F606FE
E83DCF73DCF741CE0000000000000000
05F7F7FF0000000000000000000083A0
000000000506FDF405FD16FFFFFFFF02
1F07C5EF000000000000000000000000
0000000000000000000093E2F8C2107C
070C0705FE010AF7FE02F50D0C030305
00000000000000000000000000000000
0000000000009C250946318461184A10
05E703FCE708FDFA11F909FC00000000
000000000000000000000000FD1406F9
0000A46719CA528CA328D23100000000
01F30905FEF706080000000000000000
0000000000000000FE04FFFD0305FEF9
2A4E7394E53956520000000000000000
03FA0FF800000000000000000000ACEB
00000000FD09F5F90606F8F0F905FF06
2749DA73000000000000000000000000
00000000000000000000B52D3AD2949D
FCFC09F70AFE1208FBFC0604FEFD08FF
00000000000000000000000000000000
000000000000BD6F5B56B5A5695A5E95
04020C0F0602020202010A0300000000
000000000000000000000000FEFE03F9
0000CDB16BDAD6ADAB6AE2B600000000
06FDF9F506F803010000000000000000
000000000000000006020A070FFC0A0F
7C5EF7B5ED7B66D70000000000000000
F7FCFAFE00000000000000000000D5F3
00000000FD08FCF0F7FD0CFF1001FD04
2F8BEAF8000000000000000000000000
00000000000000000000DE358CE319BE
00FCFE0602FC06FDFAF9F7F309F809FC
00000000000000000000000000000000
00000000000006779D6B3AC6719C6F19
F8FF02F509F304FDF600F00300000000
000000000000000000000000000900FD
00000681ADEF5BCEB3BC833A00000000
FB030300030009FF0000000000000000
000000000000000000F700F800000900
B00360D6F40D035B0000000000000000
1000F7000000000000000000000006C1
000000000000000000000000F3000200
360D8360000000000000000000000000
000000000000000000000000000000D8
03E80B11FB01F3FB0CFBFDF3FFF90101
00000000000000000000000000000000
00000000000000000000000000000000
0DFD060C05FFF7F7020508FE00000000
000000000000000000000000FDFE0505
00000842108421084210882100000000
FB0103F101FFF3FF0000000000000000
000000000000000002F4F6FBFCFCF8FF
2108421084210C420000000000000000
F2FBFF04000000000000000000001084
00000000FDF00D080701F20403FE01FC
C8319063000000000000000000000000
0000000000000000000018C6318C6318
0C01F9FF02E604FFFF07E701FCFEFB04
00000000000000000000000000000000
0000000000002108421084210A421484
0B0704FFF5FE01F9FAFF020100000000
000000000000000000000000FE0906F8
0000294A5294A5294C5298A500000000
FFFB0B0104FD0B080000000000000000
0000000000000000FE0A01FDFF0501FE
6398C6318E631CC60000000000000000
FBFEFB0400000000000000000000318C
0000000001F5FDE7080201FCF602FD08
D07420E7000000000000000000000000
0000000000000000000041CE741CE739
09F40401FCDBEDF4FEFC04FDFFFBF5FD
00000000000000000000000000000000
0000000000004A1084A508421284A508
07DE03FF0602F10106F9070400000000
000000000000000000000000FFFCFFF9
00005254952D294A5495292900000000
030B0408FFFC0CFD0000000000000000
00000000000000000303FF06FDFA0902
A5B14A52D6A5AD4B0000000000000000
03FC010E000000000000000000005A96
000000000EFEECFD0EFE020402FA0404
18B6356C000000000000000000000000
0000000000000000000062D8B7356B5B
FF0101F70806F6F901FAFA02FA03F905
00000000000000000000000000000000
000000000000731CC7B98C635AC7398D
02F6FDFB0202EEFDF7EEF8FE00000000
00000000000000000000000005FD01FD
0000835ED83DAD6B9CD7C1CE00000000
EF01F7FC05EDF1FB0000000000000000
00000000000000000601FCFD02FF03FE
E8C1CF73DEE845EF0000000000000000
0AFE0C020000000000000000000093A0
00000000FFF40BFF01FEFDFCFA04F60F
2108CA10000000000000000000000000
000000000000000000009BE30945F17C
FE09F8080BE604FFFC02F60CFFFD0EFE
00000000000000000000000000000000
000000000000A42519CA128463195231
100901F8F30306FCFBFE030500000000
000000000000000000000000FC0F05FF
0000AC672A4E338CA529D65200000000
FCF00401FBFCEEFC0000000000000000
0000000000000000FCFEFEF90506FEF3
3B525494E73A5E730000000000000000
FD01F90100000000000000000000B4A9
00000000FC08F9F703FEF50BFB04F601
294AE294000000000000000000000000
00000000000000000000BD2B4BD6759D
FDF408F90DFFFD0CFAFF0206F6F90103
00000000000000000000000000000000
000000000000C56D5C5A96A56B5B66B5
F6F9FB0C04FDFAFC01FEFDFE00000000
000000000000000000000000FBF60306
0000CDAF6CDEB7ADAD6BEAD600000000
0AFBF9FEF9FA07010000000000000000
0000000000000000050CFEFB02FEF6FE
8D62D8B62F7CEEF80000000000000000
0200FAFA00000000000000000000D5F1
00000000FD050B01F6FB08FC07F9F6FC
718D0319000000000000000000000000
00000000000000000000DE339DEAFABE
00FCFCFF00FEFBFBF6F201FB1100FB07
00000000000000000000000000000000
0000000000000675A06F3BC6B39D833A
0000FF00FE00FEFC0000080000000000
0000000000000000000000000006FB0D
000006F7B00340D035A0034000000000
FC0009060000F8000000000000000000
0000000000000000000000000000FC00
000360D837B003600000000000000000
04F608FF000000000000000000000000
0000000007FC0911F5FD01F803FE010E
00000000000000000000000000000000
00000000000000000000000000000000
FDFEF0F112010A080EFEF8F60E020805
00000000000000000000000000000000
00000000000008821084210842108421
FCFF01F1040709050705070200000000
00000000000000000000000002F9F605
000010C4210842188421084200000000
04020706FC0B0D070000000000000000
0000000000000000FC01050CFBFCF00D
318C6320C6318C640000000000000000
FFFFF903000000000000000000001906
000000000907F4FE01F001F8FC030207
08421085000000000000000000000000
00000000000000000000214842108429
FE05F8FB1108050501FDEDF4F3030503
00000000000000000000000000000000
000000000000298A5294C5314A5294C7
04010404FC03FD05FEFBF4FB00000000
000000000000000000000000FFF80AFF
000031CC6318E6398C631CE800000000
04050CFAF90603130000000000000000
000000000000000001F6F5F20404EEF8
739D0749CE73A1090000000000000000
01FCFEFF00000000000000000000420E
0000000005FBFF07FDFDF8F1090202FE
1084252A000000000000000000000000
000000000000000000004A5084212852
FB05FF0508EA0FF806FB0701F7F903F9
00000000000000000000000000000000
0000000000005A9294A5495A5294A94B
0DFFFDFA0203EF0AFEFEFCFF00000000
0000000000000000000000000B02FCF7
00006314A5296A6294A5B16C00000000
FE030603FFFBFB040000000000000000
0000000000000000FB09F40602F0FA01
B5AD8B6AD6B6358D0000000000000000
FE0103FB000000000000000000006B96
00000000FEFA02FD03F801F8F602FCFC
18C6B9AE000000000000000000000000
0000000000000000000073DAC631AC73
FDFE03F40401FBFCFAF5F7FDE20604FC
00000000000000000000000000000000
0000000000007C1EE6B5CD7B5AD73DCF
1004F9040401E9EE03F1F30300000000
0000000000000000000000000307FE02
00008460F739EE83DCE7C1F000000000
F5FEFFF4FFF701FC0000000000000000
0000000000000000FEFF14F404FC0B01
07BE0F8C5F0846110000000000000000
F205F906000000000000000000008CA3
000000000205F9020BFF08FEFB01EFFC
A118CE32000000000000000000000000
0000000000000000000094E518423094
FB09040902FEFF05FBF1F5FFFF060309
00000000000000000000000000000000
0000000000009D2728C651A4E3295253
04F1F7FA0CFC03070C0207FB00000000
000000000000000000000000FEFAFDF4
0000A569494A72AD6539D67400000000
06030206F2FFFA020000000000000000
0000000000000000FD03FB01090FFBF6
59CE93B5A74A5AB50000000000000000
FB0502FF00000000000000000000ADEB
00000000FF03FF080A05FCEA04FFF204
E95AE2D6000000000000000000000000
00000000000000000000B62D6A52B4BD
FC05FAF305FFEF09FEFF040602F50BFE
00000000000000000000000000000000
000000000000BE6F7AD6D5C62B6B66F7
02FE0B0F05F903070401FCFE00000000
000000000000000000000000FDF9FEFF
0000C6B38B5AF6CEAD7BEB1800000000
0901FBF9F2F80C010000000000000000
0000000000000000FDFEFE030804FC0C
9BDF17D6EF8C6F390000000000000000
FF00020D00000000000000000000CEF5
0000000003000F0D0A010504FA00FC08
319C835A000000000000000000000000
00000000000000000000D037BC6338D8
000000000502FCFE000006FAF8000403
00000000000000000000000000000000
00000000000000000CE7590033AD037B
04F500F70000FFFF0800000000000000
00000000000000000000000000000000
000000000D681A0035BD800000000000
00000900000000000000000000000000
000000000000000000000000FAFE0005
0DEC1B00360000000000000000000000
00000000000000000000000000000000
1A0405FBE8FBFC060F0A0E290CFFFF01
FFFEFCF50707010AFE02F5F5FFF6F303
00080000000000000000000000000000
F105F1F90CFA09030BFEFC0E00000000
07F90D05F70D0401FE05F1060C0F0402
84210842108C2108421088210B01F811
FE050DF4FAFD09080842108421104210
0306F6F4F7F20C06F8F9FD0CFF0201FF
2110421084210C42FF1209040BF801FD
FCFA01FB10C421084218842108421084
FDFC09FCF601FD03FC05FB01FE04F9EF
C63190830905F703030CFC040CFB03FF
1906318C6320C6318C6318C631946318
06F806EC0BFEF601F60402FDFD0A0CFB
020BFDFAFC0EF70BFEF9FC0206F803FB
842908421084210852188421084214A4
FD0203FD070DFB02F8F806FA21884210
FB020402F8F101F80E0C03F7100CF605
94A5294C629CE5294A5298C5FF050204
FDFEFB061007030729CA5314A5314A52
FEFDFFF6FC060DFE0407FD070E0C0601
732506318C631CE605F80A0107030BFD
F5020503320C6398E6398C7318C6318E
01F5F90107FCFB05F6FEFF0502FE0A11
CE73A108FE01F6F005F9F607F7FAF9F6
3A4E741D0741CE839CE739D083A92739
0D0DFFF8FEFD09FC0C0202EE0DF80803
FFFF15FDFBFAFF040805020AFC080702
284A109421084252942D484210942529
010508050801ECFEF9FB0604429084A1
0106F701F4F8FCEFFD1DFDF6F70B06EF
A5294A94A4B1694A52A4A94AFFFD0204
FC060309F80104FA4AD49525495252A4
02F604F1FAF6FDF10EF70708F9F8FBFD
B5358A5A94B5316BFCF9F9FCFB02F9F9
EC05FF025316A5A96A6294C5294A52D6
EBF80102F00201FB010A060704F402FD
D6C5B58CF604FC0402FC03F8FA0F030C
6358B62D8B6AD6D5AD6B5B18C5BDAB62
02F5FF06FC0503F5FD0601FB05FD02F8
040102EE07FBF809E7FFF70E08FC03EF
AC7318E6318C635AD641CC6B18D639CD
FD0303FD05FD0316FC0505F06B9AC6B1
09FF0F010303FCFDFCF5F80EF2ECF50A
B5AD6B9CE6C9ED735AE6BDEE0205FA02
F7F9FBEFFC0104037BDCD735CD7B5AF6
0F06F801FA0BF9FA2904FD10EE01F403
F74E0E7B9CF7420FF6F50AFF0CF902E9
01FEFB0B8C1EE7B9EE839D0739CE741E
F4F91004E6FE01030B04F60206020603
DF07C630F6F6FB06FE070707FDFBFEFF
9461083E0F8BDF17BDEF7C6107D22F83
FBFD0608F501FF0AFA04F81104FBFAF3
F8FEF9FE0112F90E0CFCFF0504FF0CFE
30942128421084A31856508C21184A51
010304FE0904FFFCF801FDFE9CA318C2
0203F50FF5F1F5FC05FCF8FF0A0312FF
C6318CE5295A729C6328CE72FE030706
07FC061EF902FBF6ACE52946519C6338
FB070201040408FCFA06F506F5F3FE0A
39DE93A4A539569301F8F90409FF0C07
0409FDF5B52739CE72A4A5494A729527
FA0103021AFFFE05F9FE0805FBFBFF02
E749DAB4FF0B0A03FFFFFEF6EA0702FA
BD694A5293ACE759CE939D694A62B4AC
1005FE070EE8FCFFF5FEFBF0FBFE07FF
09FB0EF1F907F3F50804F9FE020406FA
B4B5296A52B5A5AB5AE6D5B5295A5ED5
030705FE030201F3F801FBFBC5AB5AD6
F802F7F102FBFEFBFFFB0A0AE80104FB
D6D7ADED6B6AF6BD6B6AE2F6F9FC0606
0BF7FFFCF80BFB01CDED6B5AD5BD6B7A
F701F8010CFA0502F0FFFA040D09FCF8
7BF317C5AD7B6717FA0EFEFCFCFD0508
12F8F7FCD62F7BDEF6C5AD8B5AF8B62F
0BE9FEF8F5FD06FE02FFFFF909FE05FE
EF8BEB380CF708FDF604F9070106F8FB
DE718C6717CDEF9BDF19BE718C7738CD
0C08FBF6F4F001F104FB02FDFEFBF50B
01FEEBFDFE050E0410FDFB0AF31304FE
39D631AC673AC6B39CFB59D6319C7359
FE0B0601FC1201F903020410E6B39CEB
0AF3F9F7EBF4FCF5071606FCFBF903FC
EB5BCEF5AD7F7ADE73ACF77A01FE09F8
06FC061BF801F9FBEEF5AD6F5ADE73BC
01F80508FDFB0B01F0FAFDFDFB00FE02
BD839BE6B7BD7B9BFC06FAFDF8FEFDF8
FB010801F737BE737BE6B7CD6F7CD737
EFF205FEFDFC1103FF00FCF60701F7FF
F9CE7FBCFF0805FAF701F508FD1703FF
FF79CEF79CEEF9DDF39DDF79CE03DCF6
F9F8FCF7080009F700FE01F10100FE0B
0007F70208050908F903FA0109FC0FFA
BDF73BEE77BEE7BBDE83FD073BDE83DD
F80000FF00F8FDFC0100FFFE07FBDF7B
050A01FE08F901F5FA12F0F4010403F8
7BDFEFFDEF001E077DEF03FE000006FF
000B05F7FF00000B003DEFFFDEFF7DFF
0006FC0002F40C000E00FE070A0000F1
FF801F07BFFF801F000000F90000020E
000000000001F003FF07BE0FFFE0F03F
00000000F80000000000000000010000
C0000000000000000000000000FA0000
000000000007C0000000F80000000007
FD02FC070901FD0101F8E8F8FD020102
02F0F3F6FB0A0305FEFBFAFEFDFCFDFD
00000000000000400000000000000000
0101F505F3F6F5010206F70800400000
02FE17090303030AFEF8F506F8F80506
84211082108421084210842103F7E6FB
0507FCFDF9FB0BFC0882108421088220
F209FB08F8F807FF07F8EB0C0BFE01FD
2110421084210842F40211F60506FE02
02FEF4F910C421084210C441084218C4
FCF8090807FC01FCFDF2FEFDF8FE01FA
C6318C630901F707FF030702F4FE0102
1906418C631906518C63210631946320
03FF01070209F5FE0D04FEFE02F907FF
09F7FE02FAF8FA170FF601FEF9F9FCFD
84214A62108429484218842908421084
FEFFFEFFFD010C090208FBF621485210
02F80106F904FB06F6F40DFD01FFFBEE
94A5318A529CA5314A5294A5FF05FEEE
01F7090908FE0811298A7294A5298C72
F7FFFEFFFCFE030201FF1204F0FFFDFB
6320E6398C6318C61203F9F8F4F602EE
020603F531CC8318C631CE8318C639CC
07FFFAFD04FD0303010C010405FE01F8
CE741CE7FDF6020701F70108FE01FCFA
3A0E939CE73A10939CE7424E73A50741
0EF807FF02FA030207F4FEFEF7F60404
0AFC0A060402F7FAFC010103FC0303FC
084294A421084A908429284A1084A108
FE0607FE03FAF203FE0F07FB4250B421
020706030302020A08EFF9FE0B03F7F3
A52952D294AD49525295252903FB05FB
FD010303FA01FBFC4A94C4A5294AD6B4
F70BFAFBF701FFFDFA02FAF603FFFEFC
A6316A5A94A5A94AF9FE0805FC05FFF6
020506F952D6D5294A5318C5AD4A5B14
FFFBFFFCF60BF9FFE907FB03FF0905FB
D6B62D6B070803FD04FDFAF9FEFAFAFF
5B18E5AD6B635AD6316B6356B6B58B62
FAFEEE0409FCFFFC07FD02060302F1FC
0201F7FB02FB0505F20AF80806030BFE
8C6B9CE6B58C6B98C739AC6B18C6B18C
FEF8FAFEF8F8F5F903050509635CF631
FB04FCF7F4F20705F9FAF412EB062AFB
39AD741AD7BDCD735CD7360DF3FF0405
FDF4020708FE03016B9F06B5AD73DEF7
FF02FEFEFDFDFCFC01110806F9020606
E849EE7B9EE7BA2EFAF7FF02040D06EF
FE09F9F973E11739CE7C2107BDCE7C5C
08FF0504040607F5FBFDFC03FF09FDF9
20F83E4F02F6FA04FCFF03130EFBF601
7C2327BDF084631841EF84DEF8CE0F84
1102020205F9F9FF04F80D010501FF03
06EB1003FC10FEFE090C0505FE0A04FB
118CA52946108D210952508C63094270
0604F80AFD040BFEFFFC030B84653842
04FA030809050601FA01FBFC03FFF90D
CE31956319D67194A529C691FB0401EC
0204FB03050207048CA758C63294E739
FCFE02010211FEF9FC010F0305FAF5FA
2A5A929CE73A4AB2FDF7EDF703FEFAFB
FE0601FB9529694A739D6B4A52529DA5
01080B01FF01FAFCFF01FF04FF060BFF
294ACED3110B04FD0A0F0101FFF6FCFE
9D6B79CE94A5ED5AD673A5E73AE2B3A5
F0FAFF0E08F701FEFFFA0106FD01FD04
FFF90E0B02FCFAF1E9FC0102FFF9FEF7
B5AE2F6B5A94AE694B66D4AD6B5B52F4
02FC04FDFEF906FA06040603A5AD9A52
F60D02080AFDF902FD09FDF9FFFFFFF8
DEB5BEAB6BEAF5B5AD7BD71505FF02FC
06070202F9FEFEF1ADEFAAD6D6B6717B
04FC02F301FAFF0204FCF505F30401F7
7C6F16C5EF8C5B3606FEFFF4FF01F302
0FFEF706B631BB5AF8BEB38C62D6C6ED
03F6FC01010CF8FA02FE02F708F7FE0A
319CDF570AF9FCFBF0FA080AFCFC02FE
BE73CBDF19C6F59CE717CF2F8CF737CE
FEFC0DF7FBFD0FFD04FE0104FB0405FA
0C02F4FFFDFAFCFB0C0D0201FDFBFCFC
3ACF37AD6B38D771AD7B59D673ADE378
1209FEF8F80B04EF0701F301C6B5DC63
01050BF905FBF8FBF7FD0202FF0CEF07
EF59DFB3BDFF7ADEB5BE679902F80206
FE05F6F5FF06FE0BCEF7ECE75BD779BD
FAFC0209FB1C0FFDFC02F2FDF0000407
CE03BCE6F7CEEBBA0518FBFEFEFEFAFD
0CF9FEFAD739FD6B7CDFBBCE737AEFF5
FFF6FEEF0600FA04040009F002FA0DFD
39DF6FDBFAF9FF00FB070110FEF9FFF8
DF7A0DEF9DE7FFDEF79CF037DE83DDEF
FC000CFAFC00FE040B01020C05F6FA16
FAFAFA0006F4FD03F8000007F6F60308
BEE801EF7BBDF839EF03FEF77BEFF3FC
040000FE0002F7FE000100F9E7BC0E73
FEF80508FE0000F70AFEF4060000F509
FFDE003BFF801F07BDF0741D0A02FE00
00FCF4000001000CEFFE0F77DFF001FF
FF000000000005FD0000040000000000
00000007FE00781EF7000000FE090A00
00000002F0000FFBE0F8000003FF003C
000000000000F2000000000000000000
0000001FFF0000000000000000000000
F8000000000000000000003E00000000
03F80104F6FEF90707180D1F0E03FE03
F9010BFB04FAF4FE0505F7F307F4EF02
00000000000000000000000000000000
FD02F7F7050D04FB01F9170A00000000
07F2F70F060FFF070A05F007F604FC05
84210882108421084210882105060C0F
F3F309F20102F20A0842110421084410
FCFFFFF6F6FB0F05FE010307FC0AFD03
2108421084210C42F907FEFEF90A0105
0805FD031084218C42108621084210C4
FBF80A0F0AFCF9FD0407FFFFFFF9FDFC
C83190630610FEFE080B0804F4FDFF09
18C632906318C8318C631906318C6318
05FF01040AFFF40117F3F6F5FAFEF4F6
FBF9FB0C040205EE07F7050BF7FE02FB
84210C4214842148421084210A421884
F61501FC01050106F6F3FEF421084314
0307FE02FE0BFD020BF5F609080404EB
98A5298A5294A5314C529CA5010106FF
F9F7FBF7FEFCF705294A5398A5294E52
FC07FD0703FE0F04FC07FD050AFF0306
6318C6398E6320C604010A03FD03FFF6
1205FB05318C641CC631D0631CC631CC
01FE010504FC0403FBFB010801070B09
D073A4E7F909F2FC01F8040703FCFEF4
39CE74A0E83A1273A0E74A0E739CE741
03F7FFFEEDF3F806FB19EB1102F7FDFE
060309FEFF01FA02FC0DFEFB061201FC
09425484250852528425084A12842908
F7FEFA0BFD01FDF8FE0103FB42108525
FFFA060505F6FE03F8F8F8F8010305FF
A9295A9494AD29525494AD2901FEFA01
F1E901FCF4F80A024A5495AD4A4A9694
0303FE04F206F9F70507050403FAFC01
B5316A5A96A5314A010DF70202FC0704
FB07F8F95296A6316B52D8A52D4A62D6
FB0701020106F9040EF9040A02E6FB0A
D8B5B56B020505F1020606FCFC09FCF0
5AD8C6B58C5B1AB5B16B6B1AC5B58B62
FEFF02FEF8FF07F8FF100BF708F1F803
FAF00103FBF50501FBF6FCF9030501EF
AD635CC6358C735CD639AC6B1AC6398C
02010CFB05F7FFF9FCFD06F9631AD739
FF0D04FE0603FE09FD02FC03FDF1FF01
B9AD7B9EE73DCD739CD6C1AE0A02FC04
F6FAFEF20CFBFC076B5CE7BDCE6BDEE6
FB0503F5FF1A0104F8FC0110F804F603
F841EE7BDEE745D002F6F9F7FA0EF807
0305FEF7739EF841EF7420F741CE83E0
F90A050B050102070201F3030210F802
20F7C9F1FAFB1105090903F5FFFBF305
7BE108C6107C6307C5EF8C2308C60F84
F3040301FE03FA0D040803FC0AFCFBFA
F4F90903030709FDFE0201FBFE0303F8
3184A5184A109C65194A309C63084E12
0FFEF5FC0509070FFFFB05028425194A
FA09FF0806FC04FCFEFAFAFCF8FFFEFF
CE31A4A729CE51A4A518D23304FD0A0C
FBF20C01FDFDF9FB8C6929CE528CE728
08FFFCFC0AFCFBF9F9FC04FEF80BFE0F
3A5272ACE7295654FB02F901FEFD02F1
0901F60294AB3A52739529395252ACE9
05FB0707090E0701F1FE0408EF020201
2939DE75F7FE0208F709F6FFFFF101F8
9CED4AD6949D6B5A5674BD2B4B56B3B5
F90905010B05F10301F1F9FEF40BFDEC
FCF503F7FCF501FE09FCF40CFD1401FF
B5A5AD6ADA95C56D5BDAD4BD6B5A6296
02010902F72D0518F2F5FA01A52F5B5A
FBFBF209FC03F9020EF9FF0610FCFD09
5EB6CDAF6C5EF5C5AD6AE6B7F907F902
0CFE05FCF604FB04AD716BDED6ADEF7B
F807F90409FA0509F8F80102F7FAFD06
8CE316CDEF7B6AD9080C13FFF9FE0305
010504FEB5B37C62F7B6318BE2D7D5F1
FEFE0AFF06F8FEEAFE0C0CF0FDF5FEFF
318BEEFAF90105010508FBF80304FCF9
BDF58CE719BE739C66F8DE339D6737D6
FF0102FA0104FEF5FD02FCF8F5030704
0B08FDFC07FD02030107FFFF050BF3FC
3AC6B5ACEB19E679ADEB59DE739C731B
07FFFD0708F403FBFC010204C6379D6B
FEF5FFFBF101FDFCFFFEFE02F8020202
6F3AEEBBBE6F7AE6B5ACF73CF6F7F707
02F4070903F31A06CE7BADEF5BCEF7BD
0AFCF305F7FF01F907F2050506FB0301
CEF39BEEF7BD7B5DF2040802F705FDF9
F7FCF90FD6BDBE737DD73BCDF35BF6FD
FBFF0303FBFC02FBFBFDF5F60AFFFB04
39CDFF7E0501F7F6F90107F907FC05FB
DEFFCEF79EE77DDE777CFF3FDF77BCF7
00FE00FE05FB05FD0AFCFEFEF900FD0F
010200FE03010500FD04FDFBF61402F5
A0EFFFEEFB9E0741EFFBDDFF7BDE039F
00F509FF0005FEFA0600FF00E701DF7B
08FF02000E0000F0F8F707EF0003000B
7FBF0781F07FFE07BDEE83A0F9060003
000001FFF700FB00F741EFFFC0F001FF
F9000000FD00F10000080000000000F2
00001F003FFF03C0FD0200F800000000
0100F600FF81F00000F8000F83C007C0
00000100000000000000000000000000
000F83E0000500000000000000000000
07C000000000000003E0000000000000
01FD03040906FDFCFBFDEDF9FFFDFEFC
FEFF01F5F903FBFEFAF7FBFFFFFAFF01
00080000000000000000000000000000
0505FAFCF808FAFCFBF8F10500000000
F5F30506F7FD0201F8F3EC09FB0A0105
842108421088210842108441FFF805FD
ECFAF90202FEFAFF0842110421104210
F6FF0204FE0409030503FB030502F6FE
310C421084210862F102FCF9DD0DFF0A
0AFFFA1410C421884218842108421084
F4FD0D0A09F7040BE9FBFAFBF2FE05F6
C6318C83FFFD04F604FC0B0D0E16F507
1906320C6320C6320C6318C641906318
02FC04F407FCFA021F04FBFEFEFEF2F7
F1F9F81501F5F8F804EF0109F9FCFC03
842908429084210852148421084210A4
F6FF0408F9F8FFFF01FAF60129484290
07F104FEFE07FC0AFC07FD02F8FBF904
14A5294A6298A5294A5294C509FBFBFD
070104FCF7FD08FA318A5318A5394A53
04F7010302FCFE01FF07FFFF07020806
731CC7318C6318E604FA01FDFBFB01F9
0BFCF6013A4C639CC6418C6398C731CC
FE03FCFE01F306F90109FB0BF4040103
CE739D070402FAF40204020306FC0204
428E74A4E749CE741CE83A0E83A4E839
FBFF06F4FBFDFE02FDF4FCFCFEF9FCF4
02EE03F4E7FF06060805F906FDFAFC09
08521084A109425094A9094210842128
FCFBFC0E0211F508FE02FDFA4AD0852D
FB050402F8FDFFF3FEF1F902FDF50B0C
252A4A94B52D2A4A5294A549FFFDFF0C
EEFDF80306FFF702531295B1295A5495
0A04FC070201FAFCFA06F903FDFFFC03
C5B56C5294A5A96B0DEF0BFD0407FF06
F9FFE9F45B54A6354A6298A5A94B52D6
090707FE04FEFBF403FA05F5E50108FB
D6B62D8CFDFC03F2FFF806010103FB0A
6396B6B96B6ADAB62D6C5B18D6398D5A
F00703FBFB0C0EFFFD07F901FCFF1F04
0C02FEFAFC09050204FCFE0102FBFF12
8C731CC6B18D635AE6BDAE6318C6B1AD
0B09FE0BFB0206FF08FC07F96BD8C741
FC08040402FDFE02FEFEF8FD01FF03F8
35AE6B9CF7C1CF6B5AD739CE09FC02FE
F8FF01FF0B04FF02741AD7C5AD7B5ED7
FB03FD040104FC01F6FA0101F6FFF902
0845F0739CE7BDEF04EFF7FAF1010404
06FB01057C5CE849CE83A0E7B9CF73E1
F90107FB0706FB01F805FB02F5F3FA02
DF0842100403FA04FC0908050AF7F6F9
84DF08CDF08BE2F83DF07C2318CE117B
01FE04FAFD01FB05021AF6F505FB1E05
01F907FAFFFBFD04020201FD010102F7
11942508C2128465295232842118C631
0CFCFB01F6F904FB0806F6038D211956
0707030AFD01010604FB060303FDF8FE
463394A739D6538C63294A52050504FB
03070B0203FC05FE956539DA329C6719
080A02FC0101F704FCFDFF05030BFCFB
4A5A749CA539CE730D02090509FB04F8
010401039DE74A5E53A4AB29CE559CE9
FB020402030A01FFFB010C030BF903FE
E94A5294FF0105FDFEF7F7FBF9FCFD04
A6295AE274ACED3AD276A52B5ADEB5A4
0205FC02060505080401040506FBFBFA
FEF4F5F7FF04020201040205FC01FE08
95B52F4B5697AD6D6B62D6AD2B5B56B5
01FBFEF2F1F6F9FB09FCF4FEAE6B6B66
F407FE06FCF4F60301FBF601F803F705
DAB8B5EF7BE717B56D6BDAD6FEFE0AFE
FCF905F9F8FBFF01B6AD7BEAD6BD715B
02060108FE0903010AFF03FBF90D0BFC
8C6B38BDAF7C5EF70AFC06010AF806FC
080406F7BEEF8C6EF7C5B36C5EF9BE31
FCFAF9FEF8FCFAF6FBFE08FBFEFEFB01
F18CE318070A0109FCF103FA06FEFA03
C7319CF318CDF77D631AC6739CF759C5
02FCFDFAFAF7F70204FCFC0107FBF902
FCF603040BFD02F604FBFDFBF7FFF906
3AD6398DE73BCEB5AD7B7BD6339D6739
0DFB0EFDFCFAFB0A01010503CF73AD77
F30502FBFBFDF801FCF4020906F7FB0D
6B5DD6F7BDFF9CDE75ADEB5AFEF9FCFD
03F0F3FC08FCFCFFD7B5BDFB5BDE7B9E
040105FAF7010906050DF708FB00FAF7
DE03BDE6B7BEEF7BF30703F611FFFAFC
02FF1811DFF7CE7F7CE6BDAEEF7EDF39
FD07FCFCF7FB06FAF90009F807040FFB
F9CF739CFC0008FA0100FAFF01F6FD08
E039DE839DEEFFBF73BFE77BEF03DEEE
FF060106030005F70C04FE03FEFDF201
0D00010D010001FC08F80006FDFBF100
BEF701CFF7C0EFBDFF83FFF73BDFFBBD
000000000302070800F703FDE83BEF03
FF00F7FEFBF800F500F9F9000904FD00
7BE0FFFE000000FF7DE07FDEFC0003FB
0007FC010000F505F03DFF83FFFF41D0
00FE00FC000200000000000000000000
00000007BFF003FFF800020000000000
00000000F83E0000000781F07C000000
00000000000000000000000000FD0000
C0000000000000000000000000F10000
000000000007C0000000000000000007
FBF8FF0906FCFE010AFEFAF807070403
02F9F708FAF903F6FE070E06FBF3FD01
20000000000000000000000000000000
F5F2FAFC03FCFBF1FCFDEF0500800000
03050AFFFBFBF703F51CFBF9FFFE0306
84210842108421084210842101F907FE
F4FDFF090111F4FA0902108441084210
FC0303F80C07FF0304F8011402F90607
210842108421084201F8F0F7FC02F70D
06FFF9F4114421086210842108621084
F90EFC0202FC0AFDFBF5FF080503FE07
C6318C63F4F90BFBFDEEFCF7F803FF02
218631908318C6318C8318C6318C6318
0A06FE02FDF9F40B02F801FBFB0A0903
13F9020CFDFEF6FC0A05FB040A0C09FE
A421084210A421084210842108421084
09F9FE0209FC0DFDFCFD02F729C84214
04F8F7F7F7F5FCF8FCFD0EF7F40409F9
94E5294A5294A5294A5294C507F40B10
FDFA08F3F203FD093A4A5298C5294A52
0E020A10F9F50A09E9F9020104FC0AFB
639CC6318C631906FA06FDFF01FAF6F2
F1FFFDFF428E631CE6318C631906318C
04FAFA08E81202FF0CFBF8FAF6020207
CE739D27F3FEFF03FBFFF90704FCFF06
4AD073A50739CE739D2739CE7420E839
0304FB0EFCFD0203FA030AF508040709
FFF004FD0909F3FDF1FF08FB0AF3FA0A
284210842148421084A5094210842148
07FF03010302FE0401FCF9FE53528429
020AF906F20CFEF5FC03F509F90DFC0C
A5694A5295294A4A5294A569F80506F7
06120210F8F907F55B9494AD494A5294
F905FE0C08FFFCFF0907F3FB01010609
A5AD6B5294A5298AFDFA02030BFCFEE3
FB0F03FF63D6A5316A5296A5298A5294
F9FDEE01EFF8FDF5FD14FAFBF80105F4
D6B5ADABFB00F9F104FB0605FF02FEFD
681CB5B58B6358B5ADAB5AD6B6318C5A
060301FAF10702F2050AFEFEF8F60B03
020005F9FE090304F4FA01F5011D1AF6
AC6B9CC631CC6318C6B5AE6318C631CC
0806F9010701EEF3FFFB02FB781EC6B9
FC0103FB020103FBFF1204FCF5FAF8FC
B5ED735AD739CF6B5AD6B5ED000000FE
F5FBFDF8FA0500060000D73DCD7BDED6
000000FF02F3000307FCFD11F603F900
E7BDE0739CE7380E000000F30300FA03
F9FD00FF0000E781EE0000E7380F7B9C
0A05000000F70B0300000000F9080806
DEF7BC0F000000F80000000D000000FB
0000F0000F0000F7BC0003DEF000007B
F7FBFAFE0C05020605050306060304FA
08FB010EF606F2EFF8FB0403FF0101FD
00000000000000000000000000008000
FDF503030502010C050EFAFF00000000
FEFF100806FFFBFCFBF8FD040202FCF9
842108421084210842118421FDF3FCFD
F303FEFCFD0312FC0842108421104210
FA02F8F60703FCFB05090801F6FA0202
21084210842208420AFEFFFAFAF2FB06
04050201108421084218842108421084
FC03FD03FE04FFF2FCFCFD01FD12F7FF
C6328C64FD020706FD05090207FFFEFB
18C6318C6320C6318C6318C8318C6318
06F8060AF70BF00202F30708FEFA11FC
FDFA0113020503F5EA08FEF30AFCF7FB
842908421084210A4210842108431085
FCFCFB050A0307F4FDFF0CFE21084214
F7FB05F905FF01F8010507F7FA01FC02
14A5294C5294A5294A5394A602F6FFFD
0402FFF30D010A08294A5298A5314A53
F0021204010EF803FEF7F4FF01FD04F5
6318C6318C6418E7FDF80BFFEF01FBFB
0305050A318C631CC6418C6398C6318E
01030905FAFDFE0A0BFEF903FFFE01FB
CE749D08FF02FBFBFE12F6FDF706FB05
39CE73A0E749CE741CE739D0739CE739
0301080409FB0308FDFAFEFF08040602
F20804FB0105F5FCEFFF0BFF060A0803
08521084A10842148421084210952129
0308FFFCFC08F8FAFBFA060842108425
03F2ED09020201FFFFFAFF01FDFAF003
25294A5694A5294A52A5A54A03040303
03F4FFFB0AFEF9FF4A5294A9495A5295
FA03FD0202FFF607F90A070BF005F90C
A5294A5294B6296B0507FD08EF0805D1
0204F9FC5294A52D6A6294A5A94A5298
0205FB03F9FE02FEFB051204FF040107
D6C6AD8CF5FA07F303F80D07F6FEFEFE
5AD6B5B18B6AD6C62D6B5ADAB5AD6B5A
05F2FEF7F9FB02FEFDFD02080707FBFB
FDF4FBFCFD0A030706FBFDFF06F4FEFB
AC7318D6B18C631CC6318C6318D731AE
FE02FD0B01F2F9FCFD0506FD6318C635
0AFFFEFB02FF02FCFEF8FAFC04FB03F7
35AD6B5ED6B5AD6B5AE7B5CFFDFE05FD
FA02020600FF03006B5AD6B9CD7B5AE7
0006FCFC01FC10FCFCF900030D0201F5
F73DCE739CF039E0080105F8FFFFFF03
00000000739CE73DEE03DCF7B9CE7380
00FD000300F30000F500F904FE01FF00
DE000000020107020400000E00000300
7BDEF7800F001E003C0F03C00781EF7B
03F8070D02FCFBF9FBF8FCF104FDFE04
FE01F504FDFCFC0609FF0F0908FB010E
00000000000000000000000000000000
FA060102FDF3F7F7F9FA0B0F00000000
0207FAFE0BFAF70AFD11FFFBF1010507
842108421084210842108421FB04FCFC
0405FF0BFFFAF1F90842108421084210
F7FF06FC06FD080302FAFC0AFF040DFE
2108421084210842FFFC10F6F902FFF7
0105FC03108421084310842108421084
FE070201F5FAFE0602FE060304FA03FF
C6318C63F80707FF06F9FFFB0C020106
18C6318C6418C6318C6318CA318C6320
01F704F90D05FC06FA0203F7FF020304
04FAF80703F903FD0604FA0BFE02FEF3
8621084210C4210C4210842908421084
FF06FEFDFFFC04FCF3FFF7F821084210
0202FD02FBF9FAFD08F50C03FDFFFEF4
94E5298E5294A5314A5294A5FEF7010B
F4F7FB03FDFDFA04314A5294C7294A52
03FE0402FEFD0DF8FD0AFA0706FEFD05
6318C6398C6318C60602F206FAF303FC
F9FAFAEF398C6318E9318C63190631D0
06FD040B01FBFF05F9FFFFFEFC09FF14
CE739CE7FAFEFA0701F2FEEFF3FE05ED
41D0739D0A39CE739D273A14739CE741
030504080B0401FE04FC08F8010BFB04
FD03F6FB09F9FB0207FB0CF804F70509
2B421084214842568421084A10842108
070AF808F5EA0BF5FF0904094A128421
04FD06050305FAF9FDFDFBFCF20BFF10
A5694A9A94A529525294A529FA03F6FE
F6060205FAFA09F3525494A54C4A5294
050210FCF6FAF7F8F40106F70A020703
A5294A5A94A5296A0BFDF9FB040F0505
0206FFFB5A96A5296D5294A5A98A52DC
04FFF8FEFDFC08FF0603FC02F9F407FB
D6B62D8BF8FA01FCFE0AFDFB020405F7
6318B6AD8E5AD6B62DAB5B1EB5B16B62
04FE00FDF5EBFCF5F905FAF8FE0DFFFA
FAFBF9FAFFFC03010418FFF9F80B0702
AF6318C6B1CC63C0C6358C6B18C6B1AC
01FA03FF020DFCFDFA0CF0FE6B5AC7B1
00FCFC00FE0401F80408FEFBFC000009
B5ED6800D6B9AD735AD735CDFC04FC02
06FBF8F5FE04FF05739CD035C06B5CD7
F1FCFC0400F900FCF300000C0C03FFF7
E73DCE7B9CE7B9EE0000FDF800FD0500
000000FC001EE039E0739EE0380E7000
000900FF04000000FB00F9020007090F
DEF0000F000000F800FF0000F80300FB
0000F03C007BC0F03C0F78000781EF03
07F0FB0509020304EAFB0507FE01F1F5
07FE0808F6FA04060AFD09FD080A0205
00000000000000000000010000000000
F9FF04FFFBFF050BFC01FDFC00000000
FD06FFF80508FCF802F2FF07F502FEFD
842108421084220842110421FAF304FA
0B0F0201FDEE0FFB0842108421084210
FEFDFAFDF8FD01FAF7F70106FEF707FF
21084310C621884205FB03F701E7FBF9
FFFEF602108621084218842108421084
0304FC05FE03FEF7F9F30BFCFEFE0205
08420C63F8FFFC0302FF0DF5040AFFFA
18C8318C6320C6318C6318C8318C6419
07F3F7070AF7F505060901EFFDF709FE
04EDFC08FFFE0905F90401F8FEFAFCFE
852908421086290A421085214A529084
FAF502FFF903FE0406FFFAF7210A4210
FDFE100D0407F8FDFC0C03FF08F80302
94A7314C6294A6298C6314A5F1F5FB04
06F7FEF5FEFCEEFE294C5294A6314A52
FFFF0BFD080D07030BFAFD081A01F5FF
7398C731CE7398C607FEF602EA08FDFF
0601F1EF318E6318E7398C6318C83990
01040D01FF08F6060EFD0201FDF404FE
10841CE7EFFEFAF5FC01F702FCFAF901
41D0739D0841CE739CE941D4841CE83A
01F406FDFCFB02FCFF0605FC0209FC02
010DFDFB010301FDF6F90FFD07010702
294A1084A10A4A1894A109425294A108
03FAFCFEFD0906FD0503F2FB52128421
02FFFFF6060505FF0101FF0304FDFB03
252B525AA5252A5294A5252907F804FB
F6FEFE0301F903FE5A5494A54A525295
FDFB0B0201F7F8FBFF0BFEFAF9FB0F01
B5A94B5AD6B5A94AF6FE0407F5F60406
0CF90EF76296A5296B5A94A5A94C5A9C
FB030505FAF503F5FD030101F90303FF
1AC62D6B06FAFFF3F80E08FC040506F7
6AD8B5AD8C62D6B62D6D62DEC62D6C63
EEFE00FDF7070504F807FF0E0108F907
04FE04F8FB02FDFF0201F5FF04F7FDF9
CD6B18C6B18E6B00D6B1AD6B5CD6B18C
0CFCFDFAFBFCFEFB03FB02FD731AC631
07FAFEFDF8FF04FFFEF9F502020200FF
35AF7340E735CE739EE735AD01F4FCF9
0906000803F8F7FC7B5CE6B9EE735AD7
FAFCFBFE02030300FAFE00FFFAFBFB04
F7B9EF7BC0F7B9CE0001010103040007
00FFFFFC039EF73C0F7B9CE7B9C07B80
0001FF0000FD00000003000000000000
00003DEF00030000000000000003FFFE
03C000000003DEF03DE003C0003C0000
01ECF3F905FD0B02F8041803F201FB06
03FA05FCFEFFFEF5070201020D0101F6
00000000000000000080000002000000
01F002FDF506FFF5FB09FFFF00000000
FE0705FFF9FDFEF611FFF8EDFFF5EFF6
84210842110421084410842109F6FC06
09FE0714FDF9FFFE0844108421084210
EE050304F3070409050E08F50808F902
2188421086210842F60505FE07FEEFF8
0807F6F9188621084211042108421084
040102FFF80109F70308FE06FFFCFDFE
C8318C63F5FE05EDFA08F813FCFDFD06
20C8318C631946318C6318C6320C6318
F8060809FC06FE01F905F702F9FE02F4
021003FDFD02F9F60103010403FE0204
8429884210842108429084290A421084
F9FC03F904F4030D0606F809294A4210
06FE07FF0E03FD0109FDF604FBF7F6FE
94A5294A5314A5314C5294C5F90602FD
FEF7FBFCFE0308FA318C5294A531CA52
06F80CFEFDF801FFF7040209F50EFB03
6398C6398E6318E6FBFD01FBFBFBF302
FDFDF90639CE6318C63A0C6318C6318C
FEFF02FCF2FFFB01F6FD06FCFF05FDF5
D0739D0706FE10FFFA08010302FDFFF3
421073A0E74250739CE739CE741D0741
FEFFFFF8040B07FA04FFFFFFFC06FEFD
031302FEF90903FAF802FCF3EF0904FD
085294842108421084A1284A14842148
FCFC0105F9F3F111FCF501084A548425
FD050803F7F9F8FC05FCFBFA06FCF7F7
A5294A529525495256952569F7FA03FF
08FCF5FCFFFE03FC529694A92A5AD6A4
FF020106F906FBFF0A07FBFDF7FEF106
A5A96A5A98A5A98A0BF901F90A02FBF7
FCFBFD0F5AD8A52D6B6318B5294B5294
F6070304F6030EFD070508F8F9FC04F9
DAB62DABFC01FAFA0104050F0107FFFD
631AB5B18D6B9AC5AD6C62D6B62D8B62
F3F4F4F2FFF8F9FA06F70E020806FFF8
03F8FF08F5F5FBF0FEFBFBFA14FE0203
AE73DCD6358D6B18C6B1AC6B1CC6B1CC
EF0903F917FEFBF7FF0EFC0A6B5CC635
FD02FFF5090703F1E90805F7F30F0707
39AE735AD735CD735ED739ED012108F5
FC12F9EC0CFDFF0C7B9ED6B9CF7C1EE7
06F808FFF3FF01FFFDF5F0E6F805FE18
E7BDEE7BA0E7BE0EFFF6FEF205FD02FA
FDF8EE0283E0E73DF08460F7BDCF7B9C
01090F010609FFEDFFFE0E0101FA0212
E2F8422FFC07FE0B0109F509FBF7F908
8C22F7C2118CA30841F083DEF8420F83
01ED0207FE080D050AFFF6FFFB0DFCFB
04F90802FBFCF9F50705FB0703FB041B
3394E518C6118C2108C6308C2508C650
0602FA110311FEFFFD0FF6FC94650846
FDFDFFF7FEF9F8120203FF06F4020DF8
4A329C63194A519467194A71FAFE07F5
04FC040BF80E01F99CA718CE549D2729
03FEFCF0FBFD03F90E080DE3FEEE06F0
39CE729CA929CE92F3140F06FE0704FD
F9120506A4E9295275A56939CE53A4A5
F60109FAF6F001FFFCF905F9FA0CFB03
EB3A52D307F9FFFF0702040DFFFD0701
AD2B39D696ADAD4A5274B4E74A5294A4
0502FFF90202FEF90A09F1FE04F00107
F4F9F80E080E0506F2F4F605FA08F5FF
D7B5EF5AD695BD295AD6B5AD2D5AD6F4
0706F9FC02F803FCF5FBFD01B56F4A5A
07FC0207F2F802FB06FE070402080106
5AB6C56B6B5AD6B56F6B5B1503FA05F9
01F708FBF703FEF4BDB15ADEF8BE316B
0506FAFFFFFBFBFE07FE08FB04F902FB
7BDEF7BDB17BDF3607F4020101030BF9
04F6F7FCC5F36B6319C6757BDED7CDAD
0AFFFBF61BFE09030209FAFFF907F604
F38C6357F2F6F601FE05070502FFFEFD
CE357BEB3ACEB78CE318D5EF8CE318C5
FF08EFFD04FB08F3FBF7030CFC0BF9FA
0FFF0505FFFC02FEFE04FD0DFC0AFC07
5BD6F99D6739DE319D6739CE759CE778
FBF802F402F50503F2FE07F5D6778C6F
02FC01080203FB03FE04FD01FEF902FA
EB5AE675ADEB5AD6B7AD6B990206FFFE
F91AF9F6FEFF01FDDEF99CF37CDF3BAD
0102FDFF080904F1FB04F6EDFEF5030C
BE6F7BDEF9BDEFBA01F607F80C02F5F7
0302FA0EE73BAD779DE77FBEEF7BEEB7
03FC0504FEFC01100414050108070FFE
3DCE73DBFD05FBFAF503FCF609FC0003
EF7DBDFBBEEF81CF779CF6F9CEF39CEF
FF0304FEFF0D0201FAFAFAFCF8FC06FE
02F8FEF707FDFFFDF403000206010802
DFF7C1DFFBBDFF3BDF77BDF77FDEF7FC
01F6030905FE000CF50600FCF7BFDE7F
FF00FB000D0000090003FD1000F80BF9
7FDE077DEFFBDEFF81EF781D04FF0018
00F80003FFFF00FEFFC1EE83E0F801E0
00000000000003FD0003FC000001FB06
007FFF07C1FFFC1E000000F903000000
000000F80001FF000000000003FF07BE
00000000000100000000000000000000
0000001F00000000FF00000000000000
00000F8000000000000007C000000000
FB01FF040508F6FCFE01F705FC010202
FD03F9FAFB080201FD08FCFE04F50303
00000000000000000000000000000000
0CFDF7F9F602F80203FC030700000000
FD0A03F3FD05FFFDF50E08FDF9F3ECFB
882108421084210844108422FD04FCF6
F3030FF9FBFFFA040842110421084210
F80C06FD060C0905F60E01EE02FDF9F9
2108421086210843FA05FEF20106F4FF
110B07F21084218C421084210C421084
020501FDF7FFF907FDFEF5F2FAFC02F6
C8318C84F4F6F10402FB081501FFF901
18C632106318C631908318C6318C6318
050CFA0D06FFF8FEFBFDFDFCFEF30902
09FE04020A07F7F8FF06050AF502FEF9
8421084214A42108421084210A4210A6
FBFD02E4FC0708FE0205F4FB21084294
F8F30802FAF7030B06CC07FFF9F7FC05
98C5294A5294A5294C5294C7FCF80711
0FFFF3FF02F90703294A5318A5294A52
020507F60302FFFF0E0CFE0F08060517
6318C6318E6318E803030AED0206EF06
F4F2FF07318C639CC6318C631CE6318E
01FD05FE010201010301FE0603050302
D0739D0906F7FDF706FB030709FAFCF8
39CE8424E739D073A1073A10739CE739
10FAFE06FC02F90103FC0502FB040604
050409F8FB02FBF9FE0DFEF5F70503FD
0842528425284252842108421284212A
F7FC020101F9FBF404F9FF05421094A9
06FEFDFBF5FFF901FEFC01F9F7F7FA01
A9494A949525294A5494A54B0A0A06FD
0301F9F9FF0AFFFA4A54A52D29529494
F8FCF7FF070609FFFE060104F701FAF9
A5A96A5296A5296CFFFEF6F3FCFC0810
FD0AF90B5296B5B14A5AD6A52D6A52D6
09F40105F703F6F8F60304040102EDFC
D8B5AD8DFEFD03EFFDF60504FEFB0FFC
5AD8C6356B6318B5B18B5B18B6318B5A
F706110404FA07F70701FEFD020DF10C
04FCF7E50708F50702F7F60704E10BF8
8C6B5AC635AC635AC6B5AC631AC631AE
FCFCFB1C0A04F5FEFBF8010A635AD6B9
FFF8FE060108FCE1F60F0803210AFFF9
39CD6BDCD739CD6B5CD6B5CF08F50103
F905FAFDFC01FFFA6B9CE73DAD739CD7
FDF8FEFBFBFC05FAFCFEFEFA0602020A
E7BDEE739EE739F0F8FF03EBFB04F604
F708070373DEF7C1CE7BDEE7BDEE7C1E
FA07FDFDFEFD03FE04FE0603FD01FAF5
E0F7BE11F9FF03F9FB05F8050AF704F7
7C2108460F8420F842108462F8420F7B
0D06030505FDFC08FDFB060205F6F2F7
0813F9FE05FEFDFCFAFAFDFDFEF603FE
308C6318C6518CA508C6308423084232
0506031FFA09030404F2F7F6846318CA
FE06010502F1050801FA07FA02FF08F7
4A729527194A518C6518C65301080409
02F7F9120F01FBFA8CA5294E5194A529
020907FF0207F8FF06F906FA01FD0C08
29CE9294A7294A74FCF4060BFF03FD06
08FB040794E739D2729CE739CE939D69
FC0201FFF9F7FFFEFE03070404080208
E939CE95FAFC07110A030303FCF4FB04
9D294A5695A5294A52B4A5AB3AD6B39C
0DFFFE0604F9FCFFF8F7F71203F90104
040104FC040501F9FFF2FEFD08F401FF
B6ADAB5AD6F5ADED4B5AD4A52B4AD2B6
090102F80504FEFBF9F80B05A56B5ADA
07040204FA030AFBFEFD09FDFBF10305
5B16B62F5BDEF5AD6D6B56D70AF50202
FD02FFFEFCFC01FCAE716B5EF7B5ED6B
FAFDFBFF05E9F901F8FEF50705FFF7FE
6C6316B5AF7BDAF8F80E0603FE0213FF
080203FEB6B37BE318BE2F7BDF37BE71
FE06FDFEF5FF0308FC06040703020BFF
F18C5F390502FDF4F8FBFC0408040302
BEF58C6739C6718C6358C6B37CE737BD
F7040306FE060A0304F9F9F501FDF902
0907F4FA0603FEFAFC04060FFCFC07FA
5AD6B39CE779CEF59D6B58C6339CE37A
070803F8FFFBFF0DFEFAF4F9C7379CEB
0CFEFB010105FAFC0309FC07FAF1FFF9
6B9AD737ADEF79D6B5AD679BFDF603F8
030AFDFDFD070503CF79AD6F7BDEF5AD
FAEE0701F70207FDFD02FEF606FBFDF5
BE739ADEF7BDEFBC03F504E7F304FCFB
FEF8FCFED7BBBDF39CE737BDEFBBDF79
F60503F92F02F6F905040208F0FCF7FE
79CE73DEFEFFFC110EF4F405FB08FB04
DFFDCE77BDEF79DE73DCE7BBCEF7BBE7
F60C1307070205F901EFF3010B0206FF
F400F9FCF301FCFBF0020105FEFEFF04
DEF7BBFEF7FDEFFDDF7BDCEFFBDEF7FF
0BFF01F2F60002FBFEF40000E03FDFFB
00F3FD030009FF00FFFE00030B00FDF5
781EF03FEFFFFDF03DEFF800FA0000FB
0300FAFD00FF0000E801E07FFF07FC0F
0000FE00FE0900030100000300000007
F0001EF83FF07C000B0000F700000000
00000000F001F00000003E0FFC1FF801
0000000000000000000000FB00000000
000000000D0000000000000000000000
F8000000000000000000000000001F00
01F9FBFDFAFB0EFDF805FBFC06FD0807
07F807FEF9F107F4FC0A02FD120C0302
00000000000100000000000000100000
FEDB10FFEF04FF0EFA0A140100400000
FA020AF3F7FF06010D08FEF503F8F703
84420842108421084220842103F606FD
0AF9FFFBF708FFFB0882108421084410
0604FDFEFDFAFFFBF90DFF050A09F4F7
2108421084310842F201070606FFF90A
010604F910C421084310862108631886
FFFA09FA010DFB060210FAF3FC11050A
06418C6301FBFDFBFB05FAFB0BFC0502
1946318C6418C8318CC420C8318C6319
F20CF1FB0717EDF30FFFFEF9F9F706FB
02FD07FA0BFB0709FC01FE0606F7F805
85210A4210E5290A42108421485210A4
04FB0201FC04FB0408F4010721884210
08FC07FA0CFE06FE03FC05F7FFFB0409
9506314C5294A5298A6294C5F20DFDFE
01FD03FE09FD06FA2A0A5298A6294C52
06FFF9FEF708F701FE03FDFCF70CFBF3
6318C631CC731906F5FE040707FBF704
FA070906324C631CC7318E639927398E
ED03F009EEFE0108FFFF08FEF205FFF7
0E839D27FE0C07FEFDFFFCF4FD0AF603
3A8E73A10839D084254841D0749CE73A
0AF5FC020CFE0FF9F2F804010EFBFCFF
01FB0701F90A05FF0403FF030AFDFC16
294A1294A9694A128521284250942148
05F8F4FF06FB08FFFFF7FD0842D08425
FDFBF90AF8FFFE04F5FE040503FD0501
2D8A525495A5494A92A4A569F5FCF910
F8F401010403FEF4531294A94A5256B5
FD05FA04FBFEFBF901030304F70CF107
A6296A52D4B5298A0D03FCFCF5FAFD03
05F8FB015B54A52D6B5A98C5B1AB5A96
0B0DFD080803FE09FA05F9F7FC05F803
16D5B1ABF80108FEFCFC05F5F8FCFEFA
6396B5B18C631AD635CC62D8B6AD8B5B
F5FB04F9F8EB020507F805FD0A06FB04
FDFEFC02FA0A0606FE0AFEFDFAFCFE04
CD6B9CE6B9ED6B1AC731AC6358E635CC
FA02F9F4FF0309040102FDFF6BD8C635
F801FEFE01FB0BFCF3FAF5FCF8080403
3E0E735CD7B5CD6B9CF6B9ED06FAFA07
06FB0104F906070D741AD6B9EE73DEF7
02070504FA02F103F60901FB080A0404
E839EE73DF073E0E0507011805F8F804
FF06FAFA7C5D07420F7C2107C22F7BE0
FDFDFA060DFE08FBF9070505FDFE0105
2117C22F02F708FB04F601FB08FCFDFE
849F17C630846318C6508422F8BE0F7C
FA020E070306FBF90903FFFFF70F0201
06FFF4F90AFDF6FAFFFAF9030702070E
518CA5394A718C650942308463284651
FD05FE0308FEFB030916FA048CE1284A
F5F9080104FC0A020AFFFE0801080601
CE9294A719C6518CA538CA72FBF6FFF6
0604FBFBF7020608952338CE7394E749
FE02FF07FDFEF702F0060206F506F7F9
2A4A7294E7494E9302F901FAFDFC06F8
030EF7049D654952949D295A52B39CE9
FD04F9FF0C0202F407F709FA050801FB
2959D2B4FCF2FDF80502FC0CF7030502
A5A759D6B5AD6B6AD6D4A52B3ACE939D
F8F607FA0C02F7FEFEF6FCF4F9F70CF5
F9F9F71906070105FD050401FBFC0403
F6B5AD7B5AF5AD6D5B52B4A56F6A56D5
06FF13FAFD04F9FE0B0202F3ADE96A5A
07FE050CF5FCFBFE0207F706F8F2F506
DF16B5AF6BD6D6ADB17ADAF6E103FFF9
E80AFFFAFF0109F8B62B7ADF17BDEF9B
FDFCF9FD0E0703F5FBFA01F8F2EBFF03
7C5AF7B5F38B5F17F72607FBEE050EF9
F3040102BE6D8B6338C631ACE337BDF1
F9FDF2FEFB09F80B05020CFAF8F6FD04
359BE338F302F6FE05EE03F2FB12FDFA
CEAF9BE759CE73BD6759CE338D5F19BE
F9F7F7F3F8FF0322FC09FFFB03FCFB09
F706FAF10701FF05FDFAFA011004FA01
7AD6F5CDEB7AD6759DE33AC677AC6B59
FAF907F60AF4FB0A0107FE07D6F1AC6B
FAFDFEFFFE03010301FEFEFF0301FAFE
6F9BDEB7AE675BCEBBBCEF7A05F9FA0B
01010209F1050603DF33BCEF9BDF77DE
030401FF010609FFFA02090603FA02F8
CEEB7DD6FDCD739B11FEFB02FFF2FEFD
0804FF07E775CD73BCE7B9EEF3BCE6F9
FE05F706FD0B0B02FAEA01EFFF050511
3FEDF7BC022DFC090A0401010206FB08
EFB7DDF7DDEFFBFF77DEEF3BDF6F9EDF
140605F9F917F8000DF70002FE02F5FB
FFF9FDEDFCF6FCF3FA00FE00040207FE
FEF03C0FFBFFF77FEFF3A0E741FE7BDD
00FEFA0003FD0000FCFE000BF7F9EE7B
07FB00FF020005000006000003FA00F9
7C00FF81F077E0EF800EFC1E0200FA07
05020000000000FCF83BFEFC1FF83E00
00000000000000000003000000F80000
007800F7C000001F0000FF00F7000000
00000000003C0F0000000000000007C0
000000000000000000FD0000FF000000
000000000000FD000300000000000000
003E0F800000000000000000007C00F8
FE01F903010BFCFF0301FD0602FFFCF8
FE0603FFFA070409FE0A02FD06FC050A
00000000000000000000000000000000
FFF9F3FCFC07FF090BFF04FD00000000
FB03F5F8F90C04FAF8F71001F7F7F8FB
842108421084210842108421FF0805FE
F60205FFF306FCF70842108441084210
060D08040A0605FCFB0FF30704FDFDF9
2108421084210842F6F20EFEFF06FA09
0DF21004108421086210842108421084
F50A050A1D02F60CF70608F202FEFF01
C6318C63FB03DE0618FAFEF80BE2EA02
1906318C8318C6318C8318C6318C6318
FF17F70104FEFDF5FA070606FCF902FF
0DF90EF916FBFCFAFF0B0907F5F902F6
A421084210A421084210842108421084
06F60EF90505E503FBF8050821484290
FAFCFAFD01F4FB05020A070325F3FC0B
94C5294A5294A5294A5294A5F3FB0E02
F7FA03FC0105030C298A5314C5294A52
05F905FEF8F4F207F9FC06F7040704F8
6318C6318C6318C603FDF90603FDFC02
FCF9060331CC6398E6318C6398E731CC
F80310FD11FE060802FF03FFFF0301FD
CE739CE7FBF0FFFF0E02FEFBFFFAFC03
3A0E741D0839CE741D083A0E73A4E739
06FC01060704F902FC0408FF03010A0A
FDF20312FEFDFD0102FDF20304010607
29421084A12942528429084210842108
FFFC03FEFB040CF40BF50104425084A1
EEFAFDFD030A0307FDFEF306FBFAFC0B
254A4A9494AD29525294A529080B0104
0102FAFC02FAF2F04A9295254A4A5295
F7FBF2FF0705FD01FC07FE0508FC010D
B5314A5A94A5294AFBFB06F3FF05FE01
09F908F75AD4A5A96B5294B5A96B52D6
FFFB02F9080A09FD08FBFFFB05070902
D6B62D6B05F5F30EEE09FE0303F7F303
6316B62D8C5AD6C6B1AC5B18C5B58B6A
F5010AF9FAFE09FEF504FAF5010CEC02
03F8F8F2F3FE07FFFDF80BFA0204F803
AD6318D735CD635AD639AC7318C6B18C
FF04F81306FAFCF6F4FCFB086B5AC6B1
F909FA080402FFFCF6050802F4010BFE
B9EE6B9CE6BDCD7B5AD735ADFFEFFDFA
FC04FFFBFA0AF604739ED735CE6B5AE7
FC0AFDFDF502F6FA0109FC0AFA09F90B
F741EF839CF7B9CE07FFF90508FDF809
FFF7F9F97BE0E839EF7B9D083E0F73DE
FCFFF40AF608F2FBF90A0DFEFD070B03
DF0841EF02FEF7FCFEFFF6FF08FA1201
8422F8BE10841F18C2307C2107CA108B
0201F9010305FD0FFFFA0AFE04F20C01
F9F9FD17F80108F505FA01F7FD05FE05
318C612946518463184E31942118C610
F606FC150101080602FA060394650942
030AFDFD02F6030303FF04FD01FFFE05
CA728CA528D2529C63294A310713FD0A
03F509FB0304FEFF9CA719C65294A339
1202FE05FEFAFFFAFD040703F1FCFEF4
49D673A4A539CE5204F601F40B07FD01
03FE0305A4E92A4A739CE54A4EB394E7
02F708FFFFFDFA04FDFB0F03FD07FD12
EB4A52730212FF0101FF05F901F71101
AD2B3B4E94A5275AD2D49D295A5A94AC
04F406FD0506FD06FAFB02FBFF040702
FBF70F01FEF9F70DFA0103FAF5FC02FB
B5AD6B6B56F5A56B6ADEB5B56D5AD694
0AF8FB060304FCF601F9F603B5AD4BD2
FF02FAF8F7030801040407FEFDF4070A
DB16ADAD7B62F6BDAF6B5AB50301EDEF
0AFC01FFF609FEF9BDEF5C56D6B62D7B
0501F10405FF02FDFFFEF9F9060106FD
8BE717C5F17BDED608FAFB03F6080209
07FB04FDC6316CDAF7C66F8C5F37B5EF
FE03F407F2FCFBFCF5FFFFFAFFF7FEFB
338C62F701F40901FA0C06FCFD0E05FB
CE737D5F18CEB1ACE358BE319C6F38CE
F8FFFFFE04FF0BFE020401FE03FE1405
ED2BFA09FE01FB01F904FF060402FFFB
3AD6F3BD6779C673ACF359D6759CE718
F907FF0307F408FEFE10FF07D6B58DE3
050101FF0AFB05F4FD040307FBFAFE03
EB9ACEB5BD777ADEB7AD6F39FDF90108
FF03F80802F8F90ADEF99E675BDF35CD
02FD0C04FAFD08FBF904FFF5F3F807E6
CDFB9BE6F9BDF35A0408F807FF07F9F6
F901FFF4E73BAEEB7CEF77DE6FBBD6F7
F507FEFDF2FF09FFFC01F216FCFCF9F5
3BCE777B05F00502F003FD04FD0703F9
F77DBF6F9DF7B9EEF3DDDF39DE7FBCF7
ED05FEFFFD00FFEFFE07FE041003F512
06FA00EDFAF2F90EFA0C0807F8FF06FD
BEFFFBFF77FEE77BEE83DDFF7DDEFB9C
FF00FA0400F906F6030CFF06FF81CFF3
00F5FA0C00000700000700FCFAFF05FB
781FEFBDFF03FE07BFEF7FBD00F90006
00F400FF0700F40607C1D077FF003C00
0000FF0000FE0000E90B020001000000
0F800007C1FF83DE000000EC00FA0000
0000F3FC0001E07800003E007C00F7FE
00000000F70000000000000000000000
000003FF0000000300F6000000000000
0001F07C000000000000F80000000000
F8FFFBF8FDF9FDEA010606FC01EF0902
03E6051102FD06F3F306FFF8FE0405F1
00000000000000000000010000000000
FE0AF901FEFB0708F401FD0100401000
050A090BF7FE030FF802F8FD0DFE0302
842108421084220842108421FF0305FB
FF02F9FFFDFDFCFE0882208421084210
F3F902F119FF040607FAF8FF03F404F9
2108431084218842FDF6FF2AF7FCFC10
FE07050B10C431084210842108421886
0102F9F801FC09FCFF04FE24FEFD0BFA
C6420C63020B08F4FE0B0BFBF7FC0806
1906418C6318C6318C6320C8318C6418
FB040604090F05FF02FFFB020B0FF8FE
07FA0104F9FAF4F0FFFD06F902FDFFFE
842108421084290A4210852108529084
01F4FC03FDF907FF07FAFE0629485210
0AFD02FDFEFD0409F6FA02ED0705FBF4
94A6314C6298A6294A6314A509FF0305
07FBFDFBFFF10601318A6294A5294A52
F9FEFFF8F5070706F9FF0E0303F4FCF9
731CC7318C7398C608EF0DF7FF0410F4
F9F4FEF739CC7318C6318C6318C73990
02020505FD06F9F4FB06FC0306F2F303
CE841CE7F90101F106FEFEFEFCF90504
420E839CE739CE739CE949D293A0E939
FF0AFE020403F5020AFDFF12FBF5FBF4
090303F7FEFEFA07FE08020402FB0C02
08425084210B5214A4250A421094A108
FA14FCFAF9F6FDFDFE03FD0252509421
12F7F8FDFBFB0307F4FEF5FE0B0A08F6
A52C5A56B4A92B4A54A5252903FE0A03
09FFFEFB03140A095A94A4A5294A9294
EAF5FDE4EF09E7050203FEFEF1FCFEF0
C52D6C5296B5A94AFAF4FDFAFA0407F2
03FE080762D6B5294A52D4A5294D6298
03FFFCFEFC06FBF009070206FFFE0616
D8C62D6B031F02FAFBFEFF0BFE0202FA
6B18C5AD6B5B16B5AD6E6ADCD5B18D5A
F6060202FDFC15FEF6F309F0FC12FE03
FE0EFA06F9FE03F9FF0502FDFCF6F708
8C6358C6318F731EE63DAE631AD6B18C
F9000A04FD05F8F8FF03F509735AD631
010201FAFA06FD02FCFCF700FEF80006
B5A07B40F681EF6B5CE735ADFAFC05EC
FC03FC020208FCF97B9CE6B5AD6B9AD6
05FCFFF50E03040000030000FB000000
078000739EF7B9CE000300010801F1FC
00FBFDFC03C0F7B9CE73DCE739C00380
0605010000FA00000000000003FE0000
C0003DEF0000000000FEFAFE06000102
0000003DEF781EF7BDE003C00000007B
080801FBFC01FEFE0903FD0602F7050C
0905FFF906FD0905F9FAF6F0FBFAF6FA
00000000000000000000000000000400
05FEFFFCFEFE010204FEFBFF00000000
070302FBFAFFFE060E04FA06F1F30AF8
84210842108421084220882109ED0201
FEFD0BFDFDF8FCF71042108421084210
FAFA0DF8FB03FF04F9FE07FF0EF80619
2108421084310C620307F9FDF8110203
0203FBF91884210C4310842108421084
05FEF801EEF60E05F904FE03FAFB0F01
C64194830FF2031BF3FB0BF6FA030703
20C631906418C6318C6318C6418C6318
030A08FAFB02042204FF050204020103
0115FCEEFB12F801FC0C05FB07F5FF02
852108429084210852908421085218C4
FC0101FBFA022703FBF9040229084214
FFF0FF05F80701F50BE302FEF2FF0704
14A5294A6314A5294A731CE5FE040705
0105F7FAF7FCFEFE314A5318A6294A63
FB01F60203F507F7FC02FF06F904F8FB
7398C6318C8421060EFD04F5FBFE01F2
FDFB020739CC639CC7318C739CE631CC
FCF60502F80B0101050BFFFD02FF04F4
CE94A527FFFBFDF5FB01FCFE04040408
420E7420E839D09421073A0E8420E739
03040AFFF703F7030207FD0303ED02FC
0C07FBFA0301F8F7060B02CAF3F20C07
094212A4A528425094A5084210A52948
FAFEFDF7FA04FD06FCFFFF114A9084A5
0F0AF605F906F6F3FDEFF41701FF0801
29494A92A52D294A92B5AD6AFD0CFC04
FAFDF6F60703070552D295292A4A54B5
ED10010804040905040101F80603FDFD
B5B14A52D4C6318B05F9010BFEFD0507
FDF4F2085B14A5B14B5296C5AD6A52D4
F70708FDFEF9050202FBFEFFFBF5F5FC
16D6B5ACFCFDFDE8010103FE03FD01FB
6356B6BD6C5AD8D6318B5B16C6356B5B
F5F5F5FBFC01F5F6F706FD01EB1003FC
07F80206FB00FFFBFA0403FCFDF8FDFB
8D6B1AE6B5CC6358D6BD8C6398E739CE
0A001002FF01FBFEFEF2FDFA6B98C701
0100FCF70805FB00030504FB09060B0C
39ED6B9AE701AD6BDAF7BDEF01020606
FC00F4000000000073DCD781CE735C07
07F90400070800010300FD05FB00F502
F781CE781C000000FD0000FB0000FDFF
000000007800E001EF7B9E07BC0F701C
00000000FD000400000005080000FD00
1E000000000000090000000000010000
0000F0000003C0000000781E0001EF00
F8FDFD0402EA05FDED0201FC03EEF9EA
F6FA0206FA0BF9FBF9030103FC010AF0
00000000800000000000000000000000
F10809020CF7F7FBF304070800000000
F20605FCFD06FCFD11FEF4020B04F8FE
042108421084210842108421F71506E7
01FFF8FDF8FCFA010842108421084211
FAFB04FD08FF030301FFEDF4F9F903FD
2108421884218842050D0AFD03F7F908
07020610108421084210842188421084
FEFAFC021CF5FD0206FAFAF205F7FBFC
C6320C63F7FC01F5F7FD08FEFAFF0B09
18C6318C6318C6320C631906318C6320
01FF0A090107FD01F50207FF0DF90402
FAF9FF06FFF403F3F6060607F50302FF
84210852908421484210842908429084
0F0505F9F3F9FBFF04FE090721084210
0A04FF06FFFDFF02F7FCFFFC02FB030A
14A5298C5294C5314A5314A5F2F10905
FCFF01050705F4F9294A5294A5294A63
F10604FDF205F5F704F7FA0513E70601
6318E6398C6398C6FAFDF9FE070603FF
FDFAF7F1318C6318C6318C7398C631CE
070703F7F70301FB0BFFFFFF0501FFF8
CE7420E7F0FB0D05FB0AFDFF02050409
39CE739CE839CE841CE73A50839D0741
0308F6FAFF01FFFEFB01FF1409F704F7
F5030FFF0102FC0403FD09FF04FE0DFC
09421094A10842929421284A1094A508
06FCFD0A0BFE05F9FFFC090342109421
FCEFFAF5F50509FDF507FF03FE05F406
25294AD4A4A5495252A52949F108F4FD
07F3FDFAFF0504014A52A4A52A4A52A5
F6F903FFFE03E5FE01FB080B0604FFF7
B5296A5A94B5AD6A03FC020AFD0B03FF
FCFB03065294B5294B5294B5AD4A5316
F6F8F7FDFFFCF801F702FFFF04FBFCFE
D6C6358CFBF2EF0FF905F3F9040307FA
5AD6C5AD6C5B16C6316B5B58C5AD8B62
FE05FEFDFE0F0D0AFEFD05FCFB05F508
F20501F7F6FF01FD08040205F7FDFE05
8E6398D6B58C639AD631AC6B18E6B9AD
F0F7F2F4F7030B040CFF01026318D6B1
04FFFFFAFC00FAFE0C02FC20FEFC0DFA
39AD6BDCE6B5CE735AF73DCFFB01F703
0B0E0400FB0000006B5AE735AF681AE7
FE0003FF05F904FAF0000204FD020406
F739EF7B9C07800008FEFD0408EEFD00
00000000739EF7B9C0701EF7BDCE701E
0000F80502000000FEFD00000005FD00
DE000000FD05000000F8FC0007000000
7BC0003DE078000001EF780007BC0003
FBF1040A01F8F502FE05FB01FC03FAE9
FDF0F7FCFF04040BFFFAFA05FA03FAFA
00000000000000400000000002000000
F9FB06FF02F70F0107FDFC0500000000
F801FFFB010F05F80C02FA03F20202FE
842108821084210844108421FC1B04F4
FEF7FD01FD090D080842108421084210
FCFD0B07FAFAFA0206F7F7F801FC09F8
2108421086210842F905F90D0EFA01FD
02F8FD091084210862108421084210C4
03FBFE09F90C0207FB05F9F605FC1208
C8318C64F81802F7F501FC04FFFDFD0C
18C6318C8318C8418C631906318C6318
FFFF0103F5030AF402F903020C030608
01F9FE07FB01FAF9FD02F80E04F6F809
A4210A5210842188421084210A421085
03FB05F3F8FC080FFDFB0EFC21084210
0711F907F6FAF40501FB05020F02FBFA
94A529CA5294A5294C5294A6F2F60A1D
F70D0802F607F9FA294A5294C5314C62
04F2070502FEF8FEFC080602FF0504F7
6318C6318E6318C7FCF70102FD02FF04
FC0707FA318C6318E6398E7318C6320C
FCFCFE04FD020AFA06FF06F60907F809
D0739CE8FDF6FF07FDFDFBF703060D06
39CE739D0741D0839CE73A4E739CE739
F8F902FD0107FDFF0202F701F704FBF9
FE020EF7FE09F807FA0D08FCFFF709FD
284A12A421084A9084A1084214842109
FC0803F1FCFD03FF030105024210A421
FBF70A0CF70601F9FBF9050C17FAFBFF
A52962D29525494A56A4A52A03F9EB01
FDFDFAF2F9FC09084A52C4A5495254B4
07FFFF0209F9F605F002FD04F6F301F9
A5A96A5298B5294C01FEFFF60406FA0B
0306060452D4D5298A5A96C5294A6B14
0805FF01FEF8F80D02FCFBFE06FDFBFA
DAC5AD6DFAFAF906F30C01FA06020604
5B16E5ADAB6318E5AD6B7358B62D8B5A
0007080EFD020305FC0B03F608F104FA
F2F7030C02F6FAF703FE0800FB0106FE
CC6B5A06318C039AC6B1AC6B1CD6318E
01F8F1FEFD0BFFFE06F6F802635AF631
FBF5FE01FDFB0200FB0201FD00041302
B5AD03DCD735CD735EE6B5AF03F30600
04020001F10FF9006B9C06B5ED739E06
0803000001FEFDF9000006FEF6060404
E7BDEE7B80F739C00301020006FC0006
FCF1030073DE07380E7BC007B9CE001E
00F7FF00000000FB0000000800060000
C007BDE00000000002FE00F500000000
000007BC0F0000003DE00000F0000F03
03020101010AFBFDFAFFFFFF02FF0302
FFFFFA01010101FAFEFEFE01FEFF0DFE
00000211000100000080000000108000
0201FDFDFFFFFEFFFEFF020200000000
FF010401FFFFFCFFFFFFFAFC04020202
8422088221042108862110410101FB02
F6010101020102020844110421084621
FE01FF0201FF03FEFE03FFFF01FFFC01
31884210C841946201FDF60101FC03FB
010101011086220842188832884410C4
FFFE0D02FDFE01FFFF05F701F4FD01FF
0A621CA3FDFEF1FF01FC04F8FCFC02FC
20C833108320CA430C65190642946319
FCFFFDFF0204F3FCEEFE0203FCFF02FC
FEFC01FFFF03FEFAFFFE01FFFDFE16FD
A4290C6510862188531C8421508320E4
010106FE03FD05010102FEFD290A4414
FEFE0101FEFDFF0102FFFBFF0301F9FF
94A729CA93A0A52992D3A525FEFFFCFF
FDFE0101010102FF394C5518C5314E75
FE02FBFDFDFF03FA03FF02FDFC05F8FE
A424C731D4F43546FEFFFAFFFF0301FF
FD01FE02498E6620E639908720CA320C
FDFE0D03FEFEFF0101FDFDFFF7FFFFFF
1704BD6702FFFAFE01FB01FCFFFE03FE
51D076A5074A1297A4EB3A4EB528EA3A
FD01FC02FF05FF02F801FF02FAFF0101
01FF0101010101FB0103FE01010207FF
285254A8AD0C4A90C6310B425B154188
0105040202FEFF01FDFF010262128729
