0000000000000000FB52F6ECFEE600140212004B0237FFFE012E06B101B5F92A01B8006FFEB6FAF6069A002607DC0003FC18FF7FFFE5013A002CFA1400E9FA5A
FF810133FD6601B0FFED0087011700F100AD00A0FFF301A200ED01AF023F0123FF24014700E9FE73FFD9FF6000ACFF66002600D000A70243003C0161029E00C1
0000000000000000000000000000000000000000000000000000000000000000FE87FEF2FF1100D2FFA90106003A02A2015CFEED01CB011A0131012D015AFEE1
021503CBFF0400D803E7FFDC024100E403540194000402DC03F0FF4C01EE02290167007701FBFDD3052B00C1040701E702E000BC01300057005B009800D0FF49
022A000CFFD200720226010E029C02E80377020201A2043CFF6B040D04ED017200D60375012101DA022D003E014800D504E702DC0136014CFF7C0056026DFDF7
003100CD0234017004A503AC027B0446008B03F701B600AB08F600F9029B060D031101C0002B035804690532031E033F022604FE079004DC022D039505EE00E7
038F031001CE022BFE610395012301EA016A038D01AF017B02030123044701E4031B0417023A020A02FF05FC02B1005D03A602C501DA018AFF89064801C101D7
01B100FE01A204F6008601270480034A02A407460446FDE90161008D01BD024101D3FF350322FE84033C05A102B201BC018B051902C602880066023F02790251
00D70396055B0871023701F10342033D02290424011802350352012207BA00B101D50457092F023F041F02EE0259028F00C9046B0101020D008D009109810106
0000000000000000000000000000000000000000000000000000000000000000000000000000000000000000000000000000000000000000000000000183FE7D
0000000000000000000000000000000000000000000000000000000000000000000000000000000000000000000000000000000000000000FE3CFBA1FC8600A4
