E10B1391D20E0C9108C208C8F554ECA102D9E56D04A2F0A812FC02F000C80830DF0AFF3601E008E50F9AF8D4CD2508190590DB35057F1A15DA2B0E6F00DEABA1
009302C50323028600BC012C01B6FDB9031003120399021B00DD037800FF02EE01F6025202A700D901EA019BFB56FFE4FE2501E4FF9101A703EB01D0032B007F
0015032201B604BE0516015C006F00E0FE360253022902BB0103037DFDE002F804DF02E6FBEE079101C4029B02B1FA0102F606ED020602A2005B01E30192022F
0351112206570ADB040F0F61FE5102040690FDFF07EC01EDFA2B021F065807D5FEE3008CF887067EFB8C28BD1F240C070F3A03F6F98EEB5C02BA031BFFB80A23
01A10026073FFBAE023E05C709170B0606E3010E06E9092403FF012D065E07E7F3610A040558036E0A2C05560EBE01A1FFDBFC81F7C805F80D030962FD7801F1
FB6DF57E0270FC1F06F6FF220ADCFF520649021C066104E90A72060405581BB9024A0285012E07070600FD5F0A0C0798026DFCE5FEEB019C04A30BA0019006F3
F49C03FDFC0B0D61FFBDFDAB09DEF30F0C4AFD630E0003EAFE5A05830B5607FC009EFFEC03A008D6FFB904F8FF910A4808BD03B305E409CC0123046CF9EE0254
00E802D302450255017203B60081000DF9AC014903950685FE1DFF8202A9031F031C01DFFFD504C705A40163025605B702FA01E7FD6C0437FC86029500E3049C
FF8102D5014CFFFB0094016801EAFDD2013C034202250339001DFBCF06070730FB4BFF720301011401AAFE1FFEA1FFF0000C00A0027705A202C40055031F03C7
004E0C17034F067004E6057306AB04BFFBFD03DA0A9FFFD4043BFD440562010AFE5201AD0856098B02CF10BA02C3034C059A0E9F0654038B03D706EF0541FC8B
021815D8029203530D1B07B800420722FF2909EF064B02580D4906EEFDD50171FFD0068303A409DC09F706AB04170180026801FBFF1CFC23FF6704AF117E02AA
00B903B70128FC0907CF083E01D2FFC002320A25FE6B068404240A60FF120816036A02D90C01098D02250682FF9A025FEE4706CF05C1078AF92AFC17054701F1
0273080D07240461006CFF0A0134031403C7091DFF90004DF4C301F007D801AB00C80418FCC90A8D062B067CFB2207DF0316064310870ACF00DFF86201BCFEC1
0D51EDF40A5CFEE104F107CBE268F162F4A9FE23E27D048DFDAAFD25053508320004018A073A0B17F0500022EF6AFDCB101611E2047805BBFF89EF82EDFC05FE
0D06EE53F59E0025FEDFF584059A06DCF6A3F9F4F7DFFDFB0B3DF9BEF155FFCCEA6D0970034801A8F3D605B6E7E0FFB401530229FAD7F343FCAE0BBBF0B00241
FD27FCA8ED450082E867FBEAEB80F270F8960494044A1215E4B212C6F8070B4E0DA2DEDBFCEC025DF44408F5F35DF853070BE79101BCF67304FD0822FC89F2CC
07B5F969DE40F5DC0965EE0B094DEF60F98A0701FCCE07350A2415E1FA14F722D73401F70C8AF2E405F20870F61BF7D1F569FA3E0D38EA91080203B6EC58FF7B
ECD5DFA6F9A7FAD1FDB70C271D48D7BBF9C0FF3200C6F788E1DFEE5FEB23F8DC00280216EED8E4CD03AC09D0E1D707CAEBDCF1681080FC8EF33D02B7FD5DED3B
F8C10652F3BFEB9FFC67F9ADF701FBB2F59BF883F594F21EFD990B6112CD14FBF688F51218E7EB1BFB670949E443F809FB48FAFC04A90F480C9A0F2C0D7AE032
08D6061809680F04F69DFA7AFC28F9DC09F00732FA59F95A01C70E42EF40FDD511850A5C1019FB37F2CDFF18F56DE944FCFEF08A0B95E49A0A29F72A0463F97B
012BE6F5F1E9E687077CE2A7FBE5035FEEB10101008117F307F0F9F50116067DE7D6FDDBF3F8FCA40BFDF658067DF371FD48F0E2073DF3A0033103EAFB88FC39
01800F010F9F07C7058113ED02ADFE4E053A06ECFC8D013AFFE5FC13F32BF22D0AEA003C017A14D0085E047B041C00BC16060BC10CFB08F8ECCFFD1BFDD103A9
023F125A0BDE0BFC04A20DDF07F90A4A04B2F94103C0063E06A8FD23046D077A01C30DF509380A39032E0856FFD8070F039BE996FE47075D0887FD841810F154
0D86035E05D5FC41047FFC6205E908140297FE0D08BBFE2800C7FD94FA0912D7079C0F9C0E810A2101D407970AEA0333FB070DFEFA4F0DA9FB900C1308900031
FCB3F810F10BF86FFC8EFCD3FFBE04F8FEE70B211116012506BD0BCF099D0C2D00DDF07303580C3F08EB07E4F11DFCBFFBE6164F0458FF75FDC008650B1E02D1
0A2B066E056802D10623FC93FB4309F4FDCE0A6615A802A9086208B904620283F9EE01BE0EC80A4605F3007703BAFEFB0953FF6C167F0F0016030A8EF8810536
FF4CF97907BD125A04D00237F73E07380B230AD409A7168C030309A813E4177C0CC311D60DEC1233E37E08490C1C0C41F9C000CE03E7045B057C00BCFBB400D6
F8E200FF0856048A0F88FCCA0CA203C70F1500E9F4890D27F237067D0BC607680506097109C52102145E0C6FF98E03060C4A0FF503F0025F0A71034F09710362
0D3EF3090DC3071500530CF00ACFFD4003DEF829042507A80A890D4404740D30111A08440676008AFABD0AB511270C060F6F0661F908031207BEF41D0EB60427
017C05C50F600753095104D204C9F5B0066BFF8316DE02BF02EE12AA09EC063604371D95033E027A1F1306B61293FCECFC181ABAF76E01CE03ADFFF5035BF6CD
12AE12700A3A060A1020006A0E820682143712AFFBA6003705BA0DE71D69FE321B9AEE8E0B130AA8141B07530549FF62F80209211418054405E007580A2CF3EA
F4F907AAFBFB0BCF044C035FFAD30C3A0F210EED081A182E0680108002F0FEA50BCF074D0B8206B9FA39FEACF5CE090008E4F956120C0785034C1DCD0BD70939
0FB605AD0C6D08970C8710C9099E077805930889110B088710EBFACB12FF08AFF9650647069211EAFD48024B06BD0E2200B6F71508D0049100F21005099BFE7F
F7D7FE7F04AEF95FEBAF06760495FE81092EF3E6FEED02BBDE33F960E7A5F235E9BAF6AAF218FDD1FBB20AA6F73F03FEF4DAFD46FCD3F5100208F81CFAF1F9E3
060AF194F5AFF687F5E80C95E67FEF40FE67F3D9FFC9FC170DE1D1D5ED15F203FCBDFF02F3400957F5D5017202C9FD5DF1A9EDE703B50374FCD7FE0A03160AF5
FC1D072F03A80110F5A20051FDA0F42EDAAFE874F930EAADFA2CE3F9FE9D016BFF87F840FF61FE32F1D5F7C5FB9BFDE3F4CEFC72EE64FF0D041EE348F95EF57D
02CEEA24F6B600FD032B031902F702E90153F829F966F762FE88F263FDC0036C021226E70027FA8AF1DCF9BA02BB02F5F7BDF19903B4E691FD6F02BC071DFC42
EC330025F8D30A7AF84DF407E7ABF012051F040FEF8FF4BAF886FA5B0563F5C8FF4403F6F48E0089FF88035004B3FBB5F26402CA044706FDF288F9CE067C08B9
FCD6F8DDF11B0475F95FFB6402910955F6CBFAF0EEA0E88E0656ED10EB13F533F392046205F9F716FEB70474FB5DFB73FEC9F22DFA62F07C00210A4BF1DB0436
012EF4EA04F2F227F290F319FED6EE3F0247048EF60202DE062BF62DF3B2FAD5F05E011C001BF175EFEBFE0BFC13F7B70716FE32001CEF86F565F769F0C4F40E
F69AF3ACF7E7FAD6EFDEFEFAF29AF432025EF793FB6D043DF7BD0380EC9AEF23FA97F2DFFD86F8FAF8F1016AECC7F4BBEDB2F68FECE5EBD7022B02D7FCD1F84F
FE2F066CFE70F214012DFE2D00CFF3C2EB9CFB1C01F1EC1BFBAAEAF4FC48EF49F522FC5103C70052F18DF18CF225FFF2FD64F790004DFD4BEB35061BF4261317
03A2F5FBFCD8FB76FD5AF3E4F89E0B32EB6E03C7F3BAFC5DE32BF4A4FD5EEF00ED3DFD3BFD69FC3FFBFD05BEE7D3EACFF39AF020F8C7FD84F803FA470640F6F1
FDCEF767F7110232FB24F8700488F7B100C5000701D0F43EFB2BF7A7FB40F1CBF57CFCF3F369FC84FD13F8B9F07CFDDBF905006C02690370FE73FA53FE05F729
F0CAEEEDF76AF45FFCABFA6EF734F462011D0140018F0789F236EA4F0577FCB7EFD2FDAB07FB071DF063052BFA5501DDF17EFAFE03900562F0E5063AF4F0F070
EF6EF1E7FDBEF5AFFADBFC8906DDFF6704ECF6EBEE2DFC5EEEC4F488F110FBD0DE4BFE591AFCF4CDFAACFAD2FD250478046302E5F2BDFE2E2210EECF04D9FF24
03A000E6FB8CFE8DECD0049FFEB2004F00CFFD9AF03DEA68F434F904EF12FB13F4B0EADDF8990649F661022906110056058DE895F58401650003F6C0FBA8F737
F2EE025AFFB402E9FC0A04D1050BFD3805B3FDC203F5EE38FF7FFD76FE0501F507E20139F626F8EFEC21EFEE13C8EE25FC89F32F03B00337F584FD55EF7AF206
F4C9F003FC09023BF4230310FED3F863FDD3F5CE06CF009EF2BDF0A4F3D0FCEEFF2DF98B00BAE9EEF98DF34FF35200CFFC80F6E4EA4AF7C7006BEE34F621F23E
03F0F78BFA36FF3203100352FA9A0068FF8CFD7FFFF20478FECE0292032B03060216FF70FAEC01C1007C002F08B906850168043CFCAEFCD4FCD7038F02BBFD78
055500EEFF46041DFFA7FA2D04C8FE03018F015D00ED03B8025101D3FDC3014AFA89FE4FF21E023902D9FF62FDE802C100F0FD8D0060075C04D402F6FCD1028D
01220168FDA602BE006E0068FA2CFC40002F006300C6FFF803F309420257FD6E04DB03F0018604AF01AFFF60FE2909D7F70E0139FDCF0023F8F700AC00D3FCDD
0470056A01AAFB43FFB3FD7C04C4020301FD0593032E00BB024500A10293F99206550132033108180047FF89FD8E0323031E00D3023D010BFAB8FF93FF09FEEB
FD8601CA01FFFB3E0241FF4501110102F60704DC041AF92F02610457FB65F437F6BB008503D500A5F98FFFCD07ACFEB100D50014006702B9FB43FB150064FB7E
026C002D00D303F001CFFE4D0AFA02FFFA6C020FFE1201AD0090FB1F022C0686FE0E04C2F7890760FD4C01D5F82B0476FC7609B3049D057D04620660F41EFF7E
01CB02A20605FC1802920258FFADF8BDF84EF9B3F8A60908000B00C203B205F1FFB2FD39F789F85B052F045BFFBDFC2CFD33013C0324FCBD0680FE6BFF03FE05
FE74FE5800BE02B1036AFD49F8E1FCD300B9F93602A303FCFAF7FE25FF8EFF5CFF30068502BA0BF805640211FB34FA1F03C608CAFD5303C802ACFF76FE63FC6D
FC54FD2D043B0074018E01D2F7650227F86602C00204F1C302D4009BF97DFCC6FA70F1E1010FFD42FB64F62BFDDE02E300D1FDDEFE4BF5DF0042F74601190430
08CEFB7DFE60FDC4FD2AFE7D08EA029A0302020F044B030E030BFF8B02010390012E0193FFE6F9D70080F663028A03330053FD75FEF6FD8B02530253F81304F1
026A01BF031A024EF32102F801D6036A02FC05D300C1FC24FCE003540064FF92FEC9047C03D3029602180272FF0DF2C1FE0E03A3FF71001C039EFC400372F3F7
FF95FEC501AC0533FF4DFFEE030FFD0CF49403C6FE73FFDCF95A0443039BFEFF0234FE42FF68FC6E02EFFD0D025FFF66FE0DFF5C01EC0027F8F9FBB703F502CB
00D9FE6605220BAF022002AAFAF7026A022BFE3C0960095CF3A8FD88013403C2034B02A00178FD170733050D000602CEFD28FE7703900904F6D8FE6100AA04E4
0648FDAD015BF789FCEF011BF7E4FF1B02C9FEF7FED502DD0120F89501BCFA55F62DFB76FC66FC92006504D9038C028BFD4D01E8F1B80229FE1405E1FC6DFAFC
FB36FFAB02D3FE710103FD910069F66D026BFD13FF3B02DA01A6FFCC0066FE6D05820246003B0327028A0312FF6402D802FC03BCF915FF0E01B208F702650360
F3D700BB04DAFB49FC4D0195FE8603A2FEABFE680408002DFC39FF91065F01760185F7DA026800DAFF1D01BC054800F90134FC3E022400D8FED8FEE7F5B30056
04BEFE770440FC260524FEB7F696FBC1FDD9022E022B0090029800EBFE20FD870410001DF8A3FD5E01F8006002FEFF14FF8CFE7CFF56F86DFD0900B10283FFB3
031CFFD9FFFCFBE30060FB4F0491047A0065FBF8FEFCFE1EFF46FE0B014EFABB0317F81FFEBA003F02D80266036E01CB038A013AFF44FF19002C0179038C0091
0296FFECFF2B02FBFB12011DFEDD04A5FFA60017FE2B059B01B1FF19038D0380FF2CFEB80452FF4002A4F808F51EFA97F8A7F56A031CFCE001A8F542028902E2
029BFF04017501A50266021E04FDFE47FF98FE8EFFE504D600CBFE57F6B4004D024BFC5CFFFFFDE206950384FDF0F58401C802C3FF63FEC7FEF50159FF38FA3B
0259F576034B046C0259F7CAFF0EF5B702EA04B803D8023BFD0A01530046015103F1FFB201A5009B0217F921FFA90314FBDD0429044F02E8FFA101B4020A0301
02E1F95700A001BDFEF0FD8E013FFEEF039703570149FF560213FCC2FEA3FF0300B902C4FDD90326FB8CFE76F96CFD0205E909000149FD9905B502E9FA79FE0D
FB850416FE6FFFA70442FE74010FFFF4035F0089FE1AF8AF0596FC3A0121FDEB012E029B061E062AFCC6014AFDC7014CF99D01ED00F60112FD1E0124045802CC
F2DE0190FC0700620141021604E7FE2CFEDB040B00AA006E0100FDFF017E027A00E60564F5C4FF400145016DF41DFC5EFE28FBFBF6E2022DFB4C018A007B01C3
01770A1A053106C9FF0A1CD11F7A08370D46151A08030808FEB4FF2C0529F7F501850A8ADE1F088B0CB61AA1122C0B8109E6115A01C411590D2E07CEFE650751
0244102E0C7E074B055DF375249B0C6F0D7B0B2705290D4806C5089E10200BB604E5F79A14860BFB08A20DBD07C103C2F6DE08330A53FE270534068A095A1A39
151B0AD5133C136202580A5B1A6B0295FD930A4502660565159E0EB9FE0909D409B90F3DFC87FBDF0A3B07FAFECC0D3B00990CF3066B1FB2083E1C05FFAC14E1
13C615AD10E11A32D98014600BE30FD61BD2FFE906B3ED2C106C0044FEB4108F06590F240DCE038912F80B810FE902C01E7B07D8FB930672101D0CD8071D0B07
0EC90E7E03BA01C811E323B421960E0419C413820642070211790D0316B8FA7B0C3C0BCB0F5D0428081B02BA0B1FE6760FA2141F079D0BDB10130DAF174F16F7
06B209AEF3F108E00A5A07C0F9CD145311390697085C0A25187509BE035201EC20CB014D23FDFE79FBCF1A2F040102FA112B0ACD25D60BA90BE702F70D6B1A6C
02BE0F1A11CE05AD0F5F0FFE0C480C310A740825040F097E1A1B0D440551109101A10267096228DE19470F1E22D81AB2F1F50BF20B32F96120500B750317F5D5
0B44024206A7F23A0E1502FE0C2A03530FCF07121605089610FE0E8905ED1099028A2E081BA60ED517F1016305B907100A2604F90423FD79089508A20D95120F
FD90F64FFEB0FA7900DAFC4BFF8E00D5FB5C007EFAE5020BFBFBF5CD013300D2FEFCFB57FEF5FD39FBF8043EF9AE0042F740FF7B0319FE03FC23FD45FE1FFE32
F9E3FF1D00A9FEA6043B0375000400CFFF5100F1F953F8C6FFF6FF32FD36047EFC13FC77FD2FFB02FC4E0055FAF9FEAC023201160009FD0A02D9FE07FCE3FACC
03E4FCC3F9CD0005014C01500251FB05FFE8FB78FF61037FFB9700E3F9F5FE3AF87FFC75FB3CFDE7FEC5FE24FE8EFA06F6C5FCE1F8C6FFD3FA5CFE38F83DF804
FA57FC77FD2503D3FE57FB35FE0BFCF4006FFD4FFC3AFF2100B3F8BBFF13FF3DFE260178FF19FD29012EFE6BFE05FD530A00FAD6F8AF014DF6DEF9B3FE83FD4D
FE0CFD35FD01FEB3F9BE0462FC070003F839F6FDF80003B6FFE5FFD2F96DFCAD02BCFD910240FFEAFFF4032C0136FBBFFAB0FE6800DF01150030FBF501970313
F950FDAC04E6FEADFF2EFBA4FF8CFBAC0613F99AFA71FBAE009D0243FCDD04B204D20024F7ED002CF932FC57FC130329F94AFFB7FCBBFC6A020BFE4AFDB1FAC5
FA7AFBE8FADDFF51FD74F22BFD3B0294032CF919FEA8F525F659033DFF4C0286013BFE83FF95FEB3FF9DF790FBDF014E00470170FFBA008804F0FA7AFAC30128
034B0411FE09F8A4FC9EF28F0B5AF991FC1CFD5D007B03EEFF5301CB09D1F847FDC3006BFC57F64EFC82F978FD68FF4FFF67007FFF8EFF7A01F100ACFDE30103
FD51F6A5012BFAC1FF3DFF7F02D4026F04A60393F72701E5049BF881FFD2F81FFAC5000D0110F99BFE34F58402760352FB7402BEF32B001203A4FE38FA8B0274
008300E40389FE2AFC4EFDFAF6A50120FF1500EBFF19FED0F99EFD890090FBAEFD37FC86FDDF0130F9DD03600147FB60FFE3FF44FEB6029CF981FB91FD30FAE4
005EFE59F532FABB031D00B5F8A3FEB1F6B2FD6F0026FD19FC00FD53018D02F6014DFAE1FAFC04F900D5FE45010DFD3F04C4FB58FB50FE03011FF870FCCEFED4
F989F9FCFB140257FBD4FF8F0462093700D7FA52FBD4FFA1019DFD32FD36FD24F9D6FE33FA720318022CFAC6FA3401CF0223F79D0258FCEA013C049DFAF1F81F
009F027A05E9001EF904FD04FC03FFB9FA94F815FC62F352FD4DFF5A0348FC570298FC31FF8800F0FD9C01870066FB16F623FBAFF77C00CB018FFBC2FEC3F97F
FC0A00C3FDD2FE48008FFBF5FF860053FDCEF9AFFE0C01740775FAC2039700A2F89FFD36056A0164F9AEF614F668F97A02BC0192FCE500B90026FD82FF36FF63
FED5FEAC00C8FA72FAE7002DFA96FBDF0238057201510204FD06FE98F95DFCF7F9F3006BFBDDFFE5F3FAFEA3FAAA02D0013EF792F92901E2FB1CFD6E0104FC90
FA6D05E2FD78FC8AFDD0005BFD57FF53FABD00B60250FFA0014BFFE9FD87FB56FBC4FEC5FA7200060170FF990020FFFCFEE2FAB400F1FE4FFE7FFC1CFDD4FBED
E6220414F6E3F583FCC7F834F16DF550F93BF654F2DF00A6016CFB14FC69F628F99E027600AAFF43FBC8F0EDE52201C2EF4703EDFA0EFA86F3AEF513F1A7F2D7
EA94EBD7F60A028801CAEFA0FB24FD2DF2E6FD6AFEEBF520E82500ACF1A1FC79FAFDE1B9ED86F17FF536FFE5F8EDF7E6ECFA0093F950FB4FF1A0F74DFC30F6E4
F2230186036BF3E4F5B8FF4FFE540200F02E0414FB60F3C7FFC4EE54FA5EFDDFFFF70843F35EFA8FF78EF879F513FE46FCA0E894E976F5D006810379F9C4EFB2
EEE8F2ABF9FDFC230081EE6603CCF62200FB0793FEE9F8CDF969FDDAFA0EFC130215F50E0184F3FFFAFAF798FF98F52A0042F38BFAD0FDDFF619F9C7F376EF55
FFCBF93EFED7F6A1F263F410F74FF1CAFA91F900F5ADFCA1FB83FA72001BFBEFF44FFB23FBF30104F4C9F458FCA4FB9F0565011EFB92F143F86A00A6006DF565
F91CF9F60067ECCCEC11F9C5F7E6F710FFDEF3770212F520EF0DFCDFF3E5EDCFE7D6F49AF9D4F4C2FA6EF34703FDFCC90087FCFEF1F9F31AF05E00CBFCC2FE12
F4D9F187F70FEB9EF010FDCEF8E3F8C4F1EFF1DEFBBF02E0EDC8F8F7F4A802D2EE33F11EF38801F4F6CFF6EDF8B5F689FD6900E1E5BEF36EFA75FB7DEF71F1A3
FA77FAEDEB1EFB4A013EF4A0F7C5F796FD55EEE9F706F50AF617FA7AFCE803A4F2BFFC6C015BF6F7FEE9F3E1FD1CF7D7F2E3FE8DFD28F66DE9A5F902FFC8006C
02A5F67BF907062FF41DF3A2025CE8F505B9F7E4FD1DF1BFF19EEFD7F5EFF1C4FC16FCB1033E0416FA6FF55BF9C6FE52FBDDF75DFB93EB66EFBEF80CF491EE6E
FFF3FF94F3BDEFEDF071FF5FF8ACF85B0416FA62F7C5FA87F788020808CEFB9AF421FAB9FAC1F3D7F9F6FE6EF4ACF5ABF8F80088F6DAF9BEF43BF9D3FA2DF466
036BF3FF02AFF9610393F977F693F2BDFE23F746F8DCEF0AEDC2FA16F08BF4FB00D8FAE6F0E7F745FF77F7FB066EF8C70239FE3DFD4AF6EEF8C6F9E1FD18EA7F
F7FCF66E02ECF6C3EF17F2A6F375FC9AF8F7FDD900E3FE78F4A2FB85F03BFA1703F1F86C003CF05D02E6F4F9F4DCF814FC23F725FE30F2CCFBFEF861F192FC6A
F834F6CDF7A3FC10FCF5FC65FCFE050DFB4DF9FFFDD8EF9BFFA1F6ACF2E8F68CF41FF997004BFA56FD4BF35AE7AA0207FDB8F1F702AEFEA4FEAAF7E2F6BE0693
F7D9087CF29DF3ECF1EEF160E809FD2BFC4BF469FEF4F7D10000FBD90147F28CFBD0FF68FCBBFBA100FD032BF3F3F3C8F78FF547FDDEEE99FB8D02D4FD61F0CE
F917F0C5E6D8F576EA44F210F8C3FE12FDC0FC56F974E5F4F64BF579F56AFA3DF97CFC21FEF6FC22FDE40320FBF0FDB0FB19F65CF6CBF2960190F73DE5930091
F57A02F8EAD4FAE2FCA2F19DF7CCFD7CF154007DE6A2EF92EC95F007F593E843EEEEF861FA7BFC59F93DFD3AFA04F74DFCD5FCFBF886F3B8E9BEF0B6EDC4EC16
031A0335F1CDFDECFF1304C0F09CEF16FBE2017BFF76F5DBEDE1FADFF75EECA7FBDBF2F20269ED22F76EF37EF0AFFC9DFD60FC72F716FF07F35DFE19F847F6E0
FC55E965FBE0F349F01BFEC6FDF7FF33E99DECAFF328F5A20475FEEA001CEFB4042C003CFEE6EAB3FE46FC78E863F139FB17F095FF73FCF4FAD7F7F6F84AFE8D
FF65F578FBD1FFB9FEA2FAEF02C500C00221ED2B01F401ECFAC4FBE300F5F614FE40FB64FFE4F39200F5EC2FFFEAFD86F976FB50FDEEFE85FFC207CEF9A3F4BE
F9AFFC35F756F94FF0B4F2ACF66D0087F141F9B8FA6DEC5BFB5A005A0170FFC6EFE5F938F2E8FB14F73BF8DA012EF878E91901E6F60E01DEF9CE002603A4FB95
FDD6F674EE5EF95BF63CEDE7F526EF6DFF1EFB16FF19F525F667EF93F8D5FA51EE65EE6C038BF4930365ECD9F1F200A70184F3E8EDC9FDB0F4EF04DDFBF4EB40
F6B200C805BBF8A6FCEB020CF7C7F09EF1BE00390235FB3BE66FFA110224ED02F6DAEC1AE4E3F359F12EF600FD07FE06FBDCFF6DED2DEC72F210FC490435F0FB
F62606A5FC34F0F6EB28F316F4B5F906F857FED90340FAEDF0D8F026026AF31EFBFAFAA7FFD5F6D5F1D4F7D6FCE1FF47FC24EF42F880F6DCEEE3F98204BEF6E2
FADAE852FE7FF20DF8DDEE22FF92F568F190024AF0B9FD80FF2FF6AF062CF483FE4E014800ACF516FE90F778000AF6C6E39CF5ABFD14F789FF0A0319FF56F24A
EC23F127F62DFA37F71FF291F9400172F22BFBFFFED3EFE301ADF943E87DFED9F60EFC99FB0BE882E9A8F82BF99BF8020098ECBEF624F2A0FE5A0056F734F8F1
00E5FA6FF399F9A6F924FBF3FBCEFAD001CE0104FE68EFE7F90AEFC10221F7CA0049F5DCF981F111007CEC550339F2FBE5A00080F466FEA903ACED0AF5EDFED6
FE7EFDB2F07DF6EFE86EF102FB41FF7D012BF3640158F8AC006DFB1EF5C8FFE0F71B0678E988F8E6FC20F0BFF860FAFDF498020F0437048FF1F2FC57FB37F6CC
00D2F955F693FC04FECEF69FFE6CEB9BF670FAB100AEFAC7F8B7EA3AEEF3F6FAF7DDF724EAFBF25B008EFB31F964FC0BF2BD021AF1B70157F9D0FBCBEF40FC31
FFF3F9DBFE1AF1FEFDFAE70CF0F8F860FABEFC7003A2036BFBD3FA29000AF134FE5A011FF890FEEAF4ACF8A5F4D5FC1AEF4401A4E9E7F442FA72F0D4008FFECE
FAFBEF71F2F8F0C7FE3AF5A1FE94F366FBE601F3F7DAFBA5FD12F671F722F9BC026FF8FDFD4BF1C4F99A00B9FC32FE38F4A6EE8FFEF0F87CF850F3EEEBB1F660
FC11ED38FF41FCF0F99903C3ECBAF5E103C7FF7BF6C9F595F25E0132E859EA80ECF5EF29EEAC007DF822F944FD70FDD2FEFEF0D0FBCBF309FB45F52DFBBFF285
FA55F6590003FA95F8FA00DAFD0FFF3D03BFF506FE7B03E8FABEF9B6EE8904CCF77FFAEEF414FD53FF92049DF647FCF2F921FD9000D1FF0DF22FFB49FC7BF78C
028BFB270631FFD4033302E503F802B6028A0482FE0801C4046F05D300B1029902B1006D0244F8E503400832FE56FB80FF0AF899026CFD26FED10273FD2F0265
02B5FF730508027702C2FFA9F65D0390006BF99A03EEFE8C0362027CFFF302FB049F006702C5022A056B0029FEF0FD48FFE3FC74FB14FE30FF9D0664FD04FE54
010500D0021403AE05FF0567034C0418FFD205D6029F002003A80870FDBB02C5035E018B01DE016F05E5020C00060395F984F9730278008404060213FE46FFC6
05CB05780187020A050501F6006F00D9020102100197FD4C039C02010375FE4D03AF02D6071EFD97FCD802B9FC14FF3E02BD0223FC3B049702BCFDE400B80210
002D040900CB01E6016C0007FE0AF868022B0033F89B04D303C90271FDEDFD5C045504200094FDAFFA1A03CD04E904440346FFFC0568FF40FEAEF76906CA029C
03DC03F80257039E02650023027F05EDFD130459036603F5FFDE0114009B01A004D5026703F5F72601F402CDFE9802BF042301CC02EA070102180433007502B6
0046FDFA000303C4041E020901AA00A6005001C7019EFA2DF5D9FF72022CFE03FCF9FFCBFA0004D5FCBA044EFF5806C7F8C3FF4202CCFF2103E2017504D203CE
01FF0226041701A00584003900C502ACFED700D8FE3403CF0354FE790111013F0542023403C0FDEE035606AE0144FEFAFD9F0045FE5A05D20255FAEA0097015F
041902210472044504B10377FF4B0314053401D70161026703AF016A050D01F1FC6D029DFEAF02C7FC3B00BF0819020901D9016EF981020D0476017BFDF500BD
FE2EFD730486003B02C50249082102480393FC5F028BFFAD01F50107FFC80145056E03D106DDF9C002EB0334026DFCD4FBCD00D9FC5DFDE9FE5DFDA402C1036C
02D403DBFD2201A8076EFF16FE47F81000E303E001AE02E302DC043C02E0FA640141FCBDFB5AFE3F03DC00A3FEA001D9054C013302CD004807F20476FD160095
046C06F8048D03AF036B007E0171FEE603F302510498FC53014AFE5203A10148018304F002B8065CFF0EFE56FF95FEFC0149FFD30083FE6FFE5B0118005BFBEE
FF5AFD22FC8DF8D50507014D05D6054402CE029800DD02E2FC7D0448038600AA025907ECFF5BFC9FFE1000EF0353004D00AC0267FA63030403A805C1FB610266
072F010202A80246034B014803D6039702BEFEEEFF270291FFE501E100E9FE97041E035904670358055302A1FBB6FDADF79AFA3C04F50616005C02F403F301A1
FF70FC650066FA19FB59FBA2FFD0FBA0014A0263010E03D9014701E8FFD000FF01CA01E801330171010101FAFDF9019D03FFFEDD00A9FE7C04A00472FB0802E2
01DA035B025F021BFDF602D4031BFF6501A8F3AF01F3F79FFEE4073000FFFFF802DC0430FFFFF966038C045C04140231FDA1024A020CFA82FED1003204F705FC
F382015DFB77FE11FC32FA6FFADBF690FB31FE5FFF79FE5600CB0346FEB1F8E7FC410046FC4E01530312FFD6FBB40279028EFB39FD98FACEFBC1FBA703BFFF7F
0209F9F0F948F7FCFC42FE060042FD5604ABF92DFFCB021E00B0F91E03C0FC25F87104C8FF2B01ACF5F1FBE4F779FD83FB23034500A0FDCCF9A0FE5CFD45FEF0
026A013002A70197FB31052CF5B1FA85014801C2FDC8F997FC1300800273F8D400E90328F8A805A1033C0261FB03FFEB00A3F5A1014EFDA4FB17016605B5FCEC
04C905870219FC52FE9EF8B2007203B1FA4A039DFEA701E4FBECF776FA89FFE30077FC58FF63FB85F5EAF839FF0804E4FFF5FF6E00E50157F84DFF7302B20056
03C2F125FAE1FD210096F891027602F3FE7EFCF2F9FC00B2014CFE0AFE3F00FBF650F9CF0477FAD5FA9A00A6FC8D0374F890FDC2FB61FF44FDEF0124FFA00205
004401AF03D0F684FB1801E90100FDAC0192FC6600D1FD76F8A9044402CCFA9D04600B18010DFF51FCF4E7ECF9CF0042FBB0F6F3FA8901BC023CF78BF938FCF7
0451FEAEFD1FF91AFC2E0099FD76F9AFFF01FC45FEFCFCB3FB9CFF30F96D0315F720FEB7027C0180FCB40291FB7801AB0420F9420219FF2EFFB102DAFF3B02B4
010403090207FBDDF9A0F620FB9DFD18F74DF9F0FC8603A4FDC702F304E4FEBF04ECFDCBFF26F88BFCF6FA5FFB8701DEF61DFB40F631FE5C00CCFC43FD4E0060
FCF3FE5B03BA012CF91800C0073CFF04019FFE3E04B1FE07F8140325F8640666FAFE01EC03ED01AE0036020903BDFD1700B3FF1BFE4AFD10056BF513F08EFE11
0073F2120342FE82FCDAFE61F9F8F76BF99EFD4EFFAE01450327FC43F747011CF9BBFB8FF8BDFF63027202D0F6800111FED4FCFFFE2CF87F02620059FFB6024B
0116043F03E4FEF9FDAB0103FD72FE7FFF780365FC3BF45FF81AFDC9FC6DF68901C0F86A0243FE470070F9B50098FBCF026FFF56FCDC041CFE8EFD0EFEFC026B
FEFC066F00ADFE39FFEFFD35FB9CF70AFDFE0064FE20010501DC013702140439F82C00FFF855F99BFA0B008EF89BFF6BFF9900A1FF06F8390554F7ECFCC4F6B2
0651F22EF767FD6302580105FF4C004001B006DC081200B6009A00B3F7FC027EFF4CFEC4FB1B0403001DFE2BFEE2F98BFC9004E30C2C003AFC36F87AFFF7FB45
FE1601E4FBD5FC8CF869FDF304CDF9B301B8FEA9FCC501A10486F45FFE600786FBD001780460009FF9F3FF8FF76A05D002890120FC06FE600012FEA6FD1EFBC9
0186F57BFD8E0405F7FBFBE0FE15FB5001BD03FFFEE4FE66FD7B03E0F9E3F900FD8E04C5F6B502FC00A5FCC2002F01DBFABEFFD3064C0141F8B5FF21FCD7FF5E
FFCCFB82FC67FE5DF743F4A4FA79FF75FC7A01E80530FCA4FFE601C3018AFC94FF77FEE3FAE9FE500556FAA8FF8B008EF401FA5C0203FABD027A024205E20130
0387FD8CFD08FADC00ED035AFD9F0495F88AFF54FE74F938F4D4FB42FE33FEB1FB2A0078FC1302DFFE8E0251FB1AFEB502FC01E2FF74F5B0FDA0FC5C00D3FB41
FED202B3FE1D0560F9A6FDF4003CFA46FA2700A702350621031B068301FFFBD9010FF7DF00D40431FEB4FEF5F74BF93E014D030DF8CDFFAC00C403910581FA9A
FBD5FB54FE3A01E301B7FA2CFFC1028EFE5BFF29FC95029AF5FDFD1904B100E3F7E3FBFE024EFD43FFB7006EFA52FBDCFD81019FF663FA34FFD3FD640047FE6A
0544FA3EF8BAFF6E0157026B064DF47C0244FCCFFFFEFB09FF8CF5ECFC96F4B9F59AFAFCF9B8FD9AFADBFA2E039C017EFDF1FFCA022CF394FF3BFD02FE9DFDAA
FFAB045C047A036BFFD101C7FE01F3E0018BFFE2FD43FBEE01B4025CFC96FED7F22EFE32FF8DFE87FC870056FE78FEE9FF860248F9D4FDE9FE8AFB39F4150034
F67E0095FF920384FE68FBB2F3D4FA97F7090235FDFA002DFA62FFF7FF9402E7FC08FFF4FDCAFA74FBB5FE12FFFCFC62FDF4FE450344F8A1F793FBA1FEC1FCF2
FB29F9B1FA84FE42FE90FBECFD91FA94047502BEFA2901D1FBF1017AF97201E50026FFC1F71CF836012101F104E403FEFFB5F9370056F9630204F7CDFAE50181
FDBA00A7037DFD04F79EF9C5FA8D0204FFF90392FEECFB990639F8DD006002E3FD6A02C1F5AFFDADFE28FFBDFED201D1FEAA00EAFC51F76C02D2FE49045004A0
FFEB023AF8FEFFD5FC84FD68038BFFDE02A30513F73A00B2038102F6014DFAD905C00384FDDD01D7FC1A072FFF7EFB4CFEFDF927F44103D9F4DFFB7EFA03FF56
F8C10189FE22FB9EFF4CFBBCF9A7FC3CFFC4FA34FB89FFAEFDA5FBD0FB86FE60FCC50383FF38FFABF91005D301B6FBA5FFA2FBDDFB0AFDB602C9F0E8F765FF5A
01F1F8B70212F5BAFEFF01350001FD200156F9FE05B2FDB3F3DFFD10FA71EDA1FC960422F75DFAA3FFC5F192060BFF7BFA6FFF0CFB09FFF60462FB6104FBFE05
FB4EFF8EFFC3FF1FFFB2FD9DFBFB011CFEC3FF2EFCC7FCE2019D02A3FBE8F8BAFF93FB3DFEEDFD9D0368FCCAFFB1FE7B001AF36CF364FE67FD42F3EEFFA2FDD8
0410FC08004AFC9AFBF4FAB40038F449F9510581040BFE0006D4FE9002960200FFCD0090054EFB1AFD2C006EF69400890188F8C8FE7EFCF6000FF40404F5FB5F
006503DCFF80FDDDF55BFF710039FCC3FB3DFA17FDB9015FF805FE7B0026FE78F80AF6F6F99C02F7FD45FE19F55301AB0173FC63FE6AFE1A001CFE77FE68FC0D
00D404D4F814F79200DC04D9FD8CFC1508BE0B4EFC07F7FEFCFCEF420031FED800820682FEE1F3310431FEAE02AF0266FA3AFFA2FDB3013F0120FE2304C5F9DC
04A6F8A7F62FFA41F9EDFA6400FD0114F670F756047701B3021EF756FCEC00F1FCAEFC81F93AFC0CFBDC0017FC0103650205FFEEFEEBFF1C001F052CFFBD03A2
FCD9014403030110006605B802D0F9B2FFAD0D3001F0F8FC041A01400664F8EC021307B5FA8305BAF56B036D02CFFBE5FB3CFCF10AD205F9007D106108F000CF
013CFE39027DFF3BFF44FBB403DEFD39FDF407D4FD84FF33FF8BFF930412FD3A05A704DF0235089F054BFDD4010002B205780273FBED0090FFB80484FEFE017F
02AE0272051E05CA02CD0196099A004D048C016C020AFDB7FF720294022A030F011BFF81FE490270046001F3FE23FD7AF895FC8D033F05F5035F00B700A400FF
02E500FF04BC030F052D023800D1015B022701A4050F0195011D058D0280050B03A0FCA0029FFFD1028B00A6FDAA039F0045FBCB06300585082CFFFF081B0263
FF7902F604300224004DFBC200CD0072F9DE0335012300CC09B6FFA7FCE401F5007303060255069C0397035004A708A3068E0431FD54F9530481F58E073E0504
024C03EAF8F40737022A0560016F081BFF8BFCB4050E07EFF80800EB0086FF63014EF8C5010D037F01E201B805B405DA04B904E609D502F00041022AFC1801C2
03C5006A09A502F207420393FD39FF80097BFD7DFE8B0354024A06380918FB8FFE2F00A702F504D0FABDFE0A0BEC0001FFDB081A01E3009507D004F200BE064D
08E0FB720026062BFE9C05BD0365034101140170F52A0705FE16FC240500023A038701CB02080555FC59078DF5FDFD15022204C501B2045F0404FFBAFB8905E2
FE18FF910252FDF503ECF84DFB0703B8004D029B0130FB610395F85DFF75FF0CF45306AB0569050504A5087C01D8022B022706ED032FFFC90322009104F504C0
07C7FF0302BE05480177016B02F1FF8BFC4B020104BA00D9FC7CFDD1010EFD7609FA0718F423FF6C013F00A10159FF7200BBFDD605DAFFC90210FCA6029CF8D9
02E5067B01CFFA81FB32FDB506D20726047F0306FF5A00C404BD029A03A30546033E0794FEF9FF68029905BAFB9D03F3FB64002902C6FB2105F40512FA37F942
04D1025DFDEF0267F9B8052DFD2707FD0225FC54059DF64A0425FFF401460BA6FCA302F80090FF29F99802CF057CFF62005A008E04290831041102B9FD18FF0E
004402D0FC58FFD0FFFF00080011FF67FED40A3A0616FF93FF73FE9A00EE007504DDF44E0054FDFF006907E5FBE602C8F9A902E30698FF0908BB03DAFA6B02CC
FF20FE650110FC5B018803D900D902F8FA4302E2FD7E02170365FF64027E03E500F50253059C027504F7029F0255F6CB02450025039FF9BEFBA5FAF5055B002A
FC5AFF51FFDE024F02AE0488022B0359043B0086FDDCFF3A0184038D015AFB7104510061FC02FAC00191FFDF0245025703D6FDA7FF36049A03F304690750F76E
F7250480FF09FD1FFF5604F0FC2C05F0FFCD05D3FD37FF2302C0047AFC37042D01FAEE51FFA2045105580538042D06A8002EFA3609B8FF690B89035300AE006B
FF7DFADAF463FC8EF719FFF0FD32F7F2FDCCFBA6F8270165FDA4FD3E0712FBE2FEE7F9E1FCBBF5EE0030F98C047105D201D9F815FE37FDCBFEDCFBBFF7E8F3FF
FC8302020209F2E80532FC19F731F848FB80009CFBAAFF1FFBCDFCFCF76BFAED0432FE8EFE8BF8EA0B2BFC8AF8AA062B0867FE8EF559FA01F6F7F86100B1FB26
FD97080B058F037EFDB1FD46FE68FA5CF86C0026FD7AFC8806F1FD110250FEC2F8EAF850FC19F1A302AEFDD3FA2DFCC00022024EFA5BF6DFF723F69EFD0BF56A
FB5EFD760078FBF2FC14FBC2FB5AF643FB77F9ECF716F128035BFB02F6CCF74C02F5F999FBB6F95AFD89F3CDF70404A2FED8FB53FAF10074F5C3FCBDFD2C03BA
FF52071AF54DFBEBFF1BFFE8FE00FDD6FD55F88AFA3BF4ADF939FF7FFD0DF970FC8AFA18FEAEFEF5FB70FDB4F76BFD03FD9EF4B203B5F777FD03FBE6003BF47F
FD4DF1A0FE09FBBFF991FEABFF4CF97601CC0541FD40F265FAADF97FFB5A0049FC880138FF7A01DEFFE9F752FAF5FE7CFF64FD10F700FF2BFDFEFD7C0114FA9F
04C2022BF7E9000FFB19FE78FCB4FAA0FD18FDA7FE0AF2210801FF0D02C7F9CFF32CF707FE1EFD0BFFABFA82F746FF19F72201F7FEBD0193FD1AFFB1F6BCFE5C
FEE9FF4A0080F8E2FEA3FC30FCFCFB24FE90007CF2B8014300CCF995F751F851F915F9160959FAFBFDCDFFBCFFCCFC3CFD5FF9EAF882FF59FEC80598FED8FAAA
F9BDFB56FBD4016EFFD9FABCF959F60FF77FF7850381003BFCBFFE49F7F9FE65FC87010401F400CC0319F7A5F92AFB0FFE1803A7FAA6FE2CFEBAF81AFB05FC61
FC91F963FFC5FC34FD65F642F9D0FF17FA870004FC57FFCBFCB4FC54FBFBF415F868FEF6F858F300FA6003BBFD4F03A9FFFAF7B6FBDB0754FEFFFA7CFBDCF9E4
00DAFB2D0532F75F0056FA79FE52F4940512F80A00D102E8FA13F8A4FB3DFDA2FDFAFD6100CA044502E9F3C60785F980022BFACCFE4BF5D005D1FA84FA54F754
FDDCF71FF934FAA7F70DFEE7FD770057FC6FF61DFE55F99DF5F3FB04FA9FF88A017F057AFD8EFDC2000BF8DCFDA2F6820907F8E0F77CFE1FF441FE13FF9CFD46
F5AFFF15FD49FBF9FB31F6DB069EFC050406F73C0124F624F338FD53F5670003040D00F2F996FE8AFDB1F261FB11F90C00C9FADEF3DFFC85FF0EF4A6F8690012
FE37FFBCF80F000300BF0680FDEAFC23FA98FD89F5B4F865FAEDFD0EFD3B0490FC7F01AA0077FCD800A4F89FF79DF81AFDFBFA26F6D9028FFFCBFE220281F2EA
FB97F84CFE18F578FCCCF8AB0725FE01F3990057FF3E00C9FEB7F80EFA91028C0043FBBB011F04BEF8BEF7350382FAFC043DFD5F0489FDE3FFA3FF5E033EFB2E
FDE8FE230305F21D041EFBFEF8FB0A8803C70374087BF80E00D9FDE1FD77F752F624F82FFE0EF5D50087FDB500DDFC060603F6CD046DFD0901CCF973092CFBEB
FD2DFC1AFE25FA00F5DB01A1FAF2F9AB0604F775FF52FB1EF618FCF1F879F31CF9C5043BFA8DFEF1FB95F41EF7AEFFC9049CFFB9F9A60013FD69F751FD27F809
01B5FD5BF9B700AAF994F5D8FCAF052F005AF2EAFAE301C40215F747F9FCFB51006BFB2801AC05B9FA0BFE19FBFCFD510283FC9400CF01F3F459025100850105
F488F9BCF93BF5080107F722FECAF78BF3E0FF44FDCDF8D9FD9E06B1FFAAFF960735007505930358FA85F8BFF84C060AF7E6FE7AFC2901FD0223F4CAFF19FB22
F54DF869F912F582FB0BF7C5FEEDF595F640FAA907A1F80CFEC80089FD3A0044FD5A00DFF986F5D2FA17F9340295FA05FCA0FDC6FB87FC62F198FA26FC75FB79
F99EFDF2F7020080F5D4FB190123F67CF5F6FD7AFFE7FE32FB50FCDCF980FE360009FB05FE06F81EFF46FE08F8F8FDC5FC56F3A0FAE7FB23F86B0205F59EF6F3
FADE0069F80F00F8001FFDBCF6AFFB9FFFBEF51B0036F872F46CFEE9FCE3FDC2FBFDF472FFF6FF74FD5405840625FEBA05140017F6A1FAA8FD2200ACF9200533
FA83FEBF00E8FD1DFCCAFEEFF7D6039DF9E9F9F5FC31F95CFCE7FA3CFDB8FF7EF906F7E6FD78FD3FFD0CFBCCFE3EFCA8FD02FBFCF8CA0055F796053102480098
FA3D02ADFD44F361F60506D30030FB1DF7C5F8F9FDB2F2C8FDBCFC6FFB96FAB1F63EFEC302C5021BFECB0393FC7EFDC402DE03C2FBFBFDD7F830FE2BFC17FBE2
FD25F944F5F508590193FE58FBF20337F86BF4A001ECFDB0FAB80512FF9A018BF67DF889FDF407EBFAF7F7240133020CFBDEF626FA2B00DCF406FF3FFEB2F725
FE7DFBE1FB9DFD00FF93FF0CF757F6DBF180FC16FB7D00FAFB16001C0041F967F731FC54F88AFC40FC65FEB30052F736FBA7FEEBFE6B0222FDED022CFE81FCAB
FA4400BFF906039BF24B080C0563FD49FE43FE1BF435FBA2FFBC004AFB8EFCA4010FF33AFAC8FFD9FDD5FB6DF6FBFE86FE59F7C6006AF639059CFF95FE8004AA
0231FA13F9D1FC4800A1FB67F7FDF756F6E8F669FF6EFC4F010DF8BFFF43FB7EFB2AFDDAF8BCF648FDA9F788F716FC5AFB6BFFCEF5D0FE14FCC3F856F64DFC51
F4BCFACBF3F1FBDF01D1FB99FB97F9B3F6100366F91C0065FEF9FD4AFF16FCBC03D1056EF680FF06F99201D7FC06FCA702F2FE54011802D3F47DFE740159FABC
FD6902B3FD02FE94FE3205BAFB65FAFCFDDDFDF601E7FE79FBAF0177F788FAFAF8C5F733F91FFEF1F829F901FA5500D2061B004DF615F56E09F203660704FA21
F9DCFAB4F6FBF8FDFBBDF61BFFCBFE83FDA8FEA1FE730105FE8DFE28FAD4F943F922FC41FF28FB3FF541F4A90132F71F01E8FCE60486FA5C00B1FECFFD01007E
F9580305F72BFCE4FF2AFAF0FB3201940063FBF5FB34F5A6FFA2FFFE01E7FD1CFC08F7A4018CF664FF16FADCFE630191057BF706F86A00B704CDFD9100E805FD
017700F700D40156010201680178007E00D10089006F008100C400EB00E300A5003000E201480204010C0181017A014700EF013E004100F001E100B200D30082
00D5002500DC00B1011D013A00AD004401620111017801100112007200F1027600A301920139008401F101D6010E0139016E014100BB01D50108011F01C00046
006E013D010F01BD01660109019300B3003201F200C6013F00CF013EFFD4009700BF0106008A00F1013A016900EC014B01C7008201CD00D301490154018C0102
015A0112FE7F0113004B0146017A00E50114FE99018B014E00FD011400FE00E80169014100EC012F00B500A500E4008E01B20096017300FC0181017500C20114
00DA009B00C4000BFF1E006301A700A900BA005A0140016801030059008200410096010500E4017D00000198016200C7007A0112013E0183018D0122FEB500F3
0167000800F7019F00CC012B015E00640077016000A60128002000B000DA010DFE89011EFEE3017F00D5015601A601B6009500A901D701E0017101C101530035
00D7013801DF0177011700EC00A601350062016D01B700D2009E018A00E0FFCCFFF700F9013D0079016D00DD0152010C019E0085018600D7015F00D2019D005A
012F00E100A7011E006400B3FFDB00C7010D013501C3012601C601E701630021010B01980066FF03010200840036003200E000BC01640124006F00FA00A300E3
00BC01B300DB009F0140FFC3016900BC01FA00DD01D700F7FFF500590166012D016D005601100010008A015C00A001A70177FEC7011B0208003000F400BF01B2
00F101860110019D00B70100018001410120018200AC010A00A2019401D401B7FF1E0167017EFFF100C901B2005200DA014C015D004201B6015200F6010C0045
00C7017A0038006601710038011B01A70110012800BD012B024601A20134008701660080002F000701E7010C0096006F0160010E016500A90129027D012901A5
0162021600B200E30112011A012601720183013001A3004D0171012D019F007A00FA00C700C2004D00670270005301A0016700F6013E013C002A018A00C80170
02040077011C016E00F2019001DA007A016C0135006B01FEFFFBFEDD01A801EB00BA008D019201570052004F01A50005FFDF00FE00C8011F006A00AC00F80185
0087016800AB010D00610175FFFB009E015B011800C500F5018301E000930082FFF9FEC60136005400BD010900F3011B00DD013001C90147010801EE0109009E
002A0109FF6D0063018500EA00FF00B800B200FB00CA00E701210022024801690177004001380101010B01D4010C0149014B012CFF0C0055013B014200F40019
00F600B901640051015600EC011D012C00F5018301410195006C0106017E00DC0181FFAE014A014D01650076FE3C013D007A01450191003D00700137015A0158
011F01C4FFE501CB004B01BF01D8009701F800AA0199FFF500FE01FB025F00C401B600F700E20186016B01BE01B8FFC5011000AF007F010B006D006300CE00E1
FF75014A00CB015100BF0081006F008E011B016D01170091001800AA014700F500A301BD01A40111019001F3003700DE00AD014D00B0015B01BB021400C200C1
01D70226018501D401D2012100ED021700A7FFCB008400D800EC00E200F8028E0048012E01CD017601E801A70133018D015800FF01A0015F0082018A00F701E7
0160FFB101E1018A012D013F0179FF9B005F024101C800CB0177FFE9013B01710163010401D20175019A00B500D20193014E00C900B202CD016A0184013900DA
FFFB0103012001C2008F01E601DA0045018A012601D9013E012C008700C401BF0163012D006400C7015EFF3B0101FF7F011A00EF013B01710179019C014A0206
FFC0012E00E90109FFBF013100FEFECC01AC0141007401AB0169002B00D2018400890019017C01AC027901470181019900DB004C007701F900C70177019EFFD1
0188013201B300F001FA018800E4004A012F012F004E011501F4FFE400E9009E0252011D012701E20154010A00B101930103018C01A900230160014901140171
005A0121FFD90118011700E50100017800B3014600950143FFAD01CA016B012C0147008501CC00490226009B015600D601AC002C014100EF00DFFF11012A0086
011B019900A40158011DFFC601C901CB0147021B0146015B00EF016A012500D300E8FFD7017100EA00C800FD01C401A801C301CD0128007D01CD013600E700DD
012200C8008E01070150010F00AA012E013600460194009901AAFFFA013300CA002D014100D4012A009D0173007C013B00D601F7008F00CC012F020600510085
01F600D0012B0178001E019100C2016D01080101028E013300C601D2013300C2FFD6019B00F00083019B00ACFFC80111014601E1013A000F01AA007500FE01BE
01F201D9010D018B012300DB0049015801EC0069028900DF024400C301B900A8018F0063FFE00116020400C701A501160063019EFEE4002701EF008C00D80122
01E301130240015D01EC00C001400219018401B4001101820068FF8500D50180012C01730104009A016E01AF010701770061020400B8012D00CF01370150010E
0063004E01C0021A00E4016C010800EF00E500EF005A00FF00D401E8016F012500FE018C00F9014300E400BC02AD00E700F90125012E014100FE01D601300181
007401EE017D00C8010A013C008F01CFFFC20098016F017300760160014D01B001B50186FED2002C016CFFB0013100E1011400BA0120FFEE010200FD01290142
012601CB013A010A019501B4FFE2019B017FFFF80126010B01E2008C0160FEE500F30167013A010401860109013700D201F701510117014800CFFF8900FC0165
0C57093003CCF9F105610327049AFBF9FFE3100CFF27034E04F00C1302650C3E13400D870A20083800520AFB070D0CE807B503AD07BE094503C1049A0A4007AE
11B2051507F70AD7094004BA07D9090D08D7024606BC06AD0E8B0CF6012313DD0584056C05E60E4B0EC40306053D02B806E10D900341FDDF0C0BF95305750612
095D038908E9029101450AD806D7086107A103A30315070B056602A80811058506400EA009750BC805B5FD4A0E5408FB0B77FDFB025D08090C1A0ABB09B80438
0D210C0909900CA608F007C1FDA50786069C0AEF0BB806DD06D1FC260780FF9E07B805260C92076E06FE0E700643037212A2FD010C79041E0D870C8612510697
00A8068306450C6C0A9DFED00712033501A40B960CE608C708190913053001AA006F04370D8C07F609A70ECA06F00F9D093A10090F460804072D00EFFEE00C22
052805570D2604A506CA087E0609FF580F5A021C07DEFE9503FBFDFF03E2094811620A3F04C41155053807B3020E0BFAF87D0FF00E2FFFF1065F0B14053E0DEC
FE500602057E05B3107907BF07AE059E03D60689FB0E08810AF70511093E0795065103BB105B099C07C70ED4FF13073704E604CC099D02F90B0105C10ACE0650
064F0BE311230CC20581079009980B1B096A09B50DB70DCEFF630CBB04EE133C0905072305F6045D090A13E8030107CC056F0A870C85078203FE0877067B0D08
08450D440AFF03E2095A0AE6090A049F0A2204BA0D47FD6506B709B5008E0CAF03DA01C90B6402BF0328036809B50CC10DF904980BBBFF8B061110C0001F0BD6
0913022C04960AEC069706F105BD0D6D091902920EA20A780FE10222099502F6037802AD00B809DB0E6C073E03B10A24FF07003C058D00E0071507C5113005D4
089704420B0209CC0BB106B1F7B7FEE00C0509B2FCE70D4A06E40D5D0A5C0889072302FB0A4709B605EB003D0CCBFCA106770CF60922080A078D0A920215024E
082B0A92FE26033012FB07DF0DAA05C60D82032E079604A30741087B015C07720A08082D04CC06870A13056007100D050D8502C1058B0450050E08AA071C0E25
0C61023108B6039F0C270BCF0A9E09F503EF0CD00A4C0741043607F4075203CD0CD70AA9072E06BE054205120718086A01C90D9205AC073C040901D70CB308A3
0C3D024C093A04EC0AD2087F0AF50B4704A50FD6FB3F0E8F0CF60EDE01E60B2F0D6E0C3D0C3E0F3906E207FE0777088F0DC7022F04A50524061203DA021C0E2D
0D71039F0BDE07EF000B08FEFF5409E407E2093C070307240E6F09D701BE09C8034EFE7B0F4AFDF60620FE5B0E800DE20CB6061206D0081AFF210C2609DC0A9F
0CF20081038B0A6E0EDA0BC3050D07E7FF800B2507FA0B150A12FE76086606020FD40054041E058E029A057D0C2A06E00D9D0CD512F30FA704980526038A0231
08920C5706880453105D0A2E092A0AEB06C5067B09FA046B0AE30D610B460532FAD5FA6C073C09AB05720C210BFD0227040707800B0C04910476021811AD056A
0DE706BD03781417050506780522075502F90EB805D8FE69076A094A07CF00C903D8098109C708540F7A0E85065206EE022D062B0B000BFE109A0B8E054F0C27
0DD102920B2202F307E00730135E0118066F101605DB0690046808DC077C0B2810750498099C086C0AA41099074E0F2D0E0E0842054409D4052B03910C4A092C
07CC092408A604270C9C0351051504C90212072F0E26064F0FA3020706A5094C092D06FD002F025303270C7008FE0CFC0EFC0289FF7E10970A6D0358093C0DB6
0C8E00ED0A0C09960B9D07D302230BF80C410D810DA805B6103907700AB8028C09A305A60D50134E0F980231082204A109CBFFDF155A0CC70DBF0B090AE701B4
0A0607F90BA40DDFFE580FF30DED047D0E8406ED0E7509D108BD117E0B7501470BB40957081200AD06200565066C04DA03E80CEC0B37089A0751FEA307510825
00860CE8030305D30A1109660A9D0B4407980875FF8B0F0805490A75042F07870C1606C6025805C203CF04B304FF09D40C1DFF360DD30677042D039A0A1CFB14
0B090BE5FCF30DCE0864071104D30D9C05B90CB705F50DA70DC208210B2D09000BB6FF840AA6092D002F0496064A0B650DC1084209B00D90017307D2064C0CFE
0C38042910D3037306630C5909041170056E06A3092B06F3043C0BAC04260BE70E4803FD08750F770ACC0B1407A30B2C0E150C5A04610C350A52064D06A5FDBB
0DEA0AEF0F61F19D0B460DB30B52080605A403D10B100C750A70075311EE0547021EFE950147082B04C104850C160A30FDBF03E80AE8028D040406E60F8403E5
06060C8E017506E708D8070E0CBA01A70AC907860B7207FB05E705E3FA9C0DE801EB00ED025F0CAD0F46047E0F481891FFF509CB01FB03470A1606B308F90752
0B9D05820861011303BE02EEFE130D51092E0AD109B6093507CB083803740735088CFD6110A50BBB02240C210AEC03BE0C1D0C790C13FE59084E06910FF804CA
0AB00FC80273034B0DC80B360ADE064108B80C940DD907F308910A55088301C2052B0EA3026B114F0B4A08DF06F80CA50DC60C89044D06FE035F074606F00A8F
067B080104D708AD0A94FEA002B40D3006F203C305E007170602078403CB095802C30C510BF909A10B7C0E83FFAC09C2082F047D0E6105610F3806E9FF330712
064F036207AE03FE0558073A0AC4073B085105DC01290EEF093B082E0F2B08C508AA077812600DA00F180F14053908570953083E0A8808680B86FA32077D056B
0EC00DF6050C03ED0593FFEE08C70C37038F0AF70A640F8AF8D207BB07570897072DFFDD0F220256096104CB04B7068A011D0D0E00310CD1FBD6036702470D37
FB68005E016503B602E704610056001C008FFF01FEB10078FE7C00AC037001130226FC3101160288063EFF2200F10698032004D1FCF10871001A0003027F02B5
FFCF055E01C9FC1DFEF5059F026707C10583050A0442008F0134FDBEFE7A0223FFA6016DFDA801710203FF78FE0900CD06490285032700430020042C0329002C
0646040008F0013E02910EFF0F6209CEF7EA069203200BDE10B6148A059713AF025805F5FC5701A6111215D6FED607BEFE890EBA0945FB87FEAC0A6A05AE0686
02F5027700AC0E24002BF9A018890A2209520D101571FE210BD6F2CD06E5053C00A10E9A00F7FB36F51910DF093209A509780D7508C408340C410F8106240FC1
0C9104BCFEA908F706A60A890C8410C30617FC9C157C111D0EE610F1FCBD11081201FFD505B100C406450F9A0A5A0F5401AE03F50A9F0D49FA4908F2FF1006E7
04060EEF070C051DFE7309F816A408A2FC82FA2D022708510A88086C0FCAF71BF8F0FCA1155C0406018FFFED0D05FF0307C0FD9B0016FEA0056108A10DF800B5
07440179FFEBFC51085B09010452194BFF8A07CFEF2F10D91774F6320E7B07DD0089F7220FEC0D2D118F12350134FF3C127308370505062908C705AAF31206CD
016704E10CFF075F05B605C0FC0D06AD0C5003CB036712A0039F164E0D76FD310452115F0D4FFA8509CD184E09360FF3F2150CE609320A74068D06610C90FDB9
09BD102003C40D0F04BF0D291190FD9AFF6F11B20925091DF608083307F3FD160B8801200B540B8406140A530C83F6E6FD66003815080126106504100CD3F034
FB431638F6E3FF6AFFEF057803C2FD7F12E50B9A03EB062C00E40966089CFBF60BBB06DB0BA70774F811092102EDFB34FDD8FA74048EFF8000A709E8FBD2FC58
05AC0AE80B56F5C80A390159022D0007F4F804B508ECFB1D0E7D077A0261F7D7113610F307D40E06030B029D04FF09E00327FC0C08900960018F0A410DDDF4C9
08BEFF8F0A6305CF070B077702810B2D0F0D03AE0934089910340B7B051F0EE80459063C066403E9027E0E650E1802FD0C191014022EFBC9025C0BCA04E80CD2
03960A41083A0A7A12110BA90B000E2D02EA0678FE1C08C3078A00D716E6023C02EC0A8E05FA0627F3BB0F3FFB360B90F9F30905081D0C9DFFBCFD85090907E6
0A3C00030C9F0E46015E014601C30FCA062E05B80141056806CD13D308761096FE930769F95E082805EC1D3A0AD1FD71FCD105AB02630504046B03520B9008F4
108F0BEF0252078507B705A5068B05F309E60284065303880A0E0D150C42FF990E050C9C00740D3404CF03D90CD70EFC056A1EC30E19163D023A075A06B10553
F9CF0C440C2111E8FF410EBC04EB091104F1FAC40C880D240C44043B0408FD70117D0A7416F9FBA90C8801C3080F0334074509F10C840DD7FE8DF4570322FFC9
0ABA02FA0122FFE1019A0979063C11E801A104D9FABB0BA909A1FDD30A2507BC07F2FC1610CE0B4905D4032FFF73019518800DED025F076304B7070217920F9B
0BF012EC17A706F801701D84085410B40A2C10E0119405AD0CDB00A7110F018C09D0FE3CF6D8FB0E163FFCE00F5B09EC09680B20127A1119F7F013E10759FFEF
FEF802300CBEFECA064F1291FCCE08E40B5702990BFE0B150C0FF97102B2062F0DE9FD2B0958FC89FCBE0F4B0FA5054113D5FE6E0D350CD3078104200592036F
FD780A6D063B0875FCBC0E16109102C511BF0A46FC4F0BE7063EF800029711DD0BF006B1041E0A19061B01F1055808470DD2057B03DB0E1108B5127B09DCF825
0062045F191A06D10439058901050CC9FBA108EFFC69F52807F9FF01F62F0B38142E0C01F4E7FE230DF9056D0A6103BBF62B0AA200BFFE0D0D59FDBF02BF070C
004F001B03E50D680B1D070B0CB00CF2FE1F07DC058E0456F5DD10C1FF9C07940BD905E6FDAF0AFB0A9B0C6F09D20632079E09B00A9CFD93010EFBAE09E70D5C
047B00970142054CFA1E092207FA06E70B9408FE02C001FB1235FB390BAFFEBB03B806EF0A4909B309FA07C60BFA08CA0DC10748F5CF0E1E18C803B6076C027D
0F3805AF15E4F61EFB20077E0B2A191304EE06BD02850F1F0E35049F09BC0C0C0EB705D0061A0C810CC4FE7910EC058B0F4D06AF0FF61628041301B2101B0130
0C820AD80CC90AE7FE5EFF410DF60990133C0BBD0EDC15A90A14028A0A170DAC0370F20A02ED08A1023409AC06040883FDD408DEFDF9065712FE034411040675
F7C702EB1343023B0564FC59070E0C440C00045F03E3039E10060F500B9A0989FD01017C08E3049903B11B67FE1A0C1B047BFAC307B0FE750A9BF7E2055D094A
FE9601C204EC1428107B06B1FDF50A73012602B2FB16131E039EFDAC04950A57F728FBE5FF3A0A9E0A55000C0702055907F5104C0A681258F53003C6F86307DB
09A5087604B20BE2FE9AF94107A5FC330A9F085009630B70151904B10EA806E5026D14B40E2E04550C210AB2FCAA03AD0C8609C9057901EC0D0F07EF040F089A
06410357FF5BFD7A1158FB9B0ED707260B2A01B5029707CD05270A1109220213000203BBFA58FE5C09D1006711D10776082D0959095500F20458123E04FD02F8
05B1FDFC0022FACA09440590027A0BC9044C08BCFF6C0BE10D300F3DF8C8009E0BBE0AE609E500FC00CC02120F1E0C580A2604F40569011C0D3B092DFA7CFF56
0C15061FF9F600900652FEDE04DFF699F684082F06300A4AFCA80185060505D6042F0D34083D0AA1FF1D0B8C00F7097F0FC6000D08BBFCC80316020A11CE10E7
0AEF060908BE08B2FF1500FF13AB0652154B0B48FF93174F05B7002803700A6904BA0B15F6B20F03FF84080505D7092B0D6F0190057C092E08F3064D0B8D0928
137E042A080DFFBE07130D28028C1208136D0C62F91403ED0310091B113E04CC064C01B104A70E990FC700590864FAD40BE20FF312A0F32D09ADFF42105E0A7B
01A103120D1708510765065C0F42059B02AF0A6BFFD609E8FBCD0C1B11C2027704800C45030302D71D300A2E01D909CF089302DC17C7118F0454F7A5134B0AE0
0046002E0C79FE1D01730014008700CC01B6FFBAFFDEFF00FE5B0016027200A10018FF44FE2E0099FF8D00D8FDE9010EFE0B01830057084900240026FFE4FFEE
FEF2FF6D002B004FFFF1005BFFF2005CFFE10C47FF3100B00024FF7100B1FFDC0112FFBFFF66FF77005D00ABFFB2FFFEFFCFFE9BFFAF00B60031FF80005CFFBA
000C002500900002FFE5009BFFDEFF29FF5100320023FF82FFE700090067FFEC0D9F00BBFF39FF42000C00B1FF9D00C7FFB30004FF25FFE20078006FFFB10043
000000000000004900520069FFD6FF45FE2300BB0093009CFFF0FFCCFF4F006B0034008EFFD6FFB6FFFB0060FFB40E1B006B0100FF65FFDE004DFF9B0072FFF1
