8000253DEA22E259FEFD9A5AE9780037D6AEA2FDEB4790ABC6E9E17006D70428FC79E784EEFBEE9C28C9E8908000D142F3C28889E7A3EBC2E84BE82EB8D2BFD2
817411B5EAA8F54700FC9207EBB20422C7EC9471F59C8CEAC8CBD810E87FF4F3FFA1DC42E501E09EFDB6E79A8000C85CE62C8972DC3CDE6AE497F1A3B8ECB7A6
80000CBEEECF03960B1D9ECDFA070060C3A1BF02F4EA937AEB1CE520E455145EFFBBDB15F0DFE419FBCCFF338000C139E8E78E5DF05FE774EEFEED28B783CDB2
80000897F11C102CFCC28FB6F9E70276C2DBC5F8F5698AF5E56A0D95E74401C70038DAD7E802E5CAFB7A058D8000CC42E4AC9147ECA3E530E5B4EC0ABBC4BE82
8000FCABF3CFF5A00B548C63FD08F6FABE95A957E9D3917F0D91D524E8B401B009E9D50FF416EB33022DEA848000CBCAE2E68EEBE7F8E740E1EDEE1DBB2AD6C8
80003842F261FBF0F7DA923AF211F646B3909EF6F1789828F8F8DF4DEA7C092DFB74D63EFBB0DE29F43DEAF48000C3FAFDDA8CF8E66FEC16E5E5E24ABF9BD17E
8000E861E128FD0CFAA1A3EFF89EEB5BAE599EDEE8EB9372C827DD4FF295F004FBE7D824EED6E043F786E9A78000CC8AF7518000E3ECE1ADF05FF024B66ABDE4
83C9FB2AE7F7FFD101ADA649EBBCF6C3BB4DAC89F13AA595C9A0D8B2F9EAF4A701C2DF00F02BDF6FFD98E7A88000C9ECE7E78F34E820E52A07E9F5D5B29FBB59
CBADE873EA168000CD59DD6AC825DD98E2ADD107ADC70626F844E6B70426DA0F910FD65C21C2E6C2B286CEA50AAEF86BA6BC9AC49288E7A1AE56F8541FED03C1
CDE6F299E53884CA9FEAC180C400E759E98FB9BBB41207EEDCE5F25BF6FEE3C694C5CAB81971EE04A330DC85E7EDF199A05AA26F9899F7869F6AF92711C90E5E
CDB6F484F2B68172A783C089BF4FF0C5F378B533B2170DC5E70C1426FFC1D6509714DCB12145E50A9E37E2E9E03AFDAC9140CBA79293EAC19AFCF6E205C9F708
D0FB06AAE7CA80009C09D18AC430FC61E3D5A7DBB9600637E349F890FBA6C22B8000DB100F27EB9E9779D961D518F056A90680008D23E8B0C05F038710F70AD9
CBB900F3E5098000BAF1CA24D75CFC76EC90A3B1A17903CAE7B107FAFC37C68C8AC9E28C19ABF0B09FF3D572DB3AFE1A9E9A8DB79E39DDAF97C3FAAD0B4302C4
CC76F07CE52880219F66C8F8C850EDBEF1679F73A1A11779ED91ED5AF742C011928DE7DF0A90E35EAACBD2C903EBF34AB0E483BD9FCADDC09801FC42074C23D2
CEE8F29AE1F380E0A6B9C3D4CB3CD64FEA56A4E4A67C057BE865FAD4F8D6D9E985C3D55914EEE1479701D485DD69FCBD98CF83EAADB8DB309E06EFC632F0130D
D42BE6C4F09282CBAE13BA95F4AACF4B02CBC510ACB3011FEA99F0C909FFF6329E44D9F816A0F0109BF4EC33CA290442B53E8EE6B7E4E1D3967F068300B90B22
040AB506DDCB1176B346C2EBDD7A09C28E08B8F1DBCDA415BBBAC60DAA6AA930BAEDE7B11870ADC3DE69054BF95AD080DFD0911D0499B8CC9347FB3AF6C1D2FE
0623B2FBE2730560ABCBB906D8D2F1FFA409ACDCD6458D1CA717D07CB4F6AC31A9B5EA2AE161A44AE627F4AEDA53EAF7F463A287FFDCA203B5C8F75AF6E4C13B
FEC1A710E46B0261B2B8AF39F711F9A1A25BA826DC8692D0A9EEB8C1E06CAD21A869E4DAFDA0A896EABAF3B5C1010782EA659E3FFBFEAFF2C9B70223F943D042
026AA4A3DC570959B7B5BC73EBA2F25BAA269C1634C293E7ACEECBE2EA5F9340B407EED5EA06AA29E62807AEC8FBC884E8F09FC0FEADBCB6D2BC07AAF292BE8F
009EBDAEDAC80091C525B53D073DEE0CA28DAD310685915AAC1ED720AFB69F05C0B5E5F7E938AC76EB35F32CC0A0CDE4E8BFB0CB1D45B53FCB2E0E8CF97ABC93
F8F6BB19E6F31562C0B4B793E07BFF7AAA31AD15F5C0A09CB036B576ABEB9EBFAAE4E3E9F092A938EB5E02D1BBF9C933EA89A19F0EFAAD0DA98AFE4CF667B6AA
FECBB266E9951187B38DC110EB36F2EA9C8DA3C5E7C888DDB270CFFEB36DA2CBC83EDE4507CFAF43D52DF063C3F4CE0801A580000075ADEBB7440386EEB6B3A8
FDE2B5D8F1E50290B3DCC213DE2AFEEAAC52C064D02CA9CFA4F8D7DAB490AD2CBD30DE4600CCDA71D87CFC81B9C8DCCBDA438C25F169BAADC8D8FFECF5E3DB61
E7578000CE93C8D5A060F456A819F6E39B7D0BC6AE8912C7C680D2CD8B23D11BD584B5BAB7B4C259F1B1FA6AED73FBBACB16ABAAED0C012A9B6BC38FF3DCEEA5
C07A8000DD53D90892D3FC92B3FCD50C99EA0EB899A1FF55BCB1CD8597BFD23BDD3F900CA8D4B0CCEDCEFE1CF22EF150D16EBD58C6D4D5129397E1F9FB4FE9F7
C3678000C3ECD03993770BD4C38CD684A0561B1C9632029FB9C8D4D19D0ED256C00EE8BEA0DDADD3F33DFA0DE22AEC31D7D4CB60CA4EC87E9DE2D846E915E9C3
C5888000C2ABD54A9F36008DD79BC86096791296907EF7CECA9ACB219B96C72C0EC7B2BBA33DA20BED2C08F20391F9C9DDC6CF5DC866D3A696C2DA4DF313EB95
C0F68000DFEDCB6CA204F087D873D7EF9C680D1E8F15144DD10DCDBB9E52D443DAF4F824A49CAC76F2310FACF064EF3FD8ACCB14CA27D9B68F3EE4EBDE01EADC
C9928000C931D9EE9CDD0253B1D5C4189BEE0BD194F50631CB71C132A64ED7F1DB579D16AE42AC25E3E905480006FA66D705BFCEC4AFC92F909DD82AE018ECD7
CCB080002508D507A324F816B75EC4B7A17E0BE79138026ABB49CD8EA197D227D981908AB484AFBEDC230370E60DF694D781BAA2CCBFD6C597E7D30EDDAFE0BC
CA5685FAD911D6AEBC3E149DA622CE48AA281CADB61DF8D5C082DFEDA6E5F726D61FB98FBB6FC419F206FD6BE3A6EB54E574C643D1CCD957AA11C17DD6EAE6DE
C729B4739BB98000E4D8B5B4C903D07D18B3053E9CC7DC7BD09CDD6331599BE6EB88CA7CF40D1BA0D413E4909AB3B180DE0E8000F052C2D7087F05D488C0E03D
C4BAC7869BBB8000DE70AA78B2FBCF7AF788E3798000F5BDB909D7FEED609EBAE8F2BDC6E79CF571AD17035C9A64ABD1E2A8869DBA11A8080612060C9785CBBB
C092A0F29ED08A09F53AA600C172D48C0130DEF283F4D708AE94CDF3E58D9450F646C213EE34EE3FABE5DDB59C5AB6D6E8CE9DD3B0B2B1C9E4BB09279C64B723
C4A399859A9484C8E486A7FCB47ADBDC142CD9679EBC0EBAC44FE0B4F0E79564F88FB936ED08EF78A92CE1BC9375ADAAEDA4876CBD49A03FF2F907919EA0CFAC
C323C6C39C988008E5F4A64CBA41DB11F8C4D5719F87EAE9B1FEDA26E9DE8AE2EED2BC6CF466F53AAE84D5749B43B1B1E48E8217C419B150FB1C05C89DCACF2B
C30A9DA5C0468000FBEFA5FBBED8CA5BFDCCD87193C6D7FDBAE6EA16E2AF8000EB04C00CF109EC54AC12E742962BB9A6DAF68000C1F7AEDDFE04078CA4B9D2FD
C427AC1CA00D8000EB2CB2DDD154CA6BEC38FB78AFCFE586AED704BED95C8000E87BC02CF761E6C9A149D2D990FEABD8E37B8000B9BEC04AFBB3FBA799D3CCB9
D79FA467A818A140F982BB0FB6BDE9BBF08BEBDD903AE811B3CAD1EDE0A38479E549C657FA65E3B9A6F5FFCCAC08B864E6AA9F59ECE1D911FC3C1647935ECC0B
C821D327080FB7F5D878A16D156BC81BB1388983E8348D05EAB3846DB495F58DF189E51EC9F78C889B86DDA3D716F6729F0283BB214DBF7890BBFF1AA7C0F169
DC05CFCDF9ECCA78D27F8000F6F8CDF7AB269B4AC6378C93F841894AAF361073FC92D159D1BB884E9E49D375CE0BBDFBAEB696C7053ABC119A770C199F05F84C
ED77D810FA13C09FE2338000F766CA8D9B27A312C83382A7FA5DA238B6E611AAFF13C81BD0D78F95A051D59ED82BD11AA9B684B90950BF0E8F07F81A92CC0B5A
F2DDCBFF00A3B2C1D7B59C2BF8F9D112B6A19442C8C58196FBCA990FB511F8DBFBA6CA87D8718C91D342CD7CDCF5D611905390B5FFC9BABCA2AFFB1F94A2F6C2
E31ED9B5FD7EBA79D8838000F411C8FAABFF8EFFC6898000F22F8000B685E8D10309CBD4D9288EE3C575D496E0C2D514ACAD881EFCC1BB4D98A2FF3391D30107
E258D2F1FEB4BC1CD1C68000F2CBCCA2ADF080ECC6268000EFFB8678B2EFE53E05E0C91DD8EC8E53AB38C517DC36D479BF20A3CDFE6CBF3F85A4FD41A89DF942
D50DDBECF399B012CF6A8000E84DCF1AA768A49BDCBF887FF98A8D3CBBB4F28DF940CBF8D07489D48D04CDDDE0C4CE6B964097BD043CBF67977F0490A681F663
C908D3B4E7DECA50DD7D98B1062ED45DAAC0BA1BCACC832CFCBD8F21B2C7057E0384CF1DC8F09C5F9E54C5CDDBC2D5F9B1A9A1D403C7C572A7980BA8A7C5FAA3
F12913CA0193BB0EF23CEDCF95768B14BAB0E435BAB68000CA12D880CD52C865AADDA470D1C192FE8000E54CDE9D8000B043122D9763A350AD0A13458B86BF4B
FA1208820A33C282FAB9F2479C2B8897B57ECBE4D0288000B901D48DB9E2C54BB5E49A61CD6B887D8000E468C8218000A592F3CC9AE7A9BD9AD40BCD8F82B368
F9EE04F602A8D02F0FEFE1ECB5118EA5AB10D8C1D02C8000B60AE09CB99CC29DCD6A975ACEFFB2A18000F02ECBAB8000A56FDF8795F1AFFAA9A9F88C9127C5DA
FA6815B4FA39BFEEFF22E590C4A687A3A848CC81D7C98000CF64F727B953CD57A1559EA6E37FAF448000E94DE1B18000A30BDD819E72AD9FA48E0D398ABBB946
F05A06841B58BCDD0066F5D4BD51886ADB93DAC7D9AA8000C81CD756BF37D4A2D031B4F8DCC8B8D18000EC0DD7988000A35FE3E9A776B962A9C404EC8000AC5F
F41B06A91031BCEFFEA0EB18B66992C7AB5ABF36D5DC8000D686D4C5C123D1E0B6F49411DC1FB4F48000EE60D8908000A3BCDDD6A48FCEE7A3BEF6E28000C791
FC7C2BEF1899BAA5F68FE0D5AC6788EFAB2FCCB4D4268000C7A8D703B911E122AFDC986DC54F972A8000DC92C9848000979AD2679D3EABFAA0F6F73381E0B78C
04AB0EC4178CC483F196EE16AED38393B6FFCD0BE66A8000D77FD587D3DECF92BEA3A3E7DAD8B6168000E5ADC95F8000AAC6EEC89CF9BC4CB9BBFFBE8000A39C
A57E0B0FB7720AEAA4DAEAF98AEAA65DEF52E5F8DC8BB2DFC0AEF76BAEF5DE4DC2F3B1EFEB49F02D9C51F80EAF99B624C44AC21CAD148000932DE2B1FA339F0C
A40902B3B6ED048BAC3BDE708E7CAF9BE9B0F011D868A95BBDB1E90C9A20D5F0C8869F83E01AE57FA239F868ADF3B600DAB9B553AFC8820E8000F234CD5E8BB3
A75A29F6AA28EEDFA7C9D702827DCA94FCFCEC75DF09A8D7C70202D69AF1D9BCC95AA481DD38E234BB360872AD0FB64BBA99B5A3AF0C819D8000F249D5328000
A5901B0CA996F400A6C301A38000B3FAEE62E2D1E3D9ACCBCCA0F7849250DF4ECA0FAF53DFF9F2E7B1BE0D60A44CC3D1B521B91CAEB680008000EB23C0828EBD
A5431537AD9E0262AF7ED4A6886AAA00EBBCDE69ED9DB208BBF0F8CCA8CDDECDC5FBA992E271F770ADDB1A37AC1BC769B99BB58CB2078FFB8505E792D8428000
AAFE03F5ADA7FF89AD45ED838CFCB0C3F1F5EBD4D488A0B2D18607A9A932DFE4D0C1AB28E8AFE6E7B07FD5FDA9E8C281B038B247AAC493AE849BEB18D5AA818B
A7160A24A562EB41ADEFD578823BB89AEA71D18EDF01B450C432F50C9F61D7AACEEDD76EF39BE0C3B6B6E7D0A7DEC33FCDF8DCD4AF118F528000F67DD8008E1B
B1CBFD00B088E302A58CD9BB89C3BBA0ED6DE236D9B3D44DBECCF11FA7AEE348E76BB2CFEC32DE22A640F47BC594C4B4AEB3B7C3B5B694F88F68E6D8CD188000
8000E3E0DE3AEF29FFA09EEAF05DFB69D11D9DB1E9569641CA1BD86FF7CDF553F6A0D21EF8B4F0D120BBEC4A8000BAC3E6CD88ACF648E6C1E004063BB15BBA07
8000F8C2F38AF2D5FE499E9DF186FA71CA6B956FEA88AA91D531D6B3FC7BF37EEF1FD4A3FB39E5D9FD78F8D28000BC1EE786849AF1C0E464E90DECBCB1CBC0BF
8000E7DE0967F7E0046FA500FD60FAB3C11CACC1F477944EDD64CC4DF8C5FE88F2B0D92FFEF5E94AF757F3E38000C2B0EBF3B104F6A8E447F73DEC8EB48DB199
8000DBDE02410704FDA8A59FFFBF0075C124A00BF3E192D1F741EAB5EE7AFB7FECA4E6AAFDE311F9F9BEEE498000C987EE4A967CEB2CE2DDF015F2E4AFDDC793
8000E65803ECEB5F00E19E5D03B3F96FCC7791CBF0F4AC37EF24E1ABF291F294F533D54907340128F631F05C8000CA8CE8CC8A43E5D0E696E486ECF9CB10BF99
8000FB2B0520F95BFC999591F45DF542BC929B66E18DA51403DFE0FBFBBBF2E2F878D794FBCCED7CEE99E7128000C1B0DCDFD204E8B9E866DFEAE88BAD6DB776
8000E61DEF5AF61EFF3390EAF767F51FC4999F6CE73D99EECA7ADB841346EC5CF4A7CF0AF8FAE5FFF120EA168000BF2EE8828000E518E588E7ADE19AB4ABB898
8B6FEA00D6F9F2AA0869A4D6EC30F82DC418A7D6E938A70CC763D27CF7E7EEDDFAF4D3EBF66FE90B02AAEF9A8000C388E80A88D4E384E334F21FE72FB862BD62
CB38EEC0D0CB8000A7401ACBC4C1E854E416BD6AA7B306D5ED07FA12FECEEE4D911EDD3D1316F2ADAE2ACB92FACDEF04A2DF9B189A15E434A6BCF63B180702B9
D528F38AF2348189BF03E7DCC660F008E60FC58CA92707B7F239EB320557DA09B574ED150F1EF6BB9715D0EEDF5DF59C96E7A3C6AD66E243A0E0FDD7069105C1
C97AFCCFE1148000AB75DD1BC501036BE892B16CA6AF07FA1BCDF4B2F8F6D45DC06BD8800F24DDD693FED9BCDA97FE4D9E27935BA594E7AE9EE40C4E078AF864
D1F0FF9FF24B800090D1E8E6C08811A8E2DDAD1DAAF7FFE3EB50F152FBFDC7B0915AEB6F0ACDDC8099CAD869DA5CF13D9D939A23AA62F12395BBF90F133E0A5E
D056F78EED93800098F3E784CAED02DAE3D4A3D6A8A712DA0AB1EE0FF98CCC3192AAF19A0702ECF89A44D589D711FF289B959B77A737DF1E9B28FE31FF6B01AE
D080FA79DAE98298A0B0EC8EC717040EE755ABC39D440AFAED98F287FB02C20C9E9DE536091BE784ABFFE92ADA51E34D9FC6A6A5A9C9E7189BD5FD660B1510A8
D152022DED938000A9A8F61ACD7EDF8EE2D8A76DA4010BA8F0C70198F4EAECE2887BDBDB12D9FC089C9BD6EBDA13F16E9B47ABEBA151DDC8A6F5F7D4174F1128
CF33EFABD0078000B54FC92DC28CD975EE66C058A4540DADED41F457FDBEEAF49420DFE9164CFB37AFA6E1DCD56DEF05A2CC98E1B098D0D89050F6E106F2054B
F9F4BFD2DD90FD1BB7C8C2D5E79FF8A4A700B68BD6849AA6AAE2C0B9AC03A4D0A642EA1FE498B0EEDD7CEF51E381D410DFFB9E93FC66A6799C29FED6F294CB73
FDC7AABCD5C0FB5ABAB6B6A5EB4CFF57A37DAC94DD5890F1AE99C81CAE55ACCB9B0FE956DBFAA3F5FD3CF8E4EF8ED5EAE777A52DF8A9A686C9F70F91F541DD70
FF8099CFE67EFE39BC36AF5021F5EFCFA763BA29E5CE947AB036ACD5CC6BA5B9F13ADE85E883AB8BF466F08FC955D92EE4919D58FBC9AF10C11305C2FC05C202
FDF3AF8CE6B4FC39A682B39920E3EF36AEEABA94F4AFA10DAEDDB023B5D998D82B6908E3E55DFBA5F0270618BB34DB5BE2CD999702C7B930CDC906A8F224C8AF
048DCC2CDF2FFCF4B0A2B47511BAF4F8AA6DAD1BF32F8FE1B019BA43B840B18DC9BBFADEE793BC25E2FEF63ABDAAD20DDE29A7960962B6A8D8B70991F4B7C04C
F5E8C389DA410A7DB8A4B380ECC1F9A3A419B461ECA3A623B06EB59BBB97B30BB4B7DF78F049AE71DF14FDBBBC58CA4EE52FA7210052C440C47BF6F5F2A6C172
F921CEF3E3120333B9BCB4DFFF16F157A6D5B2A2FC869724ACCCC22DB5C8A0A3BE8F045D04F8B26ED9000DB7C586D002E3ABA6F1FE84AE84BB6EFCD8F0A2C042
FAB8A525E332FCABC018B824DE5DFFD6ACB9BB52E28D9AC7AD2DC802B5CCA54AA424DE4AEF5DB903D2FD0F3EB782CDCAE63A8E0BFA12C61DBFBB063AEF52BA13
D28D8000BBECC7BB951701C1B1E9E69CA65F1468A0A8072BC14EDBA19CEFDD76D7B49C349FEEC94BED3DFFACF09CEF7EDDFBAFB7D407DBE28D78CDC8F331F49F
C0818000C83ACC01941AFC59ECF8D059AEC20BB2936FFB76C565D04B96A5DBD7CCB4B49298E6AFA1E5390335E084F105E0B9C406E9D2EBF4983CD78FE22FDFC4
D04A8884C9C8D25F9C90046A2386D0A9AD300D7D9C68FE8BD0F8D433AAB2DF4DCC9DB8BF945CBD34E3F4FCA7ED74F189E1FACBBBDDEAD08295C5D6DBF033F505
C625834BC979E667A74EFBC53671C42CA8E205969AFAF9F5D432D5AAACE9D8BEE9E7A9E3A121E73CDE3F00A6F598EF6EE3BCBB1EDB44CC7D97F2E1CEE5EBE690
C04E80C6D308D2ACA6800197301DCD78B58D0A7EA0B50A1AD6A5D038A5DFD4CDD430AA2C9962B781E3290B44F04BEC8FF8D6BB6DD966CC369AF5E9E6F53AEA12
C6358000C341E91B9FAE080409BCCF26A50A0AD79AF50404D11BD19CA81FDD3CD3BAABCFAB80C09CDEB704A4EF7AF13FE160C304CEBBC1B392DBEC11E653EDFE
C9618000CC37C7479A2BF881C17BD50CAEF10C119C9CF8FDBE40CADFA2B4D91ED4918BA7A7C4AA58E8A1FE3CECD3ECDFD9ABCC7CC8C0D0E99A68CC90DE7EEAC5
C47F8355D12ECCEFA7EA06B7BA24D58FA48E17E0A93CF98DC4FDD270A2F1D97BDD14A658B26FBC0BF0B00375E59DF10FDFB2C0B2E299D54FA178BECEDE9E066D
C5E2C05F9F4A8000DD13A66FC4E3D2FEFBAED5F4A1ADDDA1D341D772F174894CE97DBBF0F4B90737B1D0E7D59A2CA63FDDAD8000BB6DAC62F3F80516A34CDA78
CB65A97EB0358000EF33A7D0C295C6CDF137D6AF80D0CE78BC5DD0740C358E03E912BE7FF10EF0B6AE25E5279AA5AB55E48B8000B7F3AF26E789017C9DCFCDCA
D245B44AB1338876F604ADCBBA48CB5AF1E5DB748801E12AB4A0E5C608E395E8F002C36CF26CEC94B300CDAD9AA9AB18F4748000B8E0A8F2E2E60043983EC7F1
D2E3B0CCBBFE89A0EE7DB123C44ECD68F542DA409D4D081DAF9ADE02F84FA052EF3ABD7FEC81F6CFA96ECFFFA96DA994F7C78000B8D4AAF0DFB5072CB40CDEC6
C698A821B1C49E52E794A5EED0C5D294EDB1DBE2982B081DADC4E313ED149B2DF4E5C1BCF2E1E670B6F1D5669E2FB461EA1E8000B98CB288E9EA03D3A8F5D1C7
CA07B9C4A5628000E7F1A2EADFE6C525FBF4DA289739E9C4B2F3DB1EE2448000F17EC27EF609F535BA01C45B99E6A8FEE1E68000B62EB455ED490533A988E543
C5B8A1A2A5D38000DFB1A6F5D5F1CD0EEC59D5AF8731DAA6AAD4D0EADD7D8B81F044C19FF369EC6CA365CF489A2CAD9FDE8A8000B9C3AE77E6C6FE24A295C855
C31EAA9EA501AFE1E981B44DDB7AD67FF69BDC4793AFFE2EB46ECD07E2B38809E9FFC1E3F838F784AC86DEBDAACFA243DAFC8C28B7B8D54EFB660C3BA78DCBAA
D175D047E810D322E25F95031069CDC2B16085D6D26480C002268A75A670ECC2FC9ADB63DA899EF19A37D381D46FD1649B93876D1A25C21C8B60F714AE0DF83A
DCEAD39AF33BCCBFDE1A885C0019CAF0B65B9848BF7C8000F984888CA5F2F75CF7F6CF43DE23A24CA00EC763DDEACA46AE998000FF4DD06C9E70F9E7B0D5FB9C
DDF8E4A6039CBFB7DBBD8C72F80FD630989D9D2DCACD8000F97885FDA556EF1BF19BD554DC7F97ADAC82D521D11ECFB9A764800000F1C08392FBF7EFAEBA11AD
E075E0F0FB3FBF9ADE879208F6A9DABAA4979A9BBD758000F9B380009B5AED8BF29CD952F9F7978DAA28D50FDCC9D33B99C4800003E1C25B9DAAF569AF7D0266
DE4EE0E9F339CA3EDCE78000F768D5E1A3589139C811823EF6CD8000A641F0DA0351D2DEF9DBC2EDAE66D7AFDE20D1FF9FE08B770550BB279ABCF5ED9C6E14CA
E8A3E32FFE1DC1E0D7F98E24F3ECD4EEB7518681BCF18462F3828000A470F157FCC8CF340726A33A9DF8E33807E3D0D6A0BE9B21FFDEBDBC8A8EF8CEA11EF704
DB46D952F36EBCA8E18E87CDEAF1CFB0AC648B52C16C81D5F1B48658AEFDEF3BFBACD591E0049A57ABB6CA29E531C7748FAB91EB024CBE319A7FF5379AC9FAD3
C6C7D4FDE9BCC378E08B85C0F853D082B3F99BE5C37D8000FFE48E90ACB5068700B8D453D1EAA421A211C4F4D48BD26FAE0597600130D1889CBAFBBFAD69FE35
FA2307CFF4E5C279FEE7EE1EA16C8000AE39D815D4FF8000C929E927B4C0CD6E9A3A9F16C90D98EC8000E104E4628000A813E07E9B56ABCFABE1FCD29C91CD16
F106060007B6BA0D03C10BB1B258806BBD52D6E5D56A8000C9D2EB09BB0DD445B86A86D4C7318CEB8000E5B8D70E8000A93BDC6E99CCAC5BB96509A5989BB57E
ED04FDACFA7ACC630781F245CC2A8237AD1ADEF0D0D88000CDDAD539D177D513D5A38A7AD62EBDC58000F671D71580009FC0D738A217A740B433FA7589F698B0
F6A009AE0795C5A5FC25E4FDC5E68000BA01EA2FE0B58000C256E176C088D773BE939355D98EBF298000DA10DE118000A4C9DB5CA89DBA4BC930022D851C9BA7
F6CF0DA8038AC049F728E1A5C1178000C2C0E170D6E38000CB2ECE41D64BD8A5CAD39BFED285FC3F8000E74FDB9F8000A89DE5EFA0059C65D3CEFCAD8000A6AB
F2F301A7FAFCC767F957E6EABE0883C00350D6E2D20E8000CA91D06FC247D252B82DA2DED0DAB7448000E77ED8D78000A8A0E2D7A29EB246AE89FE8992E7A96D
F10F1647050EC3BE0C96E47BBEE8968FB6B2D454CE408000CE76D2BFB832D053B1DDA442C692B9268000E426D67A8000A57CD1D58F6CAE2EA283F5178FD9A7D6
F3C605A5FDF8C26FF67CE96AC2B09BDCB881C4CFE7A282A8BE8DD44FC920DC25B4279AA3C6A8B0FD8000DFB4D03C8000A428E4ABA29FA5ACA5FEFB578343C372
AA62F80FAC76F840D374D4C78869B4FBF58DC6CDD3D5A17DCB2CFBB6A39ECED8BBCBB826DF6AE993AA38FF599822CA4ABBC7B051A6C5833C8000E55FC82DA228
AC0AFD5AAEF6EF4BA9E7DA56A2B9B6A2F1C4F360D55EA436CB660385A78BD2DCC777A95BE6EBEBFBB25C0BC0B13EB8DBC4C9A4A0B0478D6C8000F5DBCA0B8433
AC850E0CAEC7F854A25BD6908D42B86DFE0EFDBBDCA6AA6AB3C70121A568E8E8C89FC008EC71F4C0B27C12F2A5E0C3B7B7EBAA1EB6D39343805AF39CBDE689CF
AA4A12FAB815F9D2A723D5D4896BBABF0A000391DDD7A78CB2D0098B8FE8E78DD3C6B1DAE0940FA3BA9F165D99B8D2F4BBB4ADF0B7729647819FFC1EC3269AFF
A4050D67BDC51143A5ACD27486B7B4FDF700F4BEE1E4AA8AB113FC3EA40DD9EBD01FACDAE31707B4AFE21F769C37C2FBB15EAEEAA6098BA589500111CE198866
ADE5FC93B75CF6DCAF48D5DF9126D715F061DF6AEAFCA4F9CDCE06DEA2D8EAE7CE9EACBDE522F043B3B6FAA59A61BE68B671AFE4A647A3748D08EBCFC2668439
A908FDB8ADE5FF3FADC2D83F8921B25AEE7DCBA4DD4BA1DDDE6BFB9C9AE1D047D40BB4D4E48CE72DC559E918A204BF43BA97BDF7AECB919E89B80945CAC58CCE
A3ACFED5B208FD16AD0AD7EB97A6B57FEE81DCE8E1AEAE65C859F04FADAFDA64C585B2AFE266E4E7AE82E411B0BBBBF4B70EB5EFACB5978B8A0CEF04C4088000
8000E064DA92ED6406079D84F6EAFB16DA579C55F2849457BC46E09EF10AFD080BFCD7F3FC44F72105EAEAF88000C167E66F899FF57DE721DF1DF044BD03BB73
8000E9DCFFD9E8B80222A110F190FC8BCBAF9D14FA7991EBC142D8C401EAFEB0ED37D2140176F51BEFB7F6428000BF71E44B8083E648D9FEEC4AF977C463C436
8000DB6DE28AF3B5038AAA72F84D04FABF6BA478EDD488A5BA14D8B2E75103E1F08CCD70FC9FF629F18CE7AC8000E2D1EA759502E842E7FBED94EF1BB14AAFE6
8199D33FE458F458FEFCB6CFF793FE39BF08A70D042D9DB5C475E01FE5D6FBCCEB96D61B02510194F34D120B8000C814E310A33FE81CEF02DF53FCF4B65DB775
8000DA7FF126E78CFF06A1B0F937014BE4728CA2F7B995F0CE42DADFF31BFDCCECB0CC83F5CAF998EBC5E9C98000C4A9EEAFA070EA4BF615D5FDF147BB1DB150
8000D8650649F0C3FC0FA296F1F1FBF4C510B1C5EFFE92E7D8C9DD11F42BFD37F652D4A8045FE84DF7DCF1248000BF9FE7DBB5BEE480EA0DE163F91AB7A7B409
8000D93DFB6EF1A4055891CEF94EFA4BC3D99B87EB5C98ABCF18BECCE84DF080EA1DCFE6F3DEE42EEC6EED438000C1D6F1D78000E1F0E3E7D853EA29B6DDB373
8000EACDD7EFF94E0B00A1ADF8B9FAADC2D5AA19FBE8A26DCCDDCFE6E64C0024148CDFC1F1BBECDEF477F6428000C309EE068650E09CDEA8FD6DEB98A9B0BC9E
C9C0F1C7E9DD8000AA9BF323C130DD9AF432ACE29287F97DF07BF749F7A1D0FE9027DE8C111DFF44A18BD8F6ED49F94BA45089F5ADE1D763A3B1FDC3FB471294
CDA9F67AE51B8000BC11E40FC6EB0594FDCBB88DA8BCFCB80CC5F35502E7D798A59FDBC00CDDED069C63E1B9D96BFD34A5919087B279E9CD9FE7F781FCBA0BF9
C592053410378D4E93EA04B7C400EA6BF83DAF5CAC840C720F13FB5EFC3AABF898F6E0AE0EBEDE2C991FD63ED5A6F739A8158E4CB675E02E9F46FA6B066EFCE5
CF7DF491210D86AD8F97E664D0F922C6F38EAE4FD017FC6EFF23094FF9CBC8F68D21E0C70A6CDB038948D40DD9FFFECEA91985A6B1F3DCD0A802F730FCFC08CB
D180FAD2F22388479632E5ECC306EBEBF7DDA6A4BB0811730CB6F84C0226CD4886C1D7AC0C07ED848981D48ED4EBFDAEA25A8CC5AD32FD0F958EF59901D8FE02
CC68F2CFFD0F8000A3E1E3F2BFBB0DA405C1AEAABC350752E512F7D0F657B79A9A6DD8B10283E5239D0ED876DDA8F46EA942912FB049E6399B73F71AFB0D130A
CF3F0597EF8C8000A02ED0D6C93DE1FAE9DBAC6DACA40197F380F02AF487C6A8895ADAE2103AF68DAD35D855D40CEFB89EE08D7AA967D8AAAACCFC0E00EC0D88
CC3EED5BED9B8000A989C1B9C21DE1D9F54AB82D977201B7F323FCD1F6E2F44890FFD6E01914ECCFB8CDE19DD452F8059BEC902EB574E9589C700EF304D0144F
F934ACE9DE930BC0A7AEC329E63F1A42A0DAB03EE69393B7A8A1C872A63A9E76D1BDE483E7F5BDC8E1DC0150DF54DEF20050A0970036B280AD4603C3F717C8E5
00EAAEF5E187FA5DB0ACADDFE182F2CFB8C0AEF9DBC088BFAF6EBBDFAC1CA0EFAE01DF4EE1EEB9DDF628F79FD80FCFB20781ACEBF5A5B062C654064FEE0CD4C2
FB58AFABF494FB80BB2CB0FCF50304E5B8F3AA16ECA59F85B15BB56AB727A30FF1C4E2B3E8AEBDD4E411F517BDCBD30BE937978DFD6CC8F9C56A0560F2DDC0FF
031BB9E9EFC9FE3DABF0B5CAF22AF3C5BF70AE63E5BFA5DBAF40B445A8839CB4DF4301BCE6C3C88FDF590166BE49D12FE804A32CF9A5C2A5C09CFF14FA05B9C7
FE2FB0A7E05109E8A977B140F955F004B3E3A653E06D93A0EE20B3CBAC4DA897B260FBB0E61DCB70D9F3E523B8D4DA4E0717A43DFDB2B982B9BB0ECCF7DEC006
FAB0BF06DAA10727AB74B24FF678FFF4BA58B39FE2379903B053B714B3F1AA57C505DF55EFF0C072DE39F3C7BA26E9A1FC79ABA0040DB16ADBC504F1F310BF89
FD3FB409DA10094AB220AE80E013F48AB655AB3106A29463A9AFB97CB1FD9E00C28EF6FAE756A968DD661BB1B780CA9FF3319BD9EF7DB155AE6AFA3EF039C044
FD2EAD46E3DE0173B05FB4E7DFB00550AA6BAD8EE8D697B8A874C0DEAD7C9B6CB3CBDA70ED31BD29DC94F9C7BAC8D152EBA98F30F520B71BC014FE51F5E7C49F
D50D8000CCB5C53AA17303C1C3AEC7929D1308679EBF03F0B713FBC69C0BDFCFE4BB96719D64D34DE1B70C5BEF2AE663E1D5AF3CD3BC077D88F6D4F1F282EBCD
CBF2861CE604C86B9DD7F93FC115CAACA4D00132A5D6FF4EC6F40D5EB9BCF02ACEFEDA9D9978C5DCF11EFF53E6FCF802DA3BC9C5E727CFA99B8AEE8DED9EE527
E3748C6FC694C7299C5AF6E0C8F2C85CA21E099EA22BFB27D8A7E1E4E697D43ACDA2BEE89AA3CC97F05204FCFA4DF3EADEE8C014DEA0CAD99591DBF1F06EE3C0
D7F88E47C7EB0AA1A918FC1FDDEAC5BCAA4F0077A2A7FC82CEFFE0D2EA0ADC63D66EB0129EFAC039E14D03C904D8EAEDD905E901CC7DC46998D40683FCB4E5EB
CBA5938ECF21D03A9C48F8FACECEBDFBADE70177A9CA019DDACBCF5BD3C2E323D0DCB7E09B4FD121EC83FFD2E9F5F4E9FBC9BDECE4D4C59F8CF7E201E81ECEB7
E2DA8702C8AED64DA50CF3F6C36AC051B929024E9D72F757CD3CD45511CFE0EECC80BB72A263C64CEEC30405FC95F77BDFBFC0C9D20EC7B99A20D6ACE353EE56
DA31893CC655CB6095D6FE13DFC6D6CCA37903769E7B0484C611DD86B448E3B6CFF08CE5A0A7B916DB0D0445F4E5EFB5E6DDB906C637C5CFA3E3CC98E237E816
C9A48121C42ED78FA06AFA8ABA13DAC4A88E0AB6A477FAC4C136D7D6A23DE8F1DEF5A764BBDDC4FCE05E05BAE628E84AE222C288DC92D5EB96FCC4F9E3E3E410
C50AB58EA71E8000D2DBAA5CC6D7E44A0367E189949FD369C09FD4F2FD229018F160C87622ECF0B0AAFFEA299FE49FADE0B08000BB8A9AFD0851052E984DD8EA
CC7CA9A2AC418F4BDF0BBFF8CEF2D9D0F656DC6A822AC3EBA6D4CCEFF78191D7EE43DAD208B6DFF0AB90DB74AC94A1BAE522858EB3A1A799ECFB091F9F3DB86B
D687AB19AE439C9EE9B3BA88BDF3C9D8EF95E0B394FECC44AE7CD244F0DF922CF357C5750A82DF9AB398CD61AF55ACB2E8F18000B650B075ED9DFFF0A227C629
FC34AE54B62C9319DC54AAE9C435CAB20DF3DA74997BCF67A517CDB0E2A4960BF2BFCB60FAC7E7E0AE29D9BAB76CA88EF6158000C0DBBD81E79E0015B475BB00
D207A9E5B5F2A2DCE5FFBA99BCAFD885F6DEDE199D20CD55B6A7D455E1EA959CEC46E87BF3B6E1D1AFF3E149A34AA0B1E3848000B8D2C948FAF5035AA6ACB6EF
D0ACAB64A6A9AC19FC3FA5C4C8ABCB58EF64F52C99CCCA07B979C9EBDDA88000E813C31306D7E1FCB2E8C0D49A0BA7F7E9C38000B4AECA9DE801FEA4AB02D08E
C78BB419A4108000DC70A6D6F6B3C285EAF6DA08871DD7D2ADF5D344E45D82AFE69ABF940129E7AFAD61C99A9EB19BC0DFA28000B59FAECAE27AFDD394C0CE23
CC2EA6E6A936982EE44AB6CEC56FF539EC15DF008E74DD8CB993C7DCDFE6936FE925C0530D58DC1FA979ED59A6C6A14EE04582DFBB94C9CE028A0E399734CE8C
C5B9D1DBEA7CD01EE3008F63F0F0C6B8B70486ADCE148000F8998CE59FB2ECCCFCEDD675E46799FE9D49D4FFDCE3D722B26381691302CAFF98DBFA8FA645FA58
D2D7DC47F42DB88316D98455F440CC75C568901CBB468000F84E88589B44F65EF255D14DEC959A3FA106C92612C7C95E9FC081660454C7D59BC8FF92AB2302A9
D5A9E185FAAEB604DA458E96E74ADA9EACC799C6BE9282A7F2FE8000937BF745F9F9D57FE4AF9B9D98C3D7F9EBF4CB0689EC8B230368C80A8850FC78AD40275B
D766D5E7FA1FB554FA739255E8AAE6D7AAB3941DC11982BC047E8000A11FF19CF6DFD0A6EDAD9A17AB11CBE0DD43C5319DC486E300A2C6E099E7FB63A97A0D8D
D42CED51F4F2B98EE0908000F7CAE563AB888001CBA58D0CEEAA80009CF7E9AAF890D82AEB029C0BA515DDC51607DDFEA66A9007FDAAC2B394AAFCE6A25E13B0
D2C3D97CFEC3BF8DDE98910AE6BEE5A0B3B98000C89C8B1BF477840B9AA8F8E00747D4FDFD419A439B3BCCD21659CBE0A4A789210231C0989D04F7D0B09C0723
DB58DB89F34BBC8BD1C28BEBE9CED925B8C38463CA2B8000F02E8AA1B767F592F62BD48FFD0999D09B44CE1CE4ECC9F3914693A2026DC0B4957AF87FA281F945
D65ED11AEE27B8D4E8378248F27FD4C2AE478E4DD8838000FBE08F3EAC93FD39FF0CD8D5D69A9E1DAAE9CDBFDCDBCFC2A1F19613FE78C4909B140124B262F74C
F868021D00E7BFDD0281FD1FA30F8000AD85D04DD3788000C3CDDE3DC48ACA139AA08000CCD294FB8000DD1DE23A80009F5BE1AA9D9CAB6EAB09092DA940BDBE
FFA7030301A3BE24EDE6F052C6118000BBCCD3C2D5558000C536E88BB59ABE7DBBC48000CAE891328000E26FE4CF80009CF9E5548F32A7EBADBDFFD88E2BAC70
098AFE5E0D5CC820F4EEE4E3D3938000B248EC92C1038000BC74DAF0C1ACED6CBA8183CFC749AE1E8000E7B4CB6E80009D51E795A64AAB5AB407025886D59CC4
038704770D48C200E677F088C76F8EEBB1B6EF100B088000BB3ADB31C4B2D726EEC79005D202D7588000D99CE1B08000A001DCB7A81EA5F7C89C070C8A2CA2C3
01F8FD4D17B9BCE4EC16E60FCAE08793AC67D394F1F28000B63ED82F010ACA5EBDFEA085D024B0718000E0F7D8C18000A1E8E1EDB64BB295C28A0355865C9D35
001404520A17BF7FEEB1E85BC4A98000DBFEE07ED3A78000BD95DA97C39ADF2BB315949DDAE4A4C98000F593D5088B21A0E2F613A281B6CDB27103EF9B5A9E39
F9E11192026EBE8DF341E6CFD78F8678BF82D5CBD2DB8000C7FFD256BD36D48CA4B385A1C8ECAB658000E377D2FB8000A369D5C696AEA53EAA9DFA87A97999E9
070BFE4305A6C7ACF0B9E51AB3EE8000B8BFC425E4C78000DC61DF7CC3B9C77DA94F9BF5C792B51F8000E7EFE46E8000A6B5E6869CDEACA7ABE8FE9A8249B9C7
AB3FF76CAB66000AA13CD6869DA9B2A8F48DDADAF378AA6BB63BF87EA270D2F6C7CDB5CCEA7CF4FEA161FE55B044BF07D65ECA299A1D87788000E3B3FA9F8EDA
A6F7F6EAADF9EA70A71CF46A8503AFA1F06A133AD761AAD6B3F5FDF5A506D44AC1ECA70DFB1AF21BB16CDC0AAA13D388C061B5D6ACCA94E18000E99FCCF9964D
AA04FCFBAF7AF2D3AEB5EF348E51B18DF139123AECC1ACBDACCCF8A69906DC54CA38ABC6E73AF470A17AEBD3A564C1FEBFBCA7BFA64A8FC58000E55CBB4995AE
9F3F02AEB782F38EA5F405D9857FAD53087E26F5F031A11AAC91F7E7A49EE6B7DDA8AC05D6CEFE68A48FDBC9A38FD836B661A5CDA7508FA28000F84CD5FF92CD
A840F9A9B4830CD7A550DC0F9B92A99AE62A1B84E564AAFCB0AAFF65A8FDDB7FD051B2CDE3480A6DA25AE9F9A72CCE8CBD1DA8CAAAF09DA38002E63BDCE89660
AC57F959B133F74FB3EDE24E95B1B058F189F4EFD57BAE22B627F859A294DBD6C590AB51E65EF0ACB1ACE254ACB615EFC99FA63CAE4F9E718000F398BFF98ECB
A072F722AFCCF0BDA7A8D88A9023AF38EF2FF1BADCA9ADFFCBFA0C819D7FD11BD0B8A841E9CDE451CAC5DE53BB90C360BDD0AEF7A38289C98525F66AD11B9229
A334FEFFAFD3F276AE75E00E8BAFB5E4F30BD570DF65AF6BB95AF42FAA75D317C453AEECED36E988B684D10CCA2DCD5DBB2FBCB6B06D936A8C13DF17C746832A
830FD5D4DDA0E7C003729E3104DFFBFED5F89C66F5EE92FACC92E51C03B6F592FF6EDAF2F337EC9E0DDFF8218000C315E67487A4F2F1E20DE14FE185D01CBF1A
8719E4D2E223EBC8FFABA3DDEEB6FA72C4F99F60EC659AA1AE9FE265EB27FDE8F05DE1D707EEDB4DF71DF04B8000ECD7E83FA139E21ADE43E7D9DE99B9BCBA4C
8B87D256EA66FF8BFEF19BAA009DFD02BB98B658F315B413BF75D853D4A9F824EB54CD1A07DEEEDF10E7EC5C8000E97AE2149D770ED6EDEF1794E377B552B0A8
9168D9EAEBF6037CFC51A7DEF2570188BFA5A48CF04C9F6FBAD7E540E8CF0EC3EC84E7B30121E8ECF9FE01A98000D353E7D290C9DB87ECE51233D569B81BAF97
9B3FDFCBD295E54AFEF6ABC1FAC4F745BD9E9E7AEAD19FB6C622D6A2E643F08AE935DAEE0EFBE9FAEE70E42F800006B1054D9F19E79DD62AE416D679B651B7DB
874ADD2805EDEF7BFC12A056F5D6F460BD44A12CE7FD94FAD432D614E4A5F762F54ED02E05F0E9DC078EF8478000CEA2E6EDA5B20026E41DFE39EC05B3FBAF65
8000DA8114BEF067FCFDA407FCA7F1D0C2719F39E3D99009C84ECCFA00F7EED9F844CFB0FD33E8E5FDD0ECBE8000C6A9E5248000E6EAE47FE91FDE03B3ACBC6D
8000EAB9D4A1F234FDCCA5B0F8C9F5A5C826A3B9FB5E97CBC183D99B03FBF3ACFFFFDAC9EF77F07DF1A6F7EF8000C955E7C18C5BF2BADCC9EBB7E60AB37EBDAF
D2FAEF1FE4BF8000BFD3E462CE6FDBF0E791B15B936BFE6EF206F282F5F3CA7F9388DF2E0980FB9BA11FDE85F1F702A09DAF8C1BA6D5EDDD9B9214FA0E9212E8
DBE3FB84E8B38541A9ACEAE9E22FE3E2E9A0B43FA870FC18E7BEECC219AEC56D9CF108E410C2E7E18C0ED72FDC88F5BDA9A394CEAC8DDB7C9CFEFA1B016DFE1E
D98FFBCEDE62980B97ABCDCBC970E241E6C5B188C5530F5AEAD4F2F503ACD9149B2CECF20BF1F11592F0D9BDD6100C37A1EB9B4EB519E54A9A42F750F8D6F4B6
D3A5104008739B29A933F54FC4DFFB98EA92C3C1B655FD5EDD1DFAA5F727CE069145D7200FEBE5508745D350D1B8F8E2A5B99C43B4D8D4C99F31F5E60E09FF40
CEB1FA9DD9979B7AAE9DED36E299F2EBF2DEB4D6A87E06E5089BED06F3E7C85BA30716B80A040BAA9048D10BCF93083CA7BD8FFBA4EEE48488440566FC07F913
DF5CF6B8E70490E0B73FE704BEB2E80EF8FBAF90CC3707ABCB69EC4CF4FBC6D98CCA1973059DCF2C9485D41FE725F719A59BA0EAB01BEB9FA07105D4FF2B07D6
CB8101CAD87D819AA7B8CB72D334D351E886A5BBADD608C7E90AEDB3F262C9AC88B8DF6E0570EF689EBBDC90CDCCF052A4F88E99A310D8069FADF8E409350863
CDC2FDDADCFB8000A9ADCEAAC0FFDD18E8D4C9029F7BFFCAE9B4FC7AFD49E71B9D68DBE80B5AE517A6D3F6AFD43CFDF29CA590DAAF7FDF6C9482F7330438FF48
032AA8E6DBE8FDFAD090ACF1E1D90B35A71FB628E18F9C59A23DC91DAB9D9528AB58DEA4F15FB5B4FBFCEF23DAABD7B8E5419AFB0000B910C3A5FCBAF8D2BDD4
049BB163E671F624B380AF95E748FE7BA7A6BB2FD5CE9075A780B530B659B6B396F6DB7FE007C235EC0BEEADC3FECEB0EAF1B0CBFACDC890BFC30C6AFA5ABA0B
0A5FA8FDE3EBFDC7AD60AC63ED58F880B283AC88D99F9EFAABF9AF2B0859AE55D1E8DB38E76DB422DE060152B70FCF92EC5D91800085D142AFE7009AE5C2BD72
FE84AD9B1443FBC8B230ADDEEB40FAA3BC1BBD39E30E9D1CC6EAB8FCB58FB35BB439DB09E4E8C3D6DA2F0092CC80DD7BE396A054F5E9CCA8CA9FF973EF5AB5FD
F8C2B685E436FE7EB6FCAC96F7B7FC7CB0C1BFE2F8448BB9B0A7BA16C26FA7D2AE2FE03DE7A8BB08DDADE550CF54CCF2E4E4A61302A9B40AAAB5F735F954D142
02A3B5E2E76CFB7EAD88B02AD6BEF541A89FAD8CE3ABA036AB66B977BAA2A275C777DE6FE20ABC95E8ABEA1CB7A8C5A1FF219FBF06A9B407D18BF416EDA9C2A7
FB25B2F9F310F9C6AD88C619D94DF84D9F08D7D6EE839BA6A81DB366AB47A17AE762DC18F4D7CF1CEE21036AB80AC563E6D3A44FFFD8B32EB14E00CAF198D374
058EB599E958FDF9CA1DB0EBDEA000DFACC3B001E5BDA107ACC6BF34B2FF9E3DBF93DB2EF077BC71DED5F980BED0CB31F42C9B38FAB4BAB0BBD8FAFFF23CBB67
DBB88000D6DAC83C972D14C0B1AFE489A6121217AD4606D4C083EAC89CAFE67AD4C4936199CDCEFBF82408EBF143F8BDE368AB90C9C4CEB796C3DC44FDBDEF5C
C8308942EF85EAD4A2E3F80C100CC530AEEB1381A44C0910CCAADAC39CC2DB1ED038D4459F53B75DE50000FDE93F08ABFDAABCA3CD35D0BDB15BDF00DCECE205
DC7092A6CFB6CA2FA6E5003D0CD4C52BA8D11E1CA09F0084BD15CFEFD763FB41CEB2AB419DFFCFFEE8250094E123EE3ACFF8BAA3C9D8C52794FBD36FF800E868
CA4991B9CB8AD356A907FA0DBD5ABFCAA81006BBA813FD9FBD5DDC0EB196E6A9E0FBA3C79827AEC8DC270A75EDFCF2FEDBE1CA27F12FC283A356D018F322E0DA
CAF18816EAA5CEDAA438FC1104CDC5D1C2040789A5A21299C379CA57AC0CD6E6D94AAADD9BA5B075DFCAFE30ED7903A2EC18C32BD139CBC6A4E3D0AEEAADDE1C
D92391FBE267D662A7BFFA5EBEB8B5D7A40A14459F1DFEA8CBEDE114AE09F3AED97AB702AA20AD3E153D10ACE78CF1D3D7ABCBFFC88ACD6291C0CE3DED13FCC1
D2A38CB1D369D0B59A9A03A2BEAABF68A963049F9B7EFFE3BBA8D881A0F2E4BED59686D6A4F5AAF6D7A7FC840855E553DEF1C771C92FC8859E64D310DCCAE7F5
D2918000D0EAEC8C9CEFFDD7B3E4E933A09718C49F27FE01C3EFDABEA714DDDCD56FA00DCD39C374E5A5FE01E998EFE8D99EB8D7DDD2CF6094EEC3F6E878E49D
C127B45FA4AB8000D9BCAD78C775E30B0167D8E794B7DCF7B091DBCCF79B999004FCCCCEFB9CF2E1A3CAFA7AA8C1A061DF4D8000BB76A287F20F005CA2F5D9A6
C240A753AD2390A0FADCAEBBCD4FE199EDE2F9378978F15BB72CD0FEEBB587A5EC46C059EFB1EDF8C1ECD8D0AB69AD63E8BA8000B804A93CE5FF0E0BA1A4E212
C7A3AF8EB3B599EDE717AFFABB3FD38BFD5EE5A09965DCC0C687EA57DDF0B0E3EC43B95EF3E3E88FCBB0CDA8DB9F9FFBD9248882E841AAFAE6D3FC94A89FF2E6
C53CA5E1BD099D54DB48BDECD178D2D3FCEADEA48E9AD4D1AE22CCBCF6FD9202F19CB98EFBA0E335AC90DBA6A639A943047A8B9CCCEFAE0EE08F0A95A3CBF14E
C68AA8D3AB61A15BDAFFA75FBC94DF70EFA9F7B89F5FDBF2B96DE08BD9FD8000FB48BE63F27AF750BA37D26AAB57AE2AEAB38000CA9BAF83E68C076DB5AFC437
C867AD76DD3D80001194ABE7AD7BC5E305D8E7068F79D15EB859DDCED9368000EF3FC094EFB8DECEFC15D192B0D5A763E1DE8000C741AD3CE5CEFE8FAD31E868
C6F9AF469FDB8000EE1EA065DF91D222EC39E2F89C53ED3EAFD0D9CADDD09471F52FBECDFCB2ECC8A5FBDB9A9E00AA14E90C8000C4DCAF9EDE2B0A14A564CFBF
C746A3D9A5E79B2AE593AFA8D362EF9DECABE82A8DAAD373C779DF25E4EF9265E9F5C02C0B52E8E4A863E9CFAE009FF0E0C98963BC69B9EE018A1135A2D8CCB6
CD57DCE9F1F4C457DFCC8A68EE96C8F5DEB78C57DABA86EBFD918D5F9DA6EBF8F585D180DECF92EF9D9FED38DC4BCF44A35981C9053BC7D285BD0394AAA6F8E6
DB49D986F7C5E34214218000F53ED58BC4248D0CC6578E15F2DC8000970DF87BFEFE0405DFA397A29358CD62D5BFDB2FA79D96C2008AC19C96860115B132F9EE
E112F5E109E1C1B9DBA1A303F78DD1F8B88999B3D0449AE5F3D980009798E58DFC93DA57E8B4B361AAB4D10DEFFBCDFF9A339622FD93C8E6A4B40792A54823AE
D5A5F6D6F2D9BA6AEDAC9CBAF455D35EB008901FC23E810608169262A595EBB8F727E024D5A89C6CB2E8D574C10BD8DF9D279B1202ECC891A2B5FFF1BD470BC1
D468E2BD0464BB38FAF18430F146D580B4A29495E2BF94B0F49782A89845EE37F9F8F769E6E4909A9531D0CDE4BDCA639F13978401E3C20C9F9AFE849E2809CA
DA7BD2D80EEFB82AD86B8E37EF37D6D2BE3B8DF5BDBD8BA9F40080009FB6DDCBFFCBDE2CE628A68EB26ECDD0D9A7EF009CE98B6FFA45C63D8C1BFD8EAC6BF7F5
DEB9DDD8F5A2BD46DF4E8989F224CF16AB888B61C55D9240F3CC8168A664EE33FF67D971E244949999AAD1B7DFA8CD73950C9407FDF7C13C9951FAF8A7B5FA0C
CFC5D571EC31BB57DF8D8091F1FDC952AD4183F9E192852901E39626A8C2F45CF8A7D898CEDDA10DA9A8CCB6E3E0CFDA9EEC946AF9A8C3F09676FCF2BF23F8C3
F4511D48F64EBD03F81CED71AB2C8EE3011AD1FDF46A8000BE87E330C71BCBF39A47848BCCB598E68000E146E3348000B59FEB2D9D0FADDCAF2C0AAC96F6B9BD
F0BFFEABF737C245F3B2E646B8F1933ABF3ED7FCCBBE8239BE32DF49D7EDD9CFA6E19DBACB8B8CF68000E178E03B8000A0A6E8578F9AA413AEE9045D95DEAEE6
EFBB044A0146E128EBA5ED64A822A446AD84E397CA348000A95EEBD1CABDC904A19A9FADEFD3AAA18000EAA5D5648000A193E297A68E9D95B0FDFFF787349AE6
EEF10FD4F86EC30CE63DEDE7B6DB86BAB240CD12D8C38000B196F17BBC98EA21B18EB7E6D1ECB6BF8174E501E33E80009ED3DD969B58AB7DB029F95D9E74A3D5
F376FF82FD390573ECE2E9E5CB268C56B665CAB7E3408000B2EDE4D8C4F0CEB4A86BA423D1ABD1BC8000E7CAE1218B21A8ECE1C9A6A4ABC0B89007DD9EB0BF75
EFC70A2904C3D0F1EF86EC19B920896FB3A2E72BC8C38000A261D402C364C2B0A63D906CD39EA4668000EAB5D5E08000A8FEEAD19B469CF9B4C704938036A62B
F371276BF82CC218E711F925DA7D8000B8B7CBB2C75B8000B73DD483CC63CB00CC98914BCC0AAAA68000E559D9DF8000A391DFD3A781ACB59FC2F8258FAFA319
EED40C180207CC39F09AE111D2268E77B9A7CC54E1A28000CFE4E019C087D74AAB1D9742CD3FAA028000E0D4D6CC8000ADB6DF649D0CA35CAB58006F9471B55E
A5A6FE81A96DF436ABA1D63582D4B711EBF8EB48E710A52CC5720125A63CD162C77DBBFBEC7EEAD8BE54E8A1C2C1C87AB35FAE07AE3685558309E11FBD428ABD
AA5EFC1EB636EC58ED7FD4FF84FACB28E8E80A9FDCAAB9FBB265EDBCA47AD08AC4C2B904F99BF887A5D2D76FBE39BAABB628AAABA00591D08FBAF153BF6A8BDE
AC590C28B8D0F8D3B962DEF5A514CA64F77BBD70DA62A9B5AEBBFE55971CE7BFDDF8B69BF350EB4CB332D2F2B518BF5EBF9EA2BDA9C79F6497B5EB53BFB7A2D9
ADE7050FAC3BEC88B318D6039693B0C7ED96FEFAD38D96DBB134F60AA443E43002E4A5E7EB93F91BB2B2EA3DA160CA65C988B5F5A2D48B4B8285E262CC3C8AB9
AC25FEFDB601F295B938D08497F0C542ED98D12DE0F8AB62ACEBFACC9E6AD6D6CBACB0B6F0D1FFDEA939E357B470BDF3C315ACF5BD6291F99B40E126D0AC9522
A9C7FBA9B636E9B1BD4FCD4E95EBCA23EE35CBD8D3B9B885BD490AEBA7C3DF5CCB30B0D1F425E88EB489D601BFFBDB5BBD95B77BA91A91689325F1C7DA3A8FF0
AEAD0760AA3FE5B1B363D5818B70B167EEA6C1FBDBC0A49AC2D0F225AD6ECF42CBFCAFC3E5B4E6EEDB410B05B2DFC162BF21AA78A06E945880BCE15CDB5692D5
AA1BFB57B36CEE8DB653D3FB9289AF3BEE35D715DCEDA9BFC516F30BA684E0E7C95DAE47E865E9FDBD3CE72BC66EC859B4E7BF5EAA1B8CA8A1C6EE41D34D8124
8000DC47DB35F181095CA1C20149008AD7F0B0F5F2FC8A75C50DCA1FF2C9F2850946D264F942E91A0DB0FE798000C2D0EA0494D1EB2ADA02E483E722B6B4C00A
8D48E096163B04460C1BA57FFC33F884BF95AB3D05E59447FA91D868FB19F519F80ADCF9F22FE5390046F8C38000EC3F092ECA1BF7BFF82CF17EF520C271C905
8C99DFF80912F6D10371AF3AF3D3F66BBAFE9DCFFAFAA3C5D9AEEF95EF44FD42F487CE4EF268FD3DF980EC888000D03EF6B7A428F959DE8CE0FAF88ABB10C503
90B8CD87DBF1F585FF88A942F226F530C0DC9CC0F92F98A3E61318C9055EF11BF5DBE3D9003015ADE9E9EC7C8337C62AE16F9C05EC7DF48BF107D7BCBE7DA3EF
907ADC6AD6C8ED7C14E4A0650878052EC00D8EA407219CB3FCE7D1A5E5BAF12FF6E9CF26F022E809ECC903738000D334DFC0A31B09F9E4DAECB3FCF3B876B396
9422E8DE0192F5D102AFA4E0F4A8F73DC0A6AFE8EF6DA1AEE458DDC7E9C8F48CFDC4D2E3F8A900D9F8D8E59C8000DFCFE6788EB1137808EAE441E905C5DA14C3
888FDC2BFC1DF14508F89C6D0E0DF637CA56A87AE5BC92B3C521CC7E1703F16BFB3ADD8D0259ED56F7B5E9DC8000C855E0DC8000E4DDDCB0E7B2E745B992BDDE
8000EBCFE86BF65701B9A58FFD0BF6CBC4F6A88FF2DD88BEC8E2D570F7A0EC890E57E231F393E813F011F2498000D029E5C990BAF006ECF4E853FCC1BBBAB737
D6C0FA57F2E98CF2BAA0E6B0C931E26CF0CFB03E978FF6E5EBDE017204B4CC849B0BE27010AFF07FA399D9EFEEC0F8CAA67F8F0BA34E11169CF919E60C42FD29
D7A0FAD9272E9174A65BCFA7C264D889E9FDB039ACF70E5FDF36F3EAFA14BA3EA39BDDAF0F5CE18586F00421D35E0851B98D918CA6B90609AAB3F85301ACFC7A
CFB5FCDFD55F99E5959FCD61C096080EE7BCC3D4A7C9002BF2DBF24AF3D3C324A82ECEB70B2CE0949F1BE0ADD7FBF835A3F4A351B6F90E849BA1F669029DFE85
CF33FEB3D6CE9AE9A51CD37DD4AAD674EDA7B504AE4FFBC7E523FC9DF3BECD858C15D97B0217DF8B8957D9F9CC8BFCC0A5DF9B82AEA2DDAE90E90C9A08CB01EA
D8AFFC7B157A91859F98D2A7C0AFE0FDE352AFE8AF0A1E8FDE26F18AF03CC133864905F00128DF979F4FD6BDD539F7FDA27C8D98A328F9C3A1E6FD101409FF1D
E363F647EA749EBB979ED27ED275DA4DE87CAF31AD59FBD8ECAAFD10EE1AC8CDA5A9EFB2098BE98B907BE89521AAF2F3AC0E98B7B130F00389BBFDA7FE62095E
D044FB54CC52977DA276CF30CD57F6F0E785A872AE680082E3B50BC8F0E1D4018B6AE5DF05E4DE0E9399DAC0D7D4F1E5A5A58FE7A60CD7028F34F55E06B1FDCC
CCE3F6A8DBC08D60A62ECBCCC244DD10EF58C006A70BFF3FFCC4FD51FB3ED1CFA8C4E1011129EB1C9F2CDAD3D8F4F7C992C0905CA9A3E1E797D0FA6E071CFBD9
FF3FAB10E23B0F49AAECBB53E63E03B2A615AEC4DA858F18AA55C9C7A9939B4BB0EEE0C6DFE9AF5DEBE0EF96CB42D8BEE35ABB9AFDF0AE02B9A902D1F8CAC158
02CDAF03E1FF039DB2EAAE01E795F3FAA9EEB5D4FEBC8D94ADD6BEE3B59DA626B9B7DB97E725B36FDD8EF81FE404DE15E67EAB37F328AE4FC4B801D6F6B5D8AB
F69EBDCEF34C1233B797B3EDE18AF1F401C2AC26EABD9A1DB051BD00D8C4E379F509E0A7DDB5B632DB43E517B55DEA7DFA279062FC0BB7DAB68A0B07F615BCB1
F3F4A5D318F1F9A5BC70A8F2E5E6EC8DAD21B4BFDEED9F15C705C98FBF13C5BBB61FD86AE256B0D3EF96ED01B340C8B9F522A1C9FC46BA70B15FF9A9E8ABD4A8
017EA4DCE57EFA0AAA5BAC34E4220025B0B3AC27F8C399FFBCA2B625B4CD884AA771DB82ECF9AF7CD72FF0B9C3ABE6F2E4CBA89BF211C44BB1A41495F5D3DD98
F8F4B007E7CC097DB162B2B1DBDDF43AB8D0ABD2EBFD9847AE76B8FEBC34AB7CAF5CE0E0E160B50BDD6CE438AC63CFB6E74FAB6D0F98B7C8AA7A0E11F5A0DDEE
FC42BA52F9290D81B187B327E2C3F3FCA026AF630DBD9D33AF10C331BDEBA1F59BB4E5A4E896B991D4AAF96EBA0BC44AF1989C9D0A82B01EAF47090DEE77BFAE
FB49AD7AEA9DF737A8BCB4F7E15FFB46A9C3B09FDA8DA53EAE89BB69B923A6E1BC84D9A3E2E9C900E0D300F3BC1CCD69F657BE2FF49FB274B1A1FAAAF7BBC44D
E3AC8000E79BCAF2947A03A3BE820614A4B10B76A42E09C5B67AF3DC9A1EE988FEA19A589B71D88ADD6A0645EF930064E887A527E01AE37CB644DB93F3EDE96D
CB6191F2EC4FDAD18DDFF4F6B0E5C4FFBD520307A0A4FB71C1B0E1C4B28FDFA4E7E988758AF9B614DBBEFEDCE4D7FA25DF4BCA96DA81C3C8D384D13602FAE396
D50E8B81D11BD88AA745F40FBBC2E9F7AE261C34DF400D86BE6CD980B9D3014DD2009EA5A9CEB3A7D9920988ED910B0ADE68BFCFD633DC80A88AD8A4DCBAE26A
D8E78928D2A1FD6E9C99F580AD77C6C0ADC8067DD1FB0A49BF70D6DCB663DF08DB1CA8509B28B684D0FB029BE39FF3D8D5CFBB3FCDB0C4A8A657CA0BECB7E6D7
C6CF85E0EBC5CD4D81F5F2CCBD7AC94FBF04FDDEA52319CAC1AEE251BD7FDF42D716BEE893DDD33EF8BCFF6AE939E548DF6BBEB1D3D7CA10A854CDE7040DDF8D
D0D191B4CFFCDB25A3CEFD1FAB81BAD3BCFE06839D3407A2BB9CE089B180E3EDDD57A760A47EB372DA370E5AEA7116EAEF12C431DBACC6DE9B6BCB94E4DCE3C3
C78B8F43E259CD349CF4004ED99FDD62ACD601A69B580533C157D9A59DF4FEB1EAD392BBA516B00CDD50FEA5F068EB4DDBCCB443D315CB0292C4C94EE348EA2B
C5B98000CDDFD42FA3C0F881B430DFCDA28E0BEC9F22FF06C566D3C1A3A8E41FDB789A83AAD8C711DDFC00DCEA5FEEC6DFDBBB77D2F7D839A4F7C6F6E7F5E6C8
C61DB0E4B3E481ECE821B581BF19DCCFFD30E6238EE2E377B86DDF01EFB0849CF3CCE0D9F6C5E879AAD7EE03A1B0A271E0948A00BAACD03EF1B1FD70AD1CD98A
C749B48500079D44E38CAF5BDB75BA48F8C5DC6391CCEA99AD25C305F0979C19FC26BF1BE9E1DB7BAF66D1D6A857A74EE9408000BFB2BB17E7870BCCA783CDF1
C748AB7EB507A3AAEE9FBDAAB7D2C8BAE714E45E8EFFE9CDA5CEC59EE803A022F493C47EFAC2E810A8ACC2EDA478B315EE408DBDBDA6AD1FF14EF95EAD31E5DC
BF92AB10B0149941E6E9B04EBD2BBF24EFBFEEDF9AE3E7FBBE7BD054E19D93EFF37CCFDCEA2AE95CD67DE8EAA89FAF62F16E8C98BE88B2D8E2BB0850ABC7DAF0
CD52AA8DB6479E84DFADC1D9DB41CA1EEC96D75B9EDDEEFCC0EFCF75DAEE9D58F5DDC8CBF097D69DAAE6D086B6DAB376F3038000BF99B11FE65F075FA730D372
C5F4B1C7B4169D01FDF0B60CC128D4C1F07CEB4A9494DAD1A966CD6DF96B8000EA2ED152ED57DBA6A9D7D41DA69AB2D903568000BA0AB2FCF507FD0AB7B809A2
CC59AFE09F278000E46CB1F3C20DCA7AEE7CD11884F9F1EDAAD9E470E84D8EE1EF6ECC13FA36EAF8A126D8419E43AD84E9138000BAEAADE0DBE604C0AD701B94
C944A831A2048F02E0A9BE0BB7BED402E8EFE2BE92D5D5E0B9FFDE11EC259789F00FBFA3F7FAF286AA09F828A9DBA88EE67D8245B96CB612FFD30D2DA0B7D762
D16BEAEDF06BDAB7DB7B8EE1059AD80BBA7A86A7D2FB8E31F1E480009AE5E9630883DAF1FCD59BA49ECCD837DCF1D972AE098000072DCAE38A440BBEA83FFB68
D154CF2DF50704E6E49986A1FD2CE8E8BBF89CECC6BE8F9E105D80008826EC1CFCF701E9E7C6A0D09CC0D0AB0017D8BAAF8893E2F8C7C2209EC10B0CA62CF902
D70ED252F9DDC176F7DD9CB3EC490C06A1F392E0D6A195540037800097E5E856117CDAE3DA93A1E8C704CD33DF90D67A92448F2601ABCF138935FA97AC31FEC7
DB14E4290A64BEB5EA9BA1D0E7DBE28FC1199D12C1EC8A6BF95580009FC9F008F949D6CBEC23A143A362D04ADA66D1EA987F88E4085EC71D95FD0806ABC602BB
C97CCF40F7C0E520D8B585D0F42DC32AA9DB8D1BE03A89EDF17699E39C6FDC740C57E659EF33A1E8F0B7DCDF01D5CFACD5D49E75FDCA01348EEF023E9EE6F811
C8CBD03EF6A1CB7FE7F887C9DE25CA6EA020956FCF5484F1FE6C80008550E93613E4D60CEB5E9E84D8CFC7F9DA9FC86EA3E18D02F77AC7339463FF4BA7AB0900
E3E4D593FD91BBDFDA1A9244E861D41EA715958BEC6F8A9CF241808C9B28F0BF0A15D7C2D3989B0E9624CFBFD9F4CDD3894E9067FAD1C7B99D0BFBF4A34DF630
D5B1DA39EF6FC990E88A9195F7D8D3BEB48B9217D5F58000F6C88EA7B4EDF688FA86E04FCCA1B1FEA74ED196E281CE84A4BB8A8BF7BFC4A69B44FD94A7F6FBCF
FBE908E7FC42BA07016BF6CDAD1B8000B3EBD073D1DF8000C16DDA71B9C7CBF097D39F5BCA1B91B38000E540F3DB8000A626E5E29AD7AB08AB460CB18474B3F7
EF030B0FFAEAC1ACE710DC24B5FB8EB0C1A5D7E4D3868000CE40DC3CB78AD112B89CA677C1B880008188E750D8F1800090D8D4268000B803B3360E7E92359420
F496FF81FBABC52BE4D8F8FDA6D0973FB886C221CEF98000C0FCE7BABD8ECC6FAD47935FC747B3A1909CE716D32D894AABA4DDADA279A984B550FF329BB99378
F4BC0780F87ECB68E901E6F0B3308F44CAD3BD86D307859DAFA9D436BF5EE0A5AC7DAEF3E0A6D6738000D716DA8690B7A7C8E1409D0FA150BBD60CAC8C4F9F84
EC6B0BDEFDC2B8D2F27EDC37AE729480C4FCD918CB148000C359DA5EDA70D299B9CFA292CE6DAC4089A7E05DDEFB80009C98DB34A4BFADDEAB96040DA0AE9A92
FD1B0654F99FD3C5F0EEE526AF088280D76CE088E0E28000C291D3C2D7A6C595A07D9FEBC8F5D09489BBDD2CD1388000A9F0D3AC9A718996AEEE05FC80009138
F8C80D27F570BF3CEA28F568D626877DB652CB44C9AE8000C797CBBBBA6FC7D6B51A9D0DC2DBA71F8000E650D6A98000A540DC93C01DB0F7AC18F893922CA3D0
F53B0306056CCFCFF24DE5CAD63F8C64B0AAD41ADE108000D6B6E73FB5A1D4DAAFBBA265C187B2E68000E376D9728000A4DBE5DE96FBBEFCA5900A268EE2A93E
B75EFA0DE0A6EEBAA9A6E62D90BBB6D6F7B8EF93DA1CA6FBBCECF46E9F8AD632CFC8B2100A47F252CB0A10719572B9BCBEF6BBD7AA2E89848000DB23B63C866E
B66304F7C3A1EF91C786C7C193D7C18DF043D365D7A0AF3EA598F559A618E50CF724B395F633EB64B54DDCF69D0DBBD5B8D0AA67A7D290CA9068F162DCC599D4
AB780CF8B36318BDA50CE3C282BBB5911294DE6FD434AC0DB21606319A12E0DDCFAAAFBEE639EB93BD85DC539472BF64D2D990B8A8658000948DDE38BAE89138
E3B71831D3250613DEC1DB9E859BBAEFFBDEC8C2CF5B98DFACF3F9B5B1E3D95CD55BAD5AE935F673B42E0BABA61EBD01BCB4AC1FA279911D92E4DF1FC8598E80
A68DFD9AFC4E072BAB64CEB99792BC6EEE91E58B00A0B96AAB14F5589F64D78ADD24AC48F1E2F994EA3CE648AD25B9D1BD9AAC0BB09A95E193DDE424CE05A3F7
D2F304A5A7BC0B6BB8F2CCF99914B1CC017AFA1DD810ADDEA6A2F607A1B4E3E9E55AB3DBE693F161A5ECED9789B1CCD0C6658E32B8089ADF90D6F605CAAD85A1
A93601C9AE92F4ABB994D8358000B76FF8F2CB6AD402A046B38AF0659D57DAEDC663B25DE876E36DDA37E459AD45BA25BB0AB454A4DF8E418000E52ED8AE9559
AB520046B109FBB7BF63D42187BCB7E6F3D6C8D5F00CA3CDB393F6DFB699E8FCC769AEC2E41BF28FBC51EB9BC6B8C6C6C9EDAFD2AEC6918888EBE227CFED8D7E
860BF428D90CF6B4053C9B8DF668FE8CC500C932F2B1993BCB0ED53B06410158EA1FD4D7F098EFEA0480F2C08000CA93ECC597DBDC43DE90ED55FBC2AD57CB9B
8FC9DE440248ED4AFF89AA53F23D0152BC878D820C569A7DE759D875E85BF1F1EB26ED53FF35E6CBF301F04D8000BD33E85A99CEE57FE3B7F2E2EEECB3F1C0AA
9611E11B1205E1B8FFD7A6F7F6BB147FD7C59A3F0D28A07CFBD4E440E9E8FA04EA55DA0E0A71EFBEF03900498000D09DF03C9D81EAB1E455E2D4DFA2BF6DB157
8E21D55CD968EF83FB03A3F4062A0F48C46B9AF50B42AE43C340DBA1EE7AF93EE697CFD4F44AFC05F873F7218000CC25E6D9A93FE1C3014EFC32F987BE73B802
9A20D8DCDD18ED7A0212A97FFBFFF976BDA0ACB0EF5CA57EB8ABF8D3EBE100DDE933D0E6F32AFBF5062AF7338000016DEF6992F4F2BDEF2BED6EE08CC28DB43F
B7C5E0ADED6DEBEDFE21A21BF71A0A89D697B2AEECC2A66AED26C5E3EF60FB07EE9CEB0B135EEEDBF79CE35C8000CCE2E5F79F62EDC004240C6FF6A1B667B1AD
814FE6D00F51F2C709F59F69F74BFB09CA36AA6FEE97952CC4BCCB6B0DCBEB73EE08D238F500F4AFFD6BEE1B8000C110E64E8000E71DE5A3D4E4ECB9BDC8C023
A42CFA79D955ECBB0101A6BCF3C3FE93C516A888F68996BFCA4FD7FAFB28EDADFB11D357F439E7E2F5D6F0468000C81CE8CC9658E101ECC6EEB812FEB8EEBF8D
D908FBC7E5AE8000A561FF50C5D3E987F296B151A7F6F8DAEC06F0390354D13A9055E1420866F73FBF38CEA5E89FF8EE956790F3A3EED75A94EB068208D61853
0C010D46EB6582C7AB4BFCA5C283EDDDF99BB105A7211387DE34F73CF61CC819A53CD3140E86E70D9949D655E1B7079FB21D9C56AA2D04799E86FF450388FAE2
D0651486CB6E8044A6C9D3BDDBC4E15BF431EC86B1E9061BF9FDF33FF7B5E327999DC53E1933E2EFA3B3DF9DD738F833ACC59E449FF5F2AB9A94F9A80645F8F0
D6DE01A2D6B48FAFB5C7164BCB40DF40E820B8CCA538F8E4E265FB82F62DDDACBD38CA280C94D260959FDE31DFD4F85F9D25A25DA98AFB4DA7C6FD0210D902C3
E3370A44E07694B79FBCD306D69F034F14F5B71DA85D1F03DD2C00A4FA76CADB96F0D53804F7F39BA0A1D440E0E8F573A0E89D51A698E5F5A732F7EF1455FE8D
D7E80618DCD094D0A69EF385BE60F9FFE512C689B6260ED0E443F349F45DC650A169E64C0514D39A8F94DCC0E4CBF113B1578000BF47F25C9EDEFD8A05FC0CFD
19890586CACD8000A5A7E20CCBAF0469EA1CAF6DA697013D0AE9F0FFF6C8D6AD931BE3BC11C6E054948ED90DCED8EFD2AA3289A0A7EFE0A9A026F96A0B4C0238
D00002A2D8FE80009DA4C6D1C8A1E53EE8B0C045A18702B8F662FA1DFAE1D719988BD5230F95E7679C19D82AD86706E59C1094D0B23BE47D9E06F7D1FBB20618
FEB1B3D3E47D1281B392C7C7EB3B0CB4A77AB790E72394ECADCFCA80B323B7E0A890E0BCE6C1AC31E1CDEFFAC46CD721EAB5B611FAAEB024BB6CF7E9F9D8B592
FDDBAEECDEECF85EA038AF4DDFC9FAD4AB27B17AD2228917B176BBC4CB54AC3DA7FEE4BDE410BC5CF791F7C6C80ED33DE3BCB10AF7B2C9BCD3C4FEDEF116BF3B
F80AC670EE1106C6C6BDB097E44CF5AFB94CAC5ED6579571A6E8B6D4B66EC44FAF0CDF8BE914BE5C02A3ED3CD943E856EAAB96C8081ABA5BB1ECFDFA10C7B74C
F6DAB58000FDFB61AA1DA9CEFD220090DB4EBA16DFA89E83AD87CCD8BF8CB49FEACCD9E6ECD0B876EE4002CFBCF1E014EB51A016064FBF90D8C9F54AF891B675
03A4AF6AD625014BA76EB3A8F587F466B787BF59E1EEA3BDA7E8B0D2B99CA47FC366E631E3B5B32DFB381168B3C4DB4BED0EA3B0F3B6B1E9D16DF883F414BAA6
FC62AB2CEF5509039CECB21AD32A014FAF62B32CE9349E27A9D8BAE3BD4F9B94B21DE334ED93BBE4DD2CE60DB5A2EAFBEA11A68BF715B742E3C7FD80FBCBC24A
000DB587FC460470A752D14AE7CCFCECA574A9BDF7BAA03EA246C4B1B2C5A4209E0DED900A5DA9AFE05FF161C1A9D040F3FEA2670734B4B4AFD6012EFCC4C0E2
0264B224F526FCF9B221BD6CE80C09B2ABE2AE48F6409C1BB6CEC4E9B42DA2CCA8ADD8C1E74CBC63DAE8F8E7B900CE4DE645A1EFF73EB1EEB8B701BAFF02C4F8
D7598000D952CEE59EC6104DA78EE4C69F7305EEA9DD0BC1BA95DA88A3C5EB58DA3A9DB19881ACBE03010839ECBCF194E993A88BE223E216A762DBD0EE86EE4B
C6F18B57EDCECB39BC36F65228B6D1E7AFFEFEA3AD99007EC79DEC93AF32DDD8DCF1B328A2FCB49FDE9D09B0F24EEFA0D9A4CB7AD774D19D8BD8EC78E2BAE5B6
1AD88910D4D5D944CCB3F1B733CBC5F0A04D12ABACEB07D3CEF0DD8BCEFDD7F1C9F1B3C2A4A7BBDED1F605B30140EAEAE907CB8EDBB4B9CA9B60D5E1E027E863
CFAA8D5BD484CB03A5A5F058B68EC4E7A7890419A8C9F839CD6DDD90DC34F898E243BA4DA7D5BBBBE3DAFDA0F7B0E62BDE6FD086C78DC506A322CC3BDCE4EC41
C32A8CD3D27FCC559C5BF21C13ACBFE2A8DA03EEB8A00566C079E029C1E5DB86CD28AA5FAB51BD790FA208F1E4CCED01DD30C070CA0AC7719CB4C863E3B7D54D
C33E8CE6C82BC9BC9C9EEFBE2906C631A540FEEF9E9C0AA3C874D6F7F1FDE717DAB5B8FEA55DAFA3EDC00B75EE86F735E7F8DDDDDD82C76B987DDCB3F5DCE852
E872915ED90DCCC49DDF033BD953E60AA581FFDB9F3005EDCDBDDC6BA23CDCF9E8D6A554A0D2AC5DE043FE4FEFACEA18E189B666C6DFCA1E9217EB7AE682EDC5
C8118000CB4FCE109E2EFA57B4B6DA769A8C039C9FAFFBFBC026E0D3A0ABEDFBD00BA9C2A7E3C6A8E40802C9F101ECD0DCA4B9F4D8A0D1E0A0DDD03DF2DBE4F5
CB68B444C2E580DDD7F1A986CC9BD2C1F426E50A957EDC1AAAB1E0DDE370B5E10CEDD603EFCFEEDFA9400432A759B9C4DE4DBEA9BF83A8DEF554FFB1A488D9CF
CB35ACF0B1F691E7DC95D111BCB5C0ABED5FEB91A15AD97BB574DC23FB709F990357F4CDF127DF4BB7A9D47AA8E7A6AFF5E39638D0E2B01AEE1606A5A98DC540
C899AFF5AC6B9708DBABB3A7BA10C70BF271E8AD9D6DEFC4AC88D24BF1A9924AF22FCF4AF26CD7AEB6E9CD8CAF72B401060C8CA5CA29C0F1F4C6FE6AB0ACB8F2
C8CDAD8DB8A29D21D873BB30BC88C536EB1CEFA8A0BDCB2CB79BD4C4E3B18DF6E756BEC3ED60E9B6CC70D45FAE69C1C4EAEC8334BC85B22FDEFB108DC9A8E8E9
C565BC97BEEF9104E4A1B7BDC5B9C457EEEBE4C0A54DCD5FB009CED7E626A374EE1AC5A4F2B7E1B9B96DDF44A78ACC01F40A8E1CC482BE3EED21FE9E9FCDC413
BA71ABD9B5768000DA7BC560B50CC58CEC09ED40974BCE12B2BACD5FDB3C800005B6C351EC6606E5AB29D126A751B611E60A8FF3C29BB36F13000848C182E3AA
BEF4AD9AA52F8000D564BC66BFFEC7C7E4F1D05E8662EBC9B0C5D0CCE95390A3F8D0C21BF48AE4A5A62FE43CA5B5B0D2E4DC8000BCE2AC22E0DB00AEA55A0185
D098A492B3938301DF47B3AFC2FDC823EA8AF0928D30CF2BB364DFA3E96E92F9EFDDC53EF581E455A580F4DBB3B8BA20EC22866CC1FEB44DFBD20E6B9BC7DC4D
CC0AE326F458E8C4DB9D8D85FC80E2D4C2BB88FAD4918B36F73E8000AA40FCC2049DE18ADEFD8C9D94DDF23FD380D99DA8FB8253064FC7809089101FC9D2F67D
CE37DC85F883D527DCE1818DF5E7D450C4268D88C32C945719B780009C88ECBBF85AD2CEDCD497B0A227CEFDE313CCCAB586A7290286D343A3480BD8AD35FA3E
D474D9FCFFDFB4CDF87592B1D97FE415AFB898A9BFFB95C7F43086489D37F5D7F447E9D0E012A9B4A944D355E414CC4398D9A1D7001DC7AA903101E29FE5FAF2
D428CE48FD8CBD5EE5409186E506DF4FB420AE4FC9CD8F96F04C833A9E9CE571F14FDA2FD6A3BF64B08FD687F74ADD71A2D89515094BD208E16EF953A795F5C7
C3DCE2D005C6BF32C7E8937EE981D6EEAB959B98C16B92EEEBB7875B9CF9ECDEF158DAF3D96EA42CA936D066D484D31C9C1299BEFDB9D4C8B5BA0E42A4DF013B
CBB4D85802EEC341EA6E90EFE907DC1DA6CD9BEBC5DB86F1F89A87069FE4EBD8096FD354DA55ADB4AC13DA99D915CBF0B0668930FB29CCE38E72FEDAA95AF8DE
DC1EDC95F230C1D0DE178E78EC81D510A7AF9641DD828B3EEC398D0BA0C1EF1BFB80E5FFD8149BE7A2D7D208D825D334A5DA9C320377C5309B2E026BB0B6F5E4
D3F5DA58F2DFB788E1DA8A4300D6CD6BB63F8E84DF2F83FEFA798337D947F6D6FA9ED96CD64AA581A01DD3B5E4E5D893AF6DA73FFDF2C9379C55FC7FB960015C
F2B514B6FD05BB87093F05D9C04F8405B782E1EDD83D8000D3F8D430B890CC8B9CC99AC7CADEA2BD80000CC4ED9180009EFFD9F1AC81B290B9542408894ABEE8
EFCE07D301D5BDA1EA15F5E0B38A8000B578D67BC8708CABAC23D36BBB3CCDF4B3EDA19AD8338D628000E447FC568000A9ADE42F8000BA65B0AF0F7B9DFAA835
FA0B003006AEC87BE3CBE288D58A9280BC12DFCBD8CA8000C4B0D53FB9FEDFE8A83E9A5BE1A5AE278FFFEAB2D3BC8000AB6FE108A54AA44DC710FDE59D5AA703
F57A0B5BF8C9C4E0E07617EDB70B8F5DD52FD46FDF3780E0AC5BD2E9BE2CC75EAB53A95BE118E2B38F7FEDE4E187835FA9BDE535A713A388AC4A1E6AA489A538
EC3F05A10C37CBEDE07CE3BBC84C8C47BEE7ED85C97C8D16B9C9D475BEF4ED6CAD31A065DA57B0418000E863F8038000AAFAE29098B6AD37BD870ACB922DA8B0
FCE20144FFD0D2E4E3F5DEB4C7AA8000C405F9E8D0778B85B57AD129C4A3D644B445A27EDD73BA928FC5E00AE4ED8000A5B0DB90A521A0B3B1C60E228000A53C
F42E13D9F854BE83F7D6EBDBF6DF9541B7ACCD12E6EF8000D84DD6C8C3E3C965B0A5A04AD23CB7EF8790F037DFCD8000A334D1E89B97B91BA60908068795A6F8
FBA002F5033EC3B2ED5CF511CBD08000B8E3D7D5E72B8000BE03DEB0BA15CF75B357A6F3D1FFAC0F8000EEBCE3E4853EA497DAFC9426BA52AEA70FE48000AE20
BC050086A6B7F152B532D868A844BFCD04EFE71CE286A157B2C9F498B3FFD45AC6DEBAC607FFF222B8A4001FE1BEC427B3C4AD229D548D5D8000E769BBD78A1E
ABD6FAECB7A7FC56B594DF7F8DC5B77B03EC22ADDF51B777BFB1F198A42AECCECB89A95007CAEC45B53CE9F48FBFB735BE5DB882A911951F84D8E92BCDA59342
96EA0328BB7E07F9BE92DB929988D57EF5DCE183CE59C5DBAD470710930BF70ADDE3B0D9E1F0F556BACDF0FFAA98BF85BD38A9DDACBF8E9F8000F063DBF28A20
ADD8F6A7B57905EEB600E03291B2B7F5F0E2C293F186AED1AC11F27DABEAF192D167ADF800841272AFF4DAC4B30EC3F6B9F9A63A8693924C9A47EB1CC15D960B
ACD10223B9520A61C964D0F19144B799EE3DDF72E408B1F3B064F436AC09D7F1E111B10EFEC4F4D4B147D3189E5AC028BC6AB330AAEF95F88C1AE9D3C5699E8F
ABD1FC27BAFFF9C9C114DD0E8C2BBB730E6C1BCCDC6AB739B5A1F7B19C98F2F0C529A857E912F635A874D8EEB24ACA23C2B4AAAAA89C9B898000E61BC9828000
AF62F78AAC30EBFEB158DCB8933CBAA413090333D52EA59BB27AFAD5A29DD81ED831B8A7F237EB3FD02DDAFDAF74B10EB936AF16A478993A8000E6CAD0AB9CAF
AEADF9D3B83AF775C3F9D705808EC8D0F6C6D816E349B1E1B6A2F6589E9CDA01C81CB6E5ED1FF340B2C4E570D018C927B279C0F4A7D58D9F9F4EEA03D17B9D72
817EF0A7D9C80420FFA69FFBFB3DFE76CAF2BB03F5128E70CB36D4421CA40B1DEF2BDAB5FBF5ECA8FA01F1518000CBC1E1C98FD9E574F1E7EDB8E433C31CBFC7
97F0EB8EE0DFF47C0325A73EEECE0365BE32964DEDB3B026BD5AD6E61239F359ED99DF19F680E55EF09AF776B734C32BDCAA0300E1A2D4A9F6DDEFD9B542CD9D
9794E3DDE76EFA79F941A5E8F14B0AC7CD9E985105B7A35FD37AD536EAFEF756E93DD8B20855E60FF67CF15F8000B098E3D9A5FF1F71E88BF23F028EB509AF6C
89FFD2D1DEC7FB50F808A221F55B02B0BD43A592E1779BBDBF23D1FEEC4BF1DCF1D0D60F02C6FC69F59FF0DD80000B08EF9DA8152809E167F701EB69BAA5B557
94AADD74EC7DEB5BFF809F0EFB1805E3F3F1B0A5ED5BA5ADBFC4D55ED35BF1B9E91DCD8DEF5A120BFD3BF5C68B6ED18BEA219D3314EFE5AD028FDD99BA8CDEA4
88FEF3A0FA3DF0B7FF71AACAF1D7FA3AD17399F0E94C9D59CCCCC333FDE4F0FEEEC8DD0725A80740047FF3598000EA15DD2C8BBAD6770CA4F73EEC06B7B09D66
8099E76AF32FF58600DDA150FB5EFC36D1CDA901EF70974DC552D3AC3B69F1B6EB39CC4F01C6E268EEF9EDB98000C019E16A842DDCC3E8C7E877E335B605CF8F
8B83EE4FDBA60C8101C59C5CF65FFFBDC83BB9DBFDEFABB2C5D5D655FFF4EE39FA64DF9AFB7DE8BDFF6DEE638000C5B5EA498D64F318E60EF385E73CAFD1CAA6
CFB1F1B3E7248000A12BFA55CDDFE230FD9AC33AA6C8FB03FC7CF74E0A24C479834DDCEB19DEED519D5BDB1CEF00F230A2EF9470AD2BF0669F2801710A1B0CE3
DA5BEC45D9BD8CE3B67D0034DB06E582EF02C2A9AD8A01EBD1DEFC7BFDEC0CDB9F0EDBBB0ED3E4F28C98E03DDFA8FE5FA7269CB4AF2FF2ED9E6CF9740AFA148C
C5B21302D09C8000A118D7A2D7D0F3B20C74AC2DAD3C0223FA95EB2EFC76C1DEA638CE781CBCDD309F55D69BE15FF648A26D9880A401E61298CDFA810264F7D0
C24D1710D8C193AE9D25ECC3D3B8D3D0EDD2BA75AFFCFD00E866E78AF3D1C427A1CBCB9515ABE44DA268DA1ECE09FA2AA12C9FAFAC13052E97DBF62C006C0675
D49F001BDECA877CB3AAD3C4C7FBEE58ECDABFB2A5F0FE82E433F244F4CCBEF69953DF1A10F8EB109B10E1F5F3E9F47FA1099F2DACA0FD83A612F62EFEFFFB62
D0BCF774EAE59210A6D9D835BFFAE501F3E604D6ADE91555019603F3EF78BE908E62F8940AB6E8BD9DFDD429E393F0FEAA679B35B428CE719ECAF9570D6509C4
CE81F585DCD080009E65E11AE2E7F8F7EBA3A817A93BFD3C09A0F521FB1FC12395BEE4341EC0E94D99EBDD37D3B4ED7F96149204A5F1DDD1A21EF5200A880C63
CC4CF3D8DEE58000A55BC501CD47E216F559C7D1AB2FF700FBBBF47601F9C51E9C19D7D31A40E4BCA74DD738D988FC62A3358DF0ABD3E016A083FEA105E70AFE
F5D6ADA9E9EE01DFB3A5AD3CFD5C02E7A6C0B43CDB6E9907AEEEC2F0A3ADA6E1A60AE300DD5DC417E4D6FA34CB4CD392DD0EAFEDF752AD1BB108FCBDEFA7B646
034DC0B8E8A4F8DCBC53B2B4DF3FFAAAA4ABB02DD91A9109B0EEC2D2B04C9A88A64AE97EDC17DB77099800EBB743CB55F0F3BA29F9DEA694CC4CFE25F274CCE8
044BCD41E742FCE5B7EEADB7DFB8F2570B20B0D0DDBB9FC9AE98BD8EB90CB80AA447E34CE5D2AB81E379EB63C44FD9D4E1E0B28A067EB313C4F8FDED08A7C921
055DB197D576F8C9BCDCB4FADFB1EF06B863B223F140C80FB0E2E9FBB823B3D2B2EFFBFADED0C4E2FE56FC4AB9FBC322EA04A3EEF9B7B893B9D5F203FC6DCF67
1888CFDA0B2EFE0EB013AB3BDA81EFE7DEFBBAF5E16D9316A843B31BB64DA5D4B26DD958E1FDC52DE119DA40BC4CC5ECEA8CBD25058FB54ABD5D07F607A3C2F7
F003B2D7E97600779DE1AB44DE37F65CA808ACF9F68BA34FB308B706BC3FCBA106DAE308E95BC773DBE3008EB902D191EB97A2FBF92EC577C39002AEF349B9FF
F8D2BF7BEFCB03A9C0EBBF9AFDF9F2B79AE9A94D00BE9FFAA33BCCC3B081960DA1A9F1B4E806BB09E49BEF92BAF9D04CF12CA39E09D4ADE1B9940AF0FB3DCF8A
00B6A9A2EAE6000FB7B9BA84E0B4FE4DAD89B040E19FA074B35EC743BA0D9C81B103D454E635C4E7E55CF65EB7E8CCAFE066A1B8FD61BFBCB655FF7CFBAFD2F0
D2688000DC19CCB59590FD249E73CED49E8C0C19A852018BB9BEFBB69487F593080CA95DA2A7DD07FEC60D8FEDBFE99EDC63ACA3E4CFFED4B528D7F6F149EFB4
C69D8AB6F145CE9C96C2F1210C0EE840AECF07349D7E04B8C5BDED6FAA6BE9CA0E7AA124AA32C74CE00701C3E7310182DD73C0FECD06D69BA4EEF1E6FC24D533
CF328A90F29FE02B97F5F6F6E096CF2DA60A11E0A91A0340BF25D5EEA483E3C2CFDEA775B265DD2CEFFAFBE6E6F0F1E9E7A2F724DC02C7C2A22FF084E4910A15
E5B68DF3C90CCF8998D5F36CFF4FC257A9020277A88FF7B6C743DD15A6B4E1C0D021A22CB19CB75EE27F029BEF3BFEB9CEC6C657C718B51E9E3AD50DD56ADC7E
C829870BD155C379A146F7C7C0FEC806A6FB0D0DA34CFBD5D3C6DE26B7E3D576D4B4ADB0A132AC5501D41745E3F4EEB1D680C720DBBECDA8A3ECCCEBF4D7E78F
D97B9090D181C9A8B0690700C114BCCEA5D2016D9D7601C9C100E587CC8AD1EBC977BB18A73DB3F8EDE4086DDF641795F984BFC4D39EC40C9D84ED24EC2EE90B
C7C58B15E05BEF3BA001F455CF1EDCA4AA6600CCA553F720C0C5D9729EBEDCDAD7E3AC12A124B7BAE16803BDF797F4DEF9EEB3F4CE79E8CA893FD313E0D8F26B
CB698282D065D892AA6EF298A9C2CCE4CC190B5EA32207A0CB91DDB9A82FE140DA18AFBCA979CA6BE33EFF61E77CEBBFDF4AB5EBD36CDFC09EA9D85DF2D4E431
C6E5B55E9F2386A1DF2AAC66CEDAE30F193EF480A081EE50AA08E76ADE1E8DC5EEBAEC1DF088F668D2591FDA9D60BD2BDDF581ACCA9EA6E6E720FFCC9D22DDE5
C1DCAC73AEF99505DC9DF044BF86C1D8F294FA388F52B1CCB18DDC7DF5F58BFBE738CC25F39EE7C3C682E9E8ADC9ACA6E0AD8EDBBBF4E252E210F95AA6DAD4A8
D1E0B1ECB3479270F7E2BD09BC83DFD3E4E6E2A48112B477B2E3D7EFE668961AEA63C164F60AF125ACC9EF3EA93DA275E30F90CBB9ADC868F00EF9F9A4E3CFF9
DA68C6BBB54BA34CE034CCF0B1D1E106F465E7D79C29DADCB5B3D918E0DD9120EFEFC516F5D0E49BA0F8CE8DAC19AC16D9C58C4DC6BAAE88E28901B7A4E4BD6D
CE64C527AC1DA114DE06C511D6ADCD27E05AF136A29EC94CAF85DAD5DADC9F40EE39D7C5F40EE762AF42C3F3AE6EB108E31F93D0C87AB17EEC82FF14A6B5D95B
CD22B927B0AC8000DDEBBF05B166C8CAF01105C19EFDED33B454BD49E3F78000FD9EB94DF346E9EEB6C1C72D9EA0071DD75D9EE9BCAEAAFDE04CFC739FDCDD64
C47EAF9CA4328000E279AAF0B8F8CD4CEEDADF708629F035B5A0E1B0EE728D38ED1DECC2F412E7B5B4EEDEDCA1BAB354D8168000BC7BA8DAE195FB68A2FCD9A3
C441BA43ABB499B4E915B8BCC187D802ECBADD8D968EDA56B48ADD42E2279572F678D388FA58E7ECA59EF684B12EBB4AE92E9073CCD7B1B6F9C901E79EAADAE7
DDAEE692EFA7F07FD26F8CFFF6ECD1E8B1E6A720D58783CEFC8481C3AE1FF92200E9CD4DE53094A099A5F2EBF0CFECD6A6D8875C3331CE2E982BFB7FB592EF83
C9701B5BF4A6E7D2DAD288FF008FD015AF20945BC23F9C7D1D828C38940C12C5FB0DEBB9F700955696DCCDB8FC44E5C9A50F97B20E88D1DFA81F025CA7D1F729
CBC6D163F9BEB0111A5F8000F1FFD8D794348000C2BE8836F38490E1A911E578F7BFE1C6FA7AA5299FB8DAE6E9E2D96CAE139ACBFF96CD08A7F8F9C4A6610D7F
CA77D2090835C41BE7F68B65F8DC10B7DC9E9636CEE7988FEF3380009EF6E9C3F558F74FF648A734AF1DCCC7DCACD142A70D8CF4048FC56D9F48F8588A3BF999
D980DC3C052EBD86D3A787DBE802F9F7BAF49CDCC7C89793F31E8E18A5EEE5AEFD0DE58EE6B2A4F9AF81D1D91436E4EEA8598BF1FC57DAEBA395F57FAD47F3A1
CFD0DFA10F59BCDBE28790FEEDFAD6A5B5DD92E9E81E810BF8668AB492CEF60C036CDCA6DB61B6B19134D379F292DA8E9C00856C0DD5C0A09CE1F690AA2BEF9C
E872DE04FFE7CAA4DEF69230EC02DAB1A6628000DBCF8B3EEFB480A5A83B044FF641D94EE8768EE59B8DD7ACE578F6F2A08FA00E0B9FC3E89C7DF82AA7D5F8D0
D102DB9BF01AC276E3D793F2FBD0D6F0AE8590C4D5EB8498FF538F26AF3D11D9F7AED021D6CFA695AC8DCE35E177E328A3929BE60B77E192AFF1FD54AB16FA11
0230047EF9D9D028FB8A07E1B3C58ADDB15BCEF8D47C8000E48DD639BD8ED409A0CB8B6EC1C5A6068000ECB6E3BB8000A781FAAFAF81AD32B8FAFA0792BBC2D6
F3CAFC84F9F4CA59E6E2F0E3B55D8000C9DCD452D7528000CF54D1B1B431DDE390459F01D110DFE784E8E22FEA4A8023A424DF668000AADCB27B06649C49A288
F2C6046D0944C606F640DEF5BABFA2FCB7BFD358D17D88E9BA65CF39E037CD5BA834AEB9D386AC5291EAEDEDDE4C8228ADF9DF0CA4E6A711B29CFC8AA0F4A4E3
F068051DF73FC768E820E697C6E99356B30CE58AD48C88B3B6F2CFDACA80CFAEAB12AAD7F001A8948000FAA2E3FC8000B3CAE0D597F3A6FCAA3F03D991C0A3D2
F9BF04E71AC6BFA7EE19E220BAD08E58B933ECCACC828C30B182CA1FC5A7D646A6CFC097CD0AAB6F8EEBE4DCE3608000A7DD1D0E9F13965BB61CF7F38F79A4A7
19E6FF960C90D279EA14EA47C4E6965FB050CE70CC698000C332D65DBD34CACFA76BA8BFCB72BE4C8000E336F9208000A2B5E8E9A1AEB2B7B4ABFC94870EA4FB
13ED1310FBEAC37EFD28EC8000F199C3B008CF35D8208000DB05E1A1B8C9CED4D60B8E51C506A46C8000E960D4EB8000A6DBE353BC60BD29A067F84F939FA50F
0802FEC706B6C5B6EBEFF1E0CB538D19B1BAD5E5EE968B29D35DD4EDBDACD421B857A038CC35AD2B8000E1E6DDCA9C74AA9AFF1F9282CC79AD40043A8446BA7A
ACE1FA82ADACEE41B576DD78AD65B608F829D395FED8B537B37BF1E7B081D2EFC62AAE3F082EFBA6B57203DBB289B81DACAEADB1A5D991CB8000E84ACA118F92
B45BFA58B32CF05DA469DA4C9033B9D806E216FFD973B458B7FCF3A7A39CD1AFCBCBBFDBE431EDA4B4B2FC55B2CFBCAACABEBCE2A4AD934590CAECF8D49E9CBE
AC1508CBB84CDAA9B52CE7B199AAB8DEEBBBCEA0DC39EEB8ABD5FF24AD0FEDD7D115ACEFEAA8EDF7AE4CD639AFDCCED5BC24AC8BA75B91E9944FDC4EC1648EDB
AA2FFF51B022F1EAB7ADCE54926FAB7BEE5FC780DD08BEF9AB6CF090A160E2EAD504B0B1E884EC87B213D5BBBB3CCC09B9D6C76AA8A496EB825AFD6EDB87A114
A74DFE06BE5C02D3B56FD60D939BB069ED69C48AE7FAB2E6B048FED0B5A6D30CD42DAE38E9E2FF1BADA6C837B0B7C5BEC8D1AC28A6B99C839244F8A6D448A017
AB1BFF88AEF1DD29B48ADEDE8FFBB041EA1911F0DA5DA831AF3BEB6D9E84DB46C70BB08FEAAFEAF9B0F9E13FB5A0CCB6F56EAC9FC1C09D5896BDE8FCC7F58348
AE81F970BB83FB29B32AE53A8225B5F7EEA3D34BDC54AD2DB9CAFA59A32FE682C8A9AEF2EDFBEF44D645E18CA858B8CDC791A7BCA45F94CA847EED6AD8C392F7
B0F60009AFB6EB50B7F7D8189301C4C7FA93DC7CEAF3B7BCC7ABF608A70FDCAACE34BBE4E411E627B2D3E931CB68C64DB608B873A81B8E739A0FEC48E0FC989A
8AAFDD0FE503E46E057FC285F804F5D8D29AAFE6F7AD99A8CB24D576F5F80A42F4BAE148F5BDE977F91703408000C653F7229995E98BFB21EB76E48CB7BDBFE8
9610E36EDC61F32BFF49A327F3A7F689C982BE83EDB393F80BBCE31CE922F365EECDCD08FFACE456F48A060C87ACCA1CD3028000E0CEE452F6EDF223BFFAB971
98F8EA3FE010F5A30A3EAC88EEA0F8ADC02AB165EFFFA5AEE9CBF2BDECDAF865ED24E3D0E51AF3A5F4F300818000C2C2F7C69E11EB9FFC450178E92AC7D3BEA9
996AF54EFB6DFDCDFAA7A02BF7A00FA0C582AC33F812AA01CB9DF282DC30FC78EDCDE0F3F7EEF6B3DEA9ED528000C6D4EBA1A348F00FE9DCE8CBE831B8A3B44D
97C6E30606C9024EFCAFA5250144031CDA5C85AEF773AA4AD098E94ED9C3F3FDF0C6DB7AEDBD068DF279E6808000C945E306A59FF896E2BBEA4BE3ECBD37BA57
9892F29C069BEFEEFFA6A497F69B05E0C8EBA8EDFBDA9E600275E2C8F73FF7E1F3E9E15E0C8CEBC5F27BE58B8000C982EC6A800008B0E172E433E484BF4FB8C1
8902D861F9D2E6B904579E64F8A101B7D3F0B9BEFB36A10FE64CD9810ED6F5A4F0BCD54A06D7E840EAB9DDC2867AC3DADF858E2EE715E8CFE603E073B75BD236
8CD7E66DDB72F51B02A4A631FB49043AC047B4460037AA3DCA27D52F0279F34BF6D3E642EFE0EB09F64DECDC8787CB38EDEE9C45E444E423F45B0AA3BB40B251
D48AF1D6E868987FAD97FD20C8D3DF61EF48D95B9DB00000072EFA470271DF619584E0E209B6FB30B5670B58E42DFB71A62999F2AF20E744A082F2F806A81D50
DE0BFD4DE1619522D1DAF7C2CCF9E919E845EDD9AD57026FE385FCB31790D226A199EA16027CF64AA61FE6F8E66E01E7B101A354AC84EBE6A2C9FA6005B2FE40
F090FDC2F3089B4B924DC05BD804EB86FAC5B300B1B107C0C5CFEFC2F748BE9E9D3600A813FEE2D096D5D963D4480817ADD79473CA150C6CA03CF6450396F92D
CD6FFA68F94E987C9DECCCDFCB3F0DEBF21ACDA3C36DF96AE727F9CBFC59CBFF94B413FE087F0DF9986BEEF0E5EDF51D93259A3DAF3AEA3090BF0103FD20F7B4
D309ED84EFFFC893A5CFC19EC82EE208EC45ACD2B79A0A7DE24AFB490122C61F9D53D74B0AE6E95B9922D6CCEA07FCCEA65E98C0ACCFEFD3A432F52B00200387
DA410DC4F3E2885CB463E2E1D1D4E977EE4AB5C3B222F785FD51ED8FF32EC55AA116F25A0B4BE8798DF7D551E5E9EF9DAC449CC0AD2ACB47B0FCF64E00BD160B
D766F927E27A828BA5CAFF7FEE03FC13E251B0789C41FA20FDADECD3FCB3C3D69989D55C03EDEE3399B6DB96D16902EC9E569582BC7CDEBDA78500D2063403AC
D260FB59DF578ECCAE3CC590D152DB7AE86AB5D19E7C014700F0F9D50439CA6BAA3CD91E104AE5FAA94DDF1ED85909B1A37E9001B0ECE712AB36FF20059D02A4
FBD4ADAFE64A0E47B5DBB94702010DAEBC9BC3FF005B9DC3B0DBE8F1B3E2A8FEC1AFE5EDEB7FD79BD569F956BC69D627E7D7AD54FD7CBBE6AC46F76BFF42B079
FF65BE1CEB62FD20BC91C01DEC38F872BA6DB1E7E16DDB61B30BC2F9B9A396AFBDE7E452DE9DAB90E030F7C0C7E0D150E8DDAEE6F5B8AC5ED316F8EFFF42AA09
009ABD2FE31D0054BC86A8B0E01BF3D0BA6AAA7AE93899A3B3ABC95BBA11D0DBA695DEE7E582B9BFF32A0295C6E9E14BE91DA85DF68DB313BF8111E7EF29C1E7
0176AD5EEB68FE48A39AA7A8DD6AF31FC66FAFA6E36EA9AAC335EF68C3C4B387B4B3DE40E523B7B9DEA316C1B05CD0E2F6DB9E97FCABC3A3B6A501A6F251D181
0249B78DDCAE0E71AB68BEB0E5FBF8ACBD80B7F0C9429DFDBAAFBA32B962B65FB289E36DE546B3BCDC8FECD9CEBDDB11E91FAB21002AB7AFB7C008E4F0FFC222
FABABB58F21805F6B6B7B17DD7AEF7B2BAB4B22AE38D9F41BA89BF56B831B277B872E18CE9C8B6FFE258EA32B552CE26EFB5AA3DFF11AEFBB47CF261F6ACCD5C
035BD0BCE7980719B6AFC592FA26F8BDA2E6A98BE8E99CD6AFE0CCA1B552A389B593DD79E05EB96AEC03EF9CCC8BCE110617AA2B044CBB31B1630357F710C3E7
0255B589E53EFFA4ABB9B5F8E7F6FCAAB87EB4B3E17AA240AC40C520C373B224B07DDE14E92ACF3FFB3FF5CFD187D697F651B072FCE8C0B7C163FED9F753C609
CFC084B0E7FBCF99995507C4B6B0CD74A1750BFBB4030DDAC2E0EBAE914FECDDDEBABB39AA47BC3DE7C00881F3B4F154E30BBB3AD1AADFCAA0D3E67BE4E3E937
CF59880BEF17D04E91AAEFFDCD5DCD0EB4CD06E0A6E0FCE1C1F1FC08C55DEA11DAD89FB0A521C04FF072104FF0D6E76DD892BDA5DD70D9ECA4A2E461E29DD05D
D5428EAED543DA369515EFCA1703DC4CAC2D04CEA43AFB3CBEFEE3B8AA70DBA4C253B4F3A26DBC12E1A1072DEC87EFEBD986C52FD34FCBAD9CAAD4B8006CF84C
C9EA9188CD1FE6CBAB8FF1C2F554CDB0A9E6FF6B9587FD6EBD4BD2BD9E2ECFE3E74AAE7AD2CBA98EDE56051DE67D04BBD545C1D7EE08C344A11CD308E6DAE954
C43A8000D4E2D0A8A792F5AE0092BB32A3F00220A7100B89C01AD977BAD1E005DCC1A690A50DB240DD73FC99E88BF134DB2EC033DDA7C3DDA48CED8BF791DF31
CAB29D0CCC76C9DEAA74F568DD4EBFECB65F04B0A9B7FED1D70DD0CFA2A3E2BBD484C234AB1DB283F99203A918B9F428D94FBFF5D4E1CB6591BEF8BAE1FCE724
D1028952D395CDA49BBAEE00D394DCA1A9A305FEB8E2FCADC83CDAA1A6A7E594D1749CDCA7BBC13CF57303D7F032DE90DDC7BBFECFDBD4CE8FD4DE16DC5EFA5B
D1268000E47AD753A715FBC0B489CDDAA2C30C88ABAE01DFC510D7AFA03DE290D53FB7FDB806C549E1510273F25BEC7FE6DCBBDACEBED901A0AFD2C6E723FA5B
BE43AB23A380937BF436B3B1C612D35F0A94E1959C5D017BC947DCB0E4888F69EA67D035F39EE42EB468E9B09B3CA9EEDE21945ABD94A49DF8C6044596E9DD18
CEB0AD53B39C9E5CFD44B1A0EEAFC480EFB7E6B89412E7FDB191D9C9E25FA033F3EBD0C1F588CDEDB7EEDF54B761BC37E4FBA08EC1D9B3BEEC3800D1B201D127
C54EB6ADB380A0CBEDBBB217C1E2C4D8F000DBB5813FE3BDB359BB26EC889F3FF72DC71AF13EDA819CFFCDB2A2A6A866EDC592EAC454BBE9E989FD9DAC3AC906
C4E5B554AF66A0F4D2A8B32EB3C8CDF6EBE8F9B4A3B6E456EF87CE9FF2649325EF40C996F2F7E2ADBA10E3859CA2B35BEC938000BC73A3B2E224020BB2CEE962
C829B22CB44C9D9DDEB6BAA6D130C456F8FEEAF6AA5EDB87BDA3CCD7D92EA39CEE0FD93DEE4EE2B09E01D893B367B066F03E8FE8C40DB532DF56FB14AC83EE99
BDA6B27DA54E8000EFDCBAB9B9A2C2E7F19DED8C9D84C931B763CF77062F820BE6FEC7DF067CF861B042D3F198CBB023E9889768BDFBBFBDE327FC6FB326E042
C4D5A69AA67A87E7DD32AF41C3DCCA08EDFFDF09943BD71BB7F2F13EE31D9A2BECD2E32BFA2FF851AB40EABAA23AA751DD3686C1B985B39FE0C903AA9B6ECF57
C7E3AA43A8E795F5E252B5CABF73D593EB47E7EF97E6DEF9B687DAEDEC538F20EDD2C71DF99DE1F3B455FA78B3A4AA9EE96F9350C0A8B9D2FDDE008CA08AD89B
CB4AD95DDFE1D4A8E7DA9416E5ACDEBEBEA59BF3B7A884BDFC439734B221EACA08BDDDDE0E5D90419A04E931D8D3DE83ADEF8EB018E3CDB6A596F252F2BAF5F9
D404E0BCFDAAFA9FE0949102E016DA89B926970CC1C88D8E0BFA915DA5B0F8A6F872D3B9F2C594B39B7ACCAEDF2CD8F4A6FB95CCFE9BED96A2D3FC6FB9CCFBCF
D693D7EB0271D6F9FF538000EB7CDA59B4A9B79CD0EA9433EE5F8539A867EB62F8CADBDC047AA2AFA3C1C90AD50EE27393F59587F630C9D09CDB037CA9C000B8
DCBBE05AFB59CC8EF9108000FB53D9CECEF992C8CE9A92D91A3A91679B87F0A0FA22DD49DB179F0184C6CC4CD3B1D495A06793A5F975E2BEA16D08BAA618F9FB
D42BD067033ECCC0E6BC973CE7CBDF5FCCFF8808E651966409EB85D8AA53E01BF7DBF7BAE67DA6CAAD8EC75ED0BAD40695E78A4E0016CCD2817EF636A491150D
CEAED7270BACC517E7FF9369F15AD7A7B47385A3C3C39B11FA8189A395C90A14FB58CFF80082AD04A0B6D507EBABDCB1A30E975A0334DDD3B8ABF613AEED007C
D3F8DA37E905C092E0118F4DFFABE559ACC68977D9339265F10894F3B7F4EFDBFB10006AD57D914A9F1EE078E58BD56F9F9D9EB40DD0CC779D1FFCD0BCE7FBC6
D8AED992EC9FBF0EE9C093A000DBDA48B43D90FADE9593EEF85C9149C2040B340011DF47E55B9EFFAAD6D232EFCEDC14A6959853F7F4CB80AA11FA0CBDCBFCA5
F5260181FD53BF60E859F786B51C8A8CB435D45FD3F28000D07FD350C33CD6F8A85D9031CCAAB3C29DFBE4ADDFB18000ABC4EE60902AD46FB496FAF6A051D7E2
F48806950977CCB4EA80F801C90A883DB46FD335CD718004B75DD412B4C6D028AE47A887CEDC8A4B8EE9DF65E41E8000BFADE88E8623AE49B074006B9AB8ABA4
FF45FEC9F74EC192FF2EE421D1389947B7DDDF69D93E8739CCABD260BBFCDE3CA7BEA182D11AB201914CE6F2E59B8FD9AC49F04BA854AB73B3ECFA25D30FABC1
EFBCFE36FB2BC76CE839E964BAB99843B73BDE89E01189D4AC0DD68ABC4FCB77AB76A40EE9E0B1D589A2DFACCF188000FFAEDD02A6FC9425B09E06049ED9A01D
EF1EFDF60867BF19DB60E5C9A20D9698B411DB42C87D89C6DB03CC7BBBF9DB70AE1B9D35FD9AB26B931FE0DEDCD987C7A549EAECA6EDADEDBF31FFA5A4A9A066
112BFDDB040DCCFD03CCEB93C71E9D19CA28DE88E1A98000CB6DD315B8BCD7A9ACFCB451D109BACE950BDE85D7BC8000AD3DE335BFEAD176BAD0043B89E5A65D
01521770FFA5C974EAB9EB3BF4658C12C33CD6FFD1D68000D355DBF0C084D691A34797ABC2F4AB508000F2F5D0278000A218EEFDC6C3B78EAA1AFEFE993BACFA
010604F2FB52CD8FE771EE91C27F9203BBE4D253E7398000D262D8A2BB4BD9F0B0AC93C3CC1BBB458000E988D8848000A485FA03A207C887B1D60654919EC55C
D50FFFD6E0C3F77CAAD5E71998409B1207C7CDC3D287AE97BDCAFC6EA30AD9CCBF0CAED6F0A0F06BB64CF5EEB1EFD0C5B39CBE00A3D692498000EB1DD6979BAA
F0AC0753BB2CED1DB13DE42B9269AC080293EEB4D86FB6FDB67BED55A648DCD4C78DB8F2F776F045BE61D520B0E1CB74BAF8C1E8B5AA997F9D25F54DCF13989C
AFD30748C39DF430B5A6D1438FE6CCB8F2ABBF6DDB22B50AB318FBCAA3DDE220DD76B33EDF40EF62B970EB5CB51EBEEFCAF8B1A5A5429EF19B5DFD67D31BB548
BFFAFCA7F8470419BD41D72496A9B724EB6BBC45DA7EB181B600F106A800F943DD6BB0F3EFEFF727ACBEDF83A7DBE36EA760AA02A5F68CD7A99DED96C0D694CE
C12CFE8BB6D4F919C5FED7FA9705C6B3EC28D2B6E16BC170B3CCFB799FD0DF52DB17B48AE7D4ECD2BBD4D962BDA0DA36B82AAC28A87792C09B52E2BAD63B9797
C9C4FE5FBD710680C0B9D7B99AA9BC8AEE9DD2AEDDBCB14BE6A8ECD1A158CF59C399B5F2E576F462AD4EEBA10C24D1A1C9FEB1FEAE988F6C935EE73AC5019C76
AAD9F56DCEC60606B41906928A86AD15F7D6D693D3B9B25DB9370B79B01ED941CA39BEDA0627EDFFC6DFEACDA99FBDAFB107AF54AB769BB3817DECD1D048A023
AD0CF9A9BD3CF577A1BBDF568FE3AD3FF56BD183EBB6B845C618FC34AAC7D641CCB8C0A7F1ADE7E3A958DD5AC727CFEDB7A4BD1FBEC59CE5814AE416E1FF95E6
0496EA0B03960B070C23FC3EDCFAF905ED65EB69F590F6B5FB33F3B9E86F01F4FD1EE717048E0112FA560D1FF756CFC4ED2FFFFA1386F761E4E2EFB6011B0240
EEE8DF3FF21CF5C9FCF8E4C10BE2E3E6E3E9F9C4ED6F021E145A003205BBE2A7FACAF04ADCA7F021FF5E079E0971EE0907050613E7EDF43801D8078CF5610409
F3EE0BABF447FDA3F5C9F3DDFE43EDEFF863EF62029E01FB00CCF304FDB7FC74EF73FB97EE8807D8077EF580F4BCEFDEFBC7FBACF7CAE7AB0299F51DF3FEE9D4
07A2E2430A49FA60F0EEE330DEFD084307B105B901AFFBABF305047FF90BF7FAF48C128EF89FF62EF103E6F6E14104810238E3ACE9590A18FE4A03DFEF90F419
01000C801D00FF00FD001F800B800F8003000880FC801F801B000900FA80FE800B0024000580060000802100FA801C800B8008801B00E780310026001A800C00
00802C00FC800400FF00090005000A000B00FE800380020004801C0009000000048007802A000000158005800200100000000C0003000700FE8003001D000080
00000000000000000000000000000000000000000000000000000000000000000000000000000000FD8002800900FD8002800900FD8002800900FD8002800900
